{"<EOS>":0,"<PAD>":1,"<BOS>":2,"<UNK>":3,"!":4,"\"":5,"#":6,"$":7,"%":8,"&":9,"'":10,"(":11,")":12,"*":13,"+":14,",":15,"-":16,".":17,"/":18,"0":19,"1":20,"2":21,"3":22,"4":23,"5":24,"6":25,"7":26,"8":27,"9":28,":":29,";":30,"<":31,"=":32,">":33,"?":34,"@":35,"A":36,"B":37,"C":38,"D":39,"E":40,"F":41,"G":42,"H":43,"I":44,"J":45,"K":46,"L":47,"M":48,"N":49,"O":50,"P":51,"Q":52,"R":53,"S":54,"T":55,"U":56,"V":57,"W":58,"X":59,"Y":60,"Z":61,"[":62,"\\":63,"]":64,"^":65,"_":66,"`":67,"a":68,"b":69,"c":70,"d":71,"e":72,"f":73,"g":74,"h":75,"i":76,"j":77,"k":78,"l":79,"m":80,"n":81,"o":82,"p":83,"q":84,"r":85,"s":86,"t":87,"u":88,"v":89,"w":90,"x":91,"y":92,"z":93,"{":94,"|":95,"}":96,"~":97,"¡":98,"¢":99,"£":100,"¤":101,"¥":102,"¦":103,"§":104,"¨":105,"©":106,"ª":107,"«":108,"¬":109,"®":110,"¯":111,"°":112,"±":113,"²":114,"³":115,"´":116,"µ":117,"¶":118,"·":119,"¸":120,"¹":121,"º":122,"»":123,"¼":124,"½":125,"¾":126,"¿":127,"À":128,"Á":129,"Â":130,"Ã":131,"Ä":132,"Å":133,"Æ":134,"Ç":135,"È":136,"É":137,"Ê":138,"Ë":139,"Ì":140,"Í":141,"Î":142,"Ï":143,"Ð":144,"Ñ":145,"Ò":146,"Ó":147,"Ô":148,"Õ":149,"Ö":150,"×":151,"Ø":152,"Ù":153,"Ú":154,"Û":155,"Ü":156,"Ý":157,"Þ":158,"ß":159,"à":160,"á":161,"â":162,"ã":163,"ä":164,"å":165,"æ":166,"ç":167,"è":168,"é":169,"ê":170,"ë":171,"ì":172,"í":173,"î":174,"ï":175,"ð":176,"ñ":177,"ò":178,"ó":179,"ô":180,"õ":181,"ö":182,"÷":183,"ø":184,"ù":185,"ú":186,"û":187,"ü":188,"ý":189,"þ":190,"ÿ":191,"Ā":192,"ā":193,"Ă":194,"ă":195,"Ą":196,"ą":197,"Ć":198,"ć":199,"Ĉ":200,"ĉ":201,"Ċ":202,"ċ":203,"Č":204,"č":205,"Ď":206,"ď":207,"Đ":208,"đ":209,"Ē":210,"ē":211,"Ĕ":212,"ĕ":213,"Ė":214,"ė":215,"Ę":216,"ę":217,"Ě":218,"ě":219,"Ĝ":220,"ĝ":221,"Ğ":222,"ğ":223,"Ġ":224,"ġ":225,"Ģ":226,"ģ":227,"Ĥ":228,"ĥ":229,"Ħ":230,"ħ":231,"Ĩ":232,"ĩ":233,"Ī":234,"ī":235,"Ĭ":236,"ĭ":237,"Į":238,"į":239,"İ":240,"ı":241,"Ĳ":242,"ĳ":243,"Ĵ":244,"ĵ":245,"Ķ":246,"ķ":247,"ĸ":248,"Ĺ":249,"ĺ":250,"Ļ":251,"ļ":252,"Ľ":253,"ľ":254,"Ŀ":255,"ŀ":256,"Ł":257,"ł":258,"Ń":259,"th":260,"Ġ\\":261,"in":262,"Ġa":263,"on":264,"Ġ$":265,"Ġth":266,"ti":267,"re":268,"Ġthe":269,"ma":270,"er":271,"en":272,"al":273,"Ġs":274,"Ġo":275,"le":276,"_{":277,"is":278,"or":279,"te":280,"Ġc":281,"tion":282,"ta":283,"ĠĠ":284,"Ġf":285,"Ġw":286,"ra":287,"Ġof":288,"{\\":289,"nd":290,"be":291,"ar":292,"ro":293,"es":294,"ig":295,"Ġp":296,"math":297,"Ġin":298,"Ġ$\\":299,"Ġt":300,"de":301,"la":302,"Ġand":303,"at":304,"Ġis":305,"ing":306,"}\\":307,"eq":308,"me":309,"si":310,"se":311,"^{":312,"(\\":313,"ic":314,"Ġe":315,"Ġd":316,"ha":317,"ve":318,"}$":319,"ol":320,"it":321,"Ġto":322,"Ġb":323,"he":324,"ce":325,"Ġn":326,"ĠT":327,"Ġthat":328,"an":329,"}}":330,"su":331,"end":332,")$":333,"cal":334,"Ġ(":335,"Ġfor":336,"mp":337,"Ġre":338,"ts":339,"ation":340,"ly":341,"Ġwe":342,"gin":343,"rac":344,"ĠĠĠĠ":345,"lo":346,"ver":347,"igh":348,"begin":349,"ft":350,"Ġcon":351,"equ":352,"ref":353,"ll":354,"Ġg":355,"mb":356,"st":357,",\\":358,"Ġ&":359,"mathb":360,"ed":361,"Ġbe":362,"ch":363,"ou":364,"Ġu":365,"_{\\":366,"ent":367,"ite":368,"frac":369,"ith":370,"Ġm":371,"Ġon":372,"ct":373,"mathcal":374,"Ġpro":375,"ga":376,"righ":377,"ction":378,"Ġi":379,"}{":380,"ri":381,"ho":382,"$.":383,"Ġsu":384,"et":385,"Ġ=":386,"})":387,"ĠS":388,"ot":389,"}(":390,"$,":391,"mma":392,"Ġan":393,"Ġco":394,"ph":395,"qu":396,"Ġwith":397,"Ġas":398,"ĠI":399,"mathbb":400,"Ġde":401,"ĠA":402,"Ġby":403,"right":404,")\\":405,"},":406,"left":407,"}^":408,"equation":409,"Ġ1":410,"ĠThe":411,"da":412,"ĠL":413,"ore":414,"ine":415,"Ġma":416,"ge":417,"pp":418,"Ġex":419,"im":420,"pha":421,"ĠC":422,"}_":423,"ted":424,"Ġha":425,"alpha":426,"psi":427,"ter":428,"ble":429,"bel":430,"ĠF":431,"tex":432,"Ġare":433,"per":434,"label":435,"eta":436,"ul":437,"rm":438,"Ġv":439,"to":440,"ur":441,"lon":442,"ir":443,"res":444,"mbda":445,"il":446,"mes":447,"Ġ0":448,"=\\":449,"ĊĠ":450,"ec":451,"-\\":452,"ĠW":453,"mu":454,"low":455,"ĠB":456,"Ġwh":457,"ity":458,"ĠM":459,"line":460,"ome":461,"cite":462,"int":463,"pa":464,"ĠP":465,"do":466,"}^{":467,"iv":468,"ad":469,"if":470,"us":471,"ĠH":472,"Ġ2":473,"Ġh":474,"}.":475,"ran":476,"du":477,"|\\":478,"Ġal":479,"as":480,"times":481,"text":482,"lta":483,"tic":484,"Ġ+":485,"ign":486,"ĠTh":487,"}_{":488,"^{\\":489,"Ġ{\\":490,"lambda":491,"un":492,"phi":493,"tial":494,"psilon":495,"tive":496,"leq":497,"Ġ-":498,"um":499,"pro":500,"_\\":501,"Ġit":502,"ĠĠĠ":503,"om":504,"igma":505,"ĠR":506,"Ġcomp":507,"Ġthis":508,"Ġcan":509,"ds":510,"gle":511,"na":512,"Ġse":513,"bf":514,"here":515,"of":516,"Ġpo":517,"*}":518,"rom":519,"tar":520,"up":521,"Ġme":522,"ut":523,"Ġor":524,"til":525,"ich":526,"ence":527,"di":528,"iz":529,"ĠĠĠĠĠĠĠĠ":530,"ĠN":531,"ĠE":532,"tr":533,"Ġl":534,"dots":535,"are":536,"var":537,"Ġ{":538,"+\\":539,"Ġhave":540,"Ġ\\\\":541,"par":542,"sum":543,"ide":544,"fty":545,"infty":546,"ĠD":547,"nt":548,"tilde":549,"Ġfrom":550,"~\\":551,"xi":552,"tions":553,"od":554,"align":555,"mathbf":556,"fin":557,"),":558,"id":559,"sion":560,"ure":561,"Ġle":562,"Ġwhich":563,"beta":564,"Ġsta":565,"sigma":566,"}(\\":567,"Ġif":568,"row":569,"orem":570,"ase":571,"big":572,"ĠWe":573,"tri":574,"Ġfol":575,").":576,"Ġ(\\":577,"ĠG":578,"ate":579,"rho":580,"Ġsa":581,"Ġx":582,"00":583,"pi":584,"Ġfollow":585,")}":586,"for":587,"bse":588,"Ġat":589,"^{-":590,"co":591,"dot":592,"ow":593,"$-":594,"hat":595,"gamma":596,"mathrm":597,"^\\":598,"po":599,"ĠĊ":600,"ie":601,"der":602,"Ġpa":603,"ĠIn":604,"ys":605,"ther":606,"}$.":607,"ener":608,"Ġsuch":609,"eqref":610,"ces":611,"Ġall":612,"Ġdis":613,"Ġmo":614,"theta":615,"Ġ$$":616,"tau":617,"delta":618,"unction":619,"over":620,"Ġwhere":621,"ss":622,"ms":623,"ne":624,"ca":625,"Ġ$(":626,"ment":627,"Ġk":628,"ty":629,"item":630,"Ġthen":631,"ell":632,")$.":633,"mple":634,"ray":635,"ies":636,"tain":637,"vare":638,"varepsilon":639,"quad":640,"ck":641,"}{\\":642,"ach":643,"pe":644,"}$,":645,"cdot":646,"pace":647,"Ġfunction":648,"ĊĠĠĠ":649,"ia":650,"so":651,"ff":652,"partial":653,"subse":654,"ound":655,"Ġob":656,"Ġun":657,"mal":658,"ator":659,"omega":660,"array":661,"ents":662,"how":663,"mber":664,"Big":665,"Ċĉ":666,"Ġapp":667,"The":668,"Ġnot":669,"01":670,"Ġset":671,"mega":672,"Omega":673,"ote":674,")=":675,"act":676,"sure":677,"Ġqu":678,"sf":679,"ere":680,"bar":681,"ĠLet":682,"umber":683,"Ġne":684,"sta":685,"}}\\":686,"De":687,"\\\\":688,"Ġ|":689,"ular":690,"sed":691,"^*":692,"fra":693,"ant":694,"min":695,"geq":696,"tarrow":697,"ru":698,"pl":699,"Ġpar":700,"Ġthere":701,"otimes":702,"wide":703,"wo":704,"Ġy":705,")$,":706,"ial":707,"Ġ[":708,"Ġone":709,"frak":710,"olu":711,"Ġhas":712,"ous":713,"Ġgener":714,"ld":715,"ill":716,"ĠO":717,"ical":718,"varphi":719,"ox":720,"og":721,"proof":722,"ib":723,"ĠK":724,"lu":725,"sing":726,"sul":727,"ting":728,"alu":729,"con":730,"Ġany":731,"sition":732,"mathfrak":733,"Ġ}":734,"perator":735,"$\\":736,"iff":737,"ary":738,"ree":739,"Ġ3":740,"Ġshow":741,"rightarrow":742,"Ga":743,"Ġresul":744,"olds":745,"Ġdefin":746,"Ġtwo":747,"ab":748,"ĠU":749,"nu":750,"ince":751,"Ġ${\\":752,"Ġfin":753,"Ġno":754,"pec":755,"Ġra":756,"Delta":757,"ĠX":758,"hi":759,"nder":760,"rangle":761,"roup":762,"Ġlo":763,"tation":764,"Gamma":765,"Ġsub":766,"overline":767,"lan":768,"\\|":769,"Ġr":770,"Ġstate":771,"ke":772,"ĠFor":773,"red":774,"ding":775,"ex":776,"Ġnon":777,"ĠV":778,"Ġgiv":779,"cc":780,"}_{\\":781,"Ġimp":782,"ĠThen":783,"mo":784,"Ġver":785,"Ġcont":786,"set":787,"Ġbound":788,"Ġeach":789,"eqn":790,"epsilon":791,"bla":792,"ĠThis":793,"$$":794,"nce":795,"cap":796,"}^{\\":797,"Ġcase":798,"??":799,"del":800,"rt":801,"sq":802,"Ġdiff":803,"Ġab":804,"ĠJ":805,"Ġfollowing":806,"Ġwill":807,"Ġsome":808,"âĢ":809,"lem":810,"Ġst":811,"sc":812,"name":813,"raph":814,"Ġalso":815,"Ġres":816,"the":817,"app":818,"Ġdo":819,"emp":820,"Ġden":821,"irst":822,"Ġequ":823,"its":824,"Ġper":825,"ldots":826,"yste":827,"Ġcla":828,"Ġinter":829,"no":830,"tric":831,"Ġnumber":832,"Ġonly":833,"irc":834,"},\\":835,"Ġexis":836,"sqrt":837,"[\\":838,"trix":839,"ian":840,"ess":841,"nabla":842,"Ġad":843,"Ġso":844,"Ġar":845,"Ġen":846,"em":847,"pt":848,"pres":849,"fig":850,"pon":851,"ctor":852,"Ġz":853,"ĊĠĠĠĠ":854,"10":855,"bra":856,"Ġcor":857,"orph":858,"))":859,"ension":860,"Ġ\\,":861,"time":862,"all":863,"Ġla":864,"Ġcha":865,"^{(":866,"teg":867,"ast":868,"ĠLe":869,"lim":870,"ose":871,"ĠTheorem":872,"ix":873,"we":874,"dition":875,"Ġvar":876,"ties":877,"}=":878,"ility":879,"op":880,"gor":881,"Ġobtain":882,"ges":883,"\\,":884,"Ġsyste":885,"Ġj":886,"12":887,"Ġmodel":888,"eqnarray":889,"ser":890,"Ġgiven":891,"ves":892,"Ġ4":893,"Ġfollows":894,"space":895,"lation":896,"ssi":897,"ard":898,"ip":899,"]{":900,"ally":901,"ations":902,"def":903,"Ġ\\[":904,"Ġdiffere":905,"langle":906,"ĠIf":907,"our":908,"ise":909,"oth":910,"position":911,"sider":912,"201":913,"Ġcomple":914,"ymb":915,"Ġes":916,"bu":917,"Ġtran":918,"ymbol":919,"pla":920,"very":921,")^":922,"Ġfirst":923,"led":924,"duce":925,"Ġta":926,"ample":927,"olution":928,"})$":929,"Ġvalu":930,"Ġover":931,"lic":932,"tical":933,"ork":934,"gh":935,"widetilde":936,"Ġ\\]":937,"Ġtime":938,"am":939,"ition":940,"ality":941,"Ġmea":942,"La":943,"Ġspace":944,"Ġassu":945,"pend":946,"log":947,"Ġother":948,"Ġbet":949,"tisf":950,")=\\":951,"cre":952,"ize":953,"ffic":954,"'s":955,"Ġstr":956,"Ġop":957,"&\\":958,"Ġproof":959,"orm":960,"Ġlet":961,"ved":962,"Ġsatisf":963,"tima":964,"ak":965,"Ġdes":966,"ps":967,"Ġgroup":968,"Ġproble":969,"ont":970,"au":971,"ers":972,"emph":973,"Ġev":974,"Ġequation":975,"Ġline":976,"rame":977,"vi":978,"Ġda":979,"ĠZ":980,"appa":981,"ĠQ":982,"Phi":983,"clu":984,"Ġevery":985,"chi":986,"kappa":987,"ĠLemma":988,"Ġour":989,"circ":990,"tit":991,"je":992,"mbox":993,"In":994,"bolds":995,"Ġpre":996,".,":997,"Ġusing":998,"mar":999,"Ġwhen":1000,"les":1001,"boldsymbol":1002,"ĠY":1003,"operator":1004,"Ġuse":1005,"Ġte":1006,"long":1007,"gebra":1008,"}}$":1009,"ĠPro":1010,"pri":1011,"ensure":1012,"ensuremath":1013,"Ġ:":1014,"\\{":1015,"Ġits":1016,"col":1017,"Ġappro":1018,"}[":1019,"Ġext":1020,"operatorname":1021,"imension":1022,"11":1023,"ĠĠĠĠĠĠĠĠĠĠĠĠĠĠĠĠ":1024,"ween":1025,"Lambda":1026,"section":1027,"ight":1028,"We":1029,"man":1030,"Ġfact":1031,"ern":1032,"Ġinteg":1033,"main":1034,"Ġbetween":1035,"Ġorder":1036,"lemma":1037,"orphis":1038,"Ġter":1039,"Ġproper":1040,"}-":1041,"Ġwas":1042,"ĠIt":1043,"ulti":1044,"Ġpoint":1045,"tribu":1046,"old":1047,"Ġreg":1048,"stru":1049,"Ġdefined":1050,"ci":1051,"rou":1052,"umer":1053,"thm":1054,"Ġthese":1055,"ind":1056,"ion":1057,"ĊĊ":1058,"19":1059,"Ġgraph":1060,"ire":1061,"out":1062,"tes":1063,"cri":1064,"subset":1065,"bib":1066,")^{":1067,"Ġfinite":1068,"forma":1069,"ffici":1070,"Ġ<":1071,"Ġconsider":1072,"}+":1073,"Ġdata":1074,"20":1075,"olog":1076,"Ġsame":1077,"Ġgeneral":1078,"cup":1079,"ust":1080,"ated":1081,"Ġestima":1082,"Ġpol":1083,"ould":1084,"Ġsee":1085,"Sigma":1086,"able":1087,"Ġ&\\":1088,"Ġ\\{":1089,"equence":1090,"''":1091,"sim":1092,"and":1093,"Ġanal":1094,"pect":1095,"li":1096,"ded":1097,"gorith":1098,"ases":1099,"ĠBy":1100,"Ġpartic":1101,"respon":1102,"Ġsystem":1103,"|^":1104,"Ġ5":1105,"Ġform":1106,"ization":1107,"dis":1108,")}\\":1109,"now":1110,"ove":1111,"Ġunder":1112,"ĉĉ":1113,"ĠAs":1114,"Ġpres":1115,"ert":1116,"Ġmeasure":1117,"cdots":1118,"mall":1119,"ay":1120,"Ġmore":1121,"arge":1122,"Ġdenote":1123,"cture":1124,"Ġve":1125,"den":1126,"Ġresults":1127,"Ġexists":1128,"Ġmeth":1129,"antum":1130,"inu":1131,"textbf":1132,"fine":1133,"zeta":1134,"Ġcal":1135,"ield":1136,"ac":1137,"ond":1138,"vert":1139,"Ġ,":1140,"}).":1141,"Ġrepres":1142,"widehat":1143,"Ġcorrespon":1144,"Ġrela":1145,"Ġthan":1146,"Ġout":1147,"non":1148,"ĠSince":1149,"ints":1150,"}}(":1151,"Ġresult":1152,"})\\":1153,"Ġtrans":1154,"}=\\":1155,"refore":1156,"Ġ$(\\":1157,"ors":1158,"Ġproblem":1159,"Ġsi":1160,"Ġoperator":1161,"}}{":1162,"prime":1163,"bm":1164,"sh":1165,"Ġbut":1166,".}":1167,"Ġabove":1168,")-":1169,"Ġcur":1170,"pm":1171,"cor":1172,"ĠSe":1173,"Ġsim":1174,"sitive":1175,"inf":1176,"ong":1177,")(":1178,"Ġman":1179,"Ġstu":1180,"Ġinde":1181,";\\":1182,"Ġcontain":1183,"Ġused":1184,"Ġsh":1185,"Ġq":1186,"Ġ.":1187,"ormal":1188,"ric":1189,"Ġmay":1190,"iqu":1191,"]$":1192,"cess":1193,"ero":1194,"ory":1195,"ten":1196,"sec":1197,"ral":1198,"Ġus":1199,"comp":1200,"asi":1201,"font":1202,"\\!":1203,"mm":1204,"tively":1205,"mark":1206,"scr":1207,"Ġinto":1208,"ĠRe":1209,"orphism":1210,"lies":1211,"matrix":1212,"Ġcompu":1213,"hom":1214,"not":1215,"Ġro":1216,"yn":1217,"ival":1218,"Ġconsta":1219,"Ġty":1220,"Ġcol":1221,"Ġ&=":1222,"ized":1223,"Ġcho":1224,"theorem":1225,"Ġsince":1226,"Ġsolution":1227,"Ġmulti":1228,"cy":1229,"ry":1230,"Ġclo":1231,"ton":1232,"tab":1233,"Ġexample":1234,"subsection":1235,"Ġ_{":1236,"ilar":1237,"Ġmap":1238,"star":1239,"{{\\":1240,"}^\\":1241,"jec":1242,"ym":1243,"ĊĠĠ":1244,"ever":1245,"Ġ\\|":1246,"vec":1247,"cent":1248,"Ġ>":1249,"che":1250,"Ġvector":1251,"Ġalgebra":1252,"sla":1253,"teq":1254,"Ġparame":1255,"Ġquantum":1256,"}|":1257,"--":1258,"mathscr":1259,"200":1260,"cha":1261,"gorithm":1262,"Ġcondition":1263,"ving":1264,"dy":1265,"neq":1266,"Ġed":1267,"}),":1268,"Ġlinear":1269,"Ġmin":1270,"Ġdistribu":1271,"]\\":1272,"tt":1273,"sity":1274,"mathsf":1275,"ased":1276,"bab":1277,"/\\":1278,"Ġsection":1279,"Ġhe":1280,"Ġprove":1281,"Ġfunctions":1282,"ential":1283,"prop":1284,"mula":1285,"under":1286,"bit":1287,"Ġassume":1288,"Ġ\\(":1289,"Ġhy":1290,"Ġele":1291,"Ġclass":1292,"Ġconstru":1293,"iable":1294,"sk":1295,"duced":1296,"Ġmatrix":1297,"mid":1298,"..":1299,"Ġlocal":1300,"Ġstru":1301,"}_\\":1302,"gra":1303,"Ġdifferent":1304,"ket":1305,"'$":1306,"ii":1307,"Ġsequence":1308,"kern":1309,"Ġdefine":1310,"ration":1311,"Ġtheorem":1312,"Ġsec":1313,"Ġpla":1314,"Ġcontinu":1315,"ĠThus":1316,"ue":1317,".\\":1318,"table":1319,"Let":1320,"hen":1321,"Ġboth":1322,"Ġwell":1323,"subseteq":1324,"put":1325,"Ġsur":1326,"ied":1327,"io":1328,"ula":1329,"Ġpositive":1330,"Ġmean":1331,"Ġcons":1332,"Ġprobab":1333,"Ġ6":1334,"Pro":1335,"Ġparticular":1336,"ĠSu":1337,"fa":1338,"hspace":1339,"nonumber":1340,"qquad":1341,"umerate":1342,"{(":1343,"Ġknow":1344,"iver":1345,"Ġparameter":1346,"figure":1347,"\\}$":1348,"plit":1349,"omial":1350,"minus":1351,"Ġac":1352,"13":1353,"als":1354,"ord":1355,"Ġsupp":1356,"enumerate":1357,"Ġtri":1358,"Ġhigh":1359,"Ġiden":1360,"<\\":1361,"Ġequival":1362,"ij":1363,"Ġsing":1364,"ication":1365,"Ġpoints":1366,"tro":1367,"ort":1368,"ame":1369,"):":1370,"Ġau":1371,"ish":1372,"max":1373,"setminus":1374,"Ġconstant":1375,"Ġdire":1376,")|":1377,"Ġimplies":1378,"tif":1379,"ng":1380,"Ġprodu":1381,"ĠCon":1382,"Ġwork":1383,")]":1384,"}+\\":1385,"mic":1386,"15":1387,"Ġ$\\{":1388,"ist":1389,"Ġtheir":1390,"box":1391,"Ġprocess":1392,"Ġobser":1393,"Ġreal":1394,"Ġprov":1395,"Ġinequ":1396,"formation":1397,"thor":1398,"Ġnow":1399,"oll":1400,"fficient":1401,"Ġpaper":1402,"ack":1403,"bed":1404,"cus":1405,"see":1406,"vel":1407,"Ġtra":1408,"ger":1409,"Vert":1410,"Ġholds":1411,"Ġconver":1412,"indent":1413,"Ġrepresen":1414,"racter":1415,"Ġdescri":1416,"Ġspec":1417,"ature":1418,"Ġvalue":1419,"}:":1420,"Re":1421,"Ġvariable":1422,"({\\":1423,"âĢĵ":1424,"\\|_{":1425,"Psi":1426,"}\\,":1427,"dic":1428,")}{":1429,"Ġcomplex":1430,"Ġsmall":1431,"plus":1432,"ĠFig":1433,"finition":1434,"ov":1435,"Ġpri":1436,"Ġget":1437,"ear":1438,")+":1439,"eng":1440,"sup":1441,"el":1442,"ive":1443,"Ġsecond":1444,"limits":1445,"}]":1446,"urther":1447,"Ġopti":1448,"^+":1449,"Ġfix":1450,"}}{\\":1451,"}\\\\":1452,"Ġ`":1453,"Ġder":1454,"Ġcou":1455,"}},":1456,"tan":1457,"Ġsign":1458,"bi":1459,"ndom":1460,"),\\":1461,"Ġ$|":1462,"~$":1463,"let":1464,"Ġdeg":1465,"duction":1466,"tiv":1467,"pendent":1468,"ĠSection":1469,"xima":1470,"Ġpair":1471,"Ġdimension":1472,"ĠProposition":1473,"wed":1474,"Ġmethod":1475,"noindent":1476,"Ġ10":1477,"14":1478,"Th":1479,"ology":1480,"Ġbeen":1481,"Ġstates":1482,"ĊĠĠĠĠĠĠĠ":1483,"age":1484,"Ġste":1485,"Ġdeter":1486,"Ġformula":1487,"Ġcorresponding":1488,"play":1489,"Ġdoes":1490,"bigg":1491,"Ġcharacter":1492,"Ġ??":1493,"Ġacc":1494,"Ġwere":1495,"Ġmost":1496,"Ġ}\\":1497,"ymme":1498,"Ġfield":1499,"ynomial":1500,"16":1501,"Ġexist":1502,"Ġref":1503,"Ġalgorithm":1504,"{$":1505,"{-":1506,"Ġ-\\":1507,"oplus":1508,"Ġsp":1509,"ollary":1510,"use":1511,"Ġclassi":1512,"ique":1513,"hy":1514,"ok":1515,"inc":1516,"Ġwr":1517,"Ġbounded":1518,"ument":1519,"Ġrespec":1520,"und":1521,"Ġlim":1522,"bility":1523,"Ġeff":1524,"ĠMore":1525,"}-\\":1526,"sub":1527,"}^{(":1528,"rough":1529,"Ġrandom":1530,"Ġelem":1531,"ice":1532,"ĠHence":1533,"Ġtype":1534,"err":1535,"info":1536,"Ġprobability":1537,"ĠTherefore":1538,"Ġdia":1539,"Ġpossi":1540,"ough":1541,"Ġlow":1542,"Ġvalues":1543,"Ġdefinition":1544,"one":1545,"Ġsubse":1546,"ditions":1547,"Ċĉĉ":1548,"ĠDe":1549,"bibinfo":1550,"Ġ)":1551,"group":1552,"iant":1553,"stra":1554,"Ġup":1555,"work":1556,"ments":1557,"ub":1558,"Ġrequ":1559,"ates":1560,"tices":1561,"Ġstructure":1562,"ating":1563,"Ġsimilar":1564,"Ġterms":1565,"}}_":1566,"Ġpolynomial":1567,"underline":1568,"ness":1569,"Ġsatisfy":1570,"22":1571,"Ġlarge":1572,"slant":1573,"ural":1574,"ities":1575,"Ġcompon":1576,"Ġhom":1577,"Ġsol":1578,"pre":1579,"ag":1580,"istic":1581,"aligned":1582,"ens":1583,"ile":1584,"Ġmod":1585,"ĠTo":1586,"Ġfe":1587,"Ġintro":1588,"Ġobtained":1589,"vious":1590,"Ġchan":1591,"Ġ$[":1592,"Ġdepend":1593,"Ġzero":1594,"equiv":1595,"Ġdistribution":1596,"Ġasso":1597,"Ġstudy":1598,"omorphism":1599,"lf":1600,"Ġ7":1601,"Ġran":1602,"less":1603,"For":1604,"Ġ???":1605,"Ġthey":1606,"ĊĠĠĠĠĠĠĠĠ":1607,"wise":1608,"Ġconditions":1609,"os":1610,"Ġneed":1611,"Ġinequality":1612,"ily":1613,"Ġwho":1614,"ob":1615,"display":1616,"cm":1617,"wedge":1618,"valu":1619,"namefont":1620,"ĠNote":1621,"itial":1622,"itemize":1623,"cted":1624,"Ġ|\\":1625,"ĠâĢ":1626,"mooth":1627,"ull":1628,"Ġinclu":1629,"Ġspa":1630,"textit":1631,"nec":1632,"iel":1633,")}$":1634,"|_{":1635,"Ġrespectively":1636,"Ġide":1637,"hline":1638,"ctions":1639,"Ġcontinuous":1640,"ures":1641,"ength":1642,"Ġapproxima":1643,"fter":1644,"ning":1645,"nal":1646,"\\}":1647,"21":1648,"cia":1649,"ste":1650,"finite":1651,"ysis":1652,"gy":1653,"Ġthree":1654,"Ġ8":1655,"jective":1656,"Ġvari":1657,"Ġpath":1658,"form":1659,"exp":1660,"Ġ\"":1661,"author":1662,"ang":1663,"tom":1664,"Ġincre":1665,"ner":1666,"Ġsatisfies":1667,"Ġtheory":1668,"Pi":1669,"dimension":1670,"ppose":1671,"prod":1672,"Ġmain":1673,"ĊĠĠĠĠĠ":1674,"Ġhow":1675,"Ġge":1676,"colon":1677,"^{-\\":1678,"new":1679,"tations":1680,"lear":1681,"ven":1682,"Ġ$$\\":1683,"Ġca":1684,"ĠHow":1685,"tice":1686,"sto":1687,"Ġstand":1688,"split":1689,"igen":1690,"side":1691,"map":1692,"ze":1693,"chn":1694,"$}":1695,")^{\\":1696,"mon":1697,"olutions":1698,"ract":1699,"ĠâĢ¢":1700,"imum":1701,"Ġassump":1702,"val":1703,"Ġelements":1704,"ect":1705,"call":1706,"}'":1707,"Ġrespect":1708,"rol":1709,"ĠMa":1710,"ically":1711,"ene":1712,"Ġgo":1713,"Ġmon":1714,"25":1715,"Ġapproach":1716,"ific":1717,"Ġcom":1718,"Ġstra":1719,"king":1720,"Ġfind":1721,"}$-":1722,"Ġright":1723,"Ġproperties":1724,"norm":1725,"para":1726,"Ġinitial":1727,"ĠAl":1728,"Ġvertices":1729,"Ġrest":1730,"mathop":1731,"cause":1732,"yna":1733,"Ġelement":1734,"onal":1735,"wer":1736,"Ġequivalent":1737,"mi":1738,"_*":1739,"Ġnormal":1740,"sty":1741,"nel":1742,"Ġwould":1743,")_{":1744,"Ġnew":1745,"mpl":1746,"Ġtop":1747,"Ġcalled":1748,"ual":1749,"Ġ``":1750,"round":1751,"Ġvertex":1752,"ields":1753,"Ġsimple":1754,"Ġsets":1755,"tance":1756,"(-":1757,"tional":1758,"Ġshown":1759,"hed":1760,"Ġ201":1761,"style":1762,"mbin":1763,"Ġassocia":1764,"Le":1765,"Ġeven":1766,"Ġend":1767,"sin":1768,"Ġexact":1769,"Ġpart":1770,"99":1771,"18":1772,"ĠHowever":1773,"23":1774,"Ġerr":1775,"Ġarg":1776,"Ġfixed":1777,"Ġbecause":1778,"Ġhand":1779,"plic":1780,"Ġdetermin":1781,"ĠUn":1782,"Ġmust":1783,"perim":1784,"xt":1785,"}}}":1786,"wa":1787,"Ġproduct":1788,"lying":1789,"tics":1790,"forall":1791,"bb":1792,"Ġboundary":1793,"face":1794,"iform":1795,"}^*":1796,"Ġ+\\":1797,"Ġunique":1798,".~":1799,"Ġcy":1800,"Ġcalc":1801,"ulation":1802,"ategor":1803,"Ġleast":1804,"Ġsmooth":1805,"energy":1806,"ĠMoreover":1807,"Ġproperty":1808,"Ġsymme":1809,"Ġexpres":1810,"Ġdegree":1811,"Ġli":1812,"'\\":1813,"17":1814,"Theta":1815,"Ġcomplete":1816,"}}_{":1817,"ĠCo":1818,"&=":1819,"Ġeigen":1820,"nected":1821,"Ġ=\\":1822,"Ġmany":1823,"try":1824,"bul":1825,"ods":1826,"Ġthrough":1827,",-":1828,"asis":1829,"oint":1830,"vial":1831,"Ġbi":1832,"Ġcorre":1833,"ings":1834,"top":1835,"graph":1836,"empty":1837,"Ġpossible":1838,"Ġshows":1839,"~~":1840,"Ġindependent":1841,"Ġconclu":1842,"caption":1843,"Ġthus":1844,"dx":1845,"Ġima":1846,"ult":1847,"dimensional":1848,"Ġcontrol":1849,"Ġfam":1850,"Ġ9":1851,"âĢī":1852,"Ġclosed":1853,"raw":1854,"Ġ:=":1855,"Ġgives":1856,"Ġfa":1857,"mis":1858,"ance":1859,"Ġcompact":1860,"Ġsolutions":1861,"'_":1862,"Ġhence":1863,"Ġdifferen":1864,");":1865,"Ġassociated":1866,"Con":1867,"variant":1868,"ither":1869,"Ġbased":1870,"Ġequations":1871,"Ġedge":1872,"Ġanalysis":1873,"Ġweak":1874,"Ġleft":1875,"Ġgra":1876,"Ġcommu":1877,"Ġser":1878,"Ġdiv":1879,"lin":1880,"ron":1881,"ĠSo":1882,"Ġcontra":1883,"Ġterm":1884,"cos":1885,"Ġdiscus":1886,"ides":1887,"=(":1888,"Ġregular":1889,"osition":1890,"}}(\\":1891,"}^{-":1892,"ency":1893,"arrow":1894,"Ġway":1895,")}(":1896,"orphic":1897,"Ġsingle":1898,"_+":1899,"iew":1900,"ns":1901,"dag":1902,"Ġopen":1903,"Ġsystems":1904,"linear":1905,"Ġestimate":1906,"vex":1907,"Ġnat":1908,"ks":1909,"definition":1910,"Ġwa":1911,"Ġsize":1912,"_{(":1913,"Ġhyper":1914,"displaystyle":1915,"textup":1916,".$":1917,",\\,":1918,"Ġcirc":1919,"Ġch":1920,"bullet":1921,"igin":1922,"Ġstar":1923,"est":1924,"Ġcoe":1925,"Ġstandard":1926,")$-":1927,"arch":1928,"Ġlimit":1929,"Ġapplic":1930,"hbox":1931,"gence":1932,"Ġaddition":1933,"texts":1934,"Ġlength":1935,"ĠSuppose":1936,"Ġprovide":1937,"proposition":1938,"Ġallow":1939,"where":1940,"Ġlemma":1941,"$)":1942,"remark":1943,"Ġequal":1944,"Theorem":1945,"Ġlevel":1946,"'(":1947,":\\":1948,"ject":1949,"ross":1950,"Ġet":1951,"Ġabout":1952,"omorphic":1953,"24":1954,"med":1955,"verse":1956,"ented":1957,"Ġinformation":1958,"ative":1959,"Ġexp":1960,"Ġenergy":1961,"})$.":1962,"des":1963,"Ġscal":1964,"Ġwhile":1965,"mapsto":1966,"Ġ\\(\\":1967,"Ġstrong":1968,"Ġexperim":1969,"pr":1970,"05":1971,"etwork":1972,"))\\":1973,"dd":1974,"ired":1975,"tary":1976,"Ġcases":1977,"Ġcontains":1978,"',":1979,"Ġ/":1980,"Ġlat":1981,"bibf":1982,"chan":1983,"tor":1984,"lock":1985,"rop":1986,"Ġspaces":1987,"tin":1988,"Ġsche":1989,"gram":1990,"Ġ_":1991,"ful":1992,"quare":1993,"##":1994,"ences":1995,"Ġmax":1996,"^-":1997,"Ġbasis":1998,"mann":1999,"velo":2000,"*{":2001,"cases":2002,"],":2003,"gative":2004,"leqslant":2005,"Ġmodels":2006,"dule":2007,"Ġrestric":2008,"ĠSch":2009,"Ġvariables":2010,"Ġem":2011,"Ġtechn":2012,"tivity":2013,"Ġknown":2014,"Ġoper":2015,"ese":2016,"{??":2017,"tangle":2018,"gain":2019,"Ġdirect":2020,"Ġpropo":2021,"cong":2022,"center":2023,"Ġremain":2024,"back":2025,"Ġgenerated":2026,"Ġdomain":2027,"Ġprevious":2028,"Ġcyc":2029,"03":2030,"};":2031,"rest":2032,"Ġdyna":2033,"Ġuniform":2034,"_{{\\":2035,"Ġclassical":2036,")^{-":2037,"ĠNow":2038,"tis":2039,"Ġoptimal":2040,"Ġmetric":2041,"Ġparameters":2042,")\\,":2043,"Ġsay":2044,"Ġlin":2045,"Ġinte":2046,"dim":2047,"cur":2048,"tal":2049,"Ġeither":2050,")\\\\":2051,"\\,\\":2052,"pper":2053,"Ġanaly":2054,"Ġspect":2055,"Ġinv":2056,"))$":2057,"Ġwrite":2058,"Ġsen":2059,"Ġsubs":2060,"}}^":2061,"ists":2062,"sive":2063,"Ġsum":2064,"\\)":2065,"Ġgive":2066,"Ġtru":2067,"ple":2068,"Ġeffec":2069,"angle":2070,"Ġtre":2071,"tity":2072,"Ġsubset":2073,"Ġconnected":2074,"son":2075,"lob":2076,"Ġcent":2077,"cl":2078,"Ġlower":2079,"Ġdecomp":2080,"ward":2081,"tant":2082,"itu":2083,"Ġmethods":2084,"asing":2085,"ximal":2086,"odes":2087,"\\{\\":2088,"ĠAn":2089,"Ġerror":2090,"Ġlike":2091,"Ġnote":2092,"dt":2093,"rule":2094,")-\\":2095,")/":2096,"imal":2097,"hysi":2098,"Ġgroups":2099,"Ġedges":2100,"Ġimpor":2101,"Ġcombin":2102,"Ġintegral":2103,"Ġent":2104,"Ġ\\;":2105,"sp":2106,"Ġhere":2107,"redic":2108,"Ġderiv":2109,"}}}\\":2110,"Ġwor":2111,"Ġinf":2112,"textrm":2113,"Ġrepresentation":2114,"bitra":2115,")}{\\":2116,"cise":2117,"Ġsufficient":2118,"Ġsample":2119,"Ġinsta":2120,"ster":2121,"Ġsc":2122,"duc":2123,")+\\":2124,"Ġinfinite":2125,"Ġmeans":2126,"bound":2127,"Ġlog":2128,"ap":2129,"stract":2130,"pmatrix":2131,"}|\\":2132,"Ġmanif":2133,"Ġnatural":2134,"Ġnetwork":2135,"Ġcategor":2136,"ĠEx":2137,"Ġwhose":2138,"kes":2139,"Ġoperators":2140,"ordin":2141,"bor":2142,"pts":2143,".~\\":2144,"div":2145,"Ġfactor":2146,"iter":2147,"As":2148,"ymp":2149,"iod":2150,"Ġche":2151,"Ġlead":2152,"Ġthem":2153,"[(":2154,"dow":2155,"com":2156,"ĠAssu":2157,"Ġarbitra":2158,"Ġam":2159,"ĠThere":2160,"ext":2161,"ĠĊĠ":2162,"].":2163,"ĠEq":2164,"Ġstep":2165,"umn":2166,"Ġinteger":2167,"ision":2168,"ee":2169,"Ġpresent":2170,"Ġpr":2171,"Ġpha":2172,"}}^{":2173,"{$\\":2174,"cla":2175,"Ġag":2176,"Ġextension":2177,"jection":2178,"deg":2179,"Ġidentif":2180,"Ġrate":2181,"ified":2182,"Ġafter":2183,"Ġbelow":2184,"Ġorigin":2185,"loor":2186,"scri":2187,"ress":2188,"note":2189,"\\'":2190,"title":2191,"ĠFigure":2192,"cs":2193,"tur":2194,"most":2195,"sions":2196,"_{-":2197,"entation":2198,"velop":2199,"Ġlast":2200,"Ġindic":2201,"oo":2202,"Ġvery":2203,"Ġcurve":2204,"Ġsubgroup":2205,"oted":2206,"inally":2207,"Ġdue":2208,"Ġaction":2209,"small":2210,"Ġnumbers":2211,"04":2212,"ĊĊĠ":2213,"ĠUniver":2214,"34":2215,"incip":2216,"thes":2217,"Ġemp":2218,"Ġfamily":2219,"ological":2220,"Ġnec":2221,"Ġsurface":2222,"lection":2223,"Ġmaps":2224,"vee":2225,"ics":2226,":=":2227,"ĠOn":2228,"Ġassumption":2229,"Ġtake":2230,"Ġsetting":2231,"por":2232,"Ġrelation":2233,"ĠHere":2234,"Ġfree":2235,"ey":2236,"Ġfre":2237,"ĠApp":2238,"mmand":2239,"normal":2240,"skip":2241,"color":2242,"place":2243,",$":2244,"|^{":2245,"Ġproved":2246,"stack":2247,"alle":2248,"\\}$.":2249,"Ġconvex":2250,"erence":2251,"Ġpredic":2252,"otential":2253,"02":2254,"longrightarrow":2255,"Ġquan":2256,"Ġsimp":2257,"emptyset":2258,"})$,":2259,"Ġwithout":2260,"Ġmeasu":2261,"abs":2262,"erg":2263,"iten":2264,"}/":2265,"bigl":2266,"Ġread":2267,"Ġconstruction":2268,"ater":2269,"Ġtherefore":2270,"Ġsuper":2271,"crete":2272,"Ġcomputation":2273,"Ġsatisfying":2274,"joint":2275,"$;":2276,"rel":2277,"tra":2278,"\\\"":2279,"draw":2280,"cting":2281,"={":2282,"Ġcalcula":2283,"Ġthose":2284,"estion":2285,"sen":2286,"Ġproblems":2287,"va":2288,"ording":2289,"xy":2290,"Ġbeha":2291,"Ġpower":2292,"~$\\":2293,"Ġgeome":2294,"Ġfurther":2295,"If":2296,"ption":2297,"hoton":2298,"bigr":2299,"ati":2300,"Ġfound":2301,"Ġbeing":2302,"tically":2303,"Ġmaximal":2304,"more":2305,"orollary":2306,"Ġtotal":2307,"Ġmar":2308,"Ġdistance":2309,"ses":2310,"Ġneigh":2311,"Ġdensity":2312,"action":2313,"Ġstudi":2314,"algebra":2315,"Ċĉĉĉ":2316,"fore":2317,"cument":2318,"Ġtrue":2319,"oot":2320,"\\|\\":2321,"Ġside":2322,"Ġtest":2323,"Ġocc":2324,"iven":2325,"dagger":2326,"Ex":2327,"Ġgraphs":2328,"]$.":2329,"Proof":2330,"Ġdeta":2331,")_":2332,"ĠĠĠĠĠĠĠĠĠĠĠĠĠĠĠĠĠĠĠĠĠĠĠĠĠĠĠĠĠĠĠĠ":2333,"sian":2334,"Ġnecess":2335,"lobal":2336,"Ġir":2337,"ĠFurther":2338,"ĠInd":2339,"reg":2340,"Ġcomm":2341,"Ġshould":2342,"tabular":2343,"lied":2344,"98":2345,"Ġ&&":2346,"Ġobserv":2347,"Ġ^{":2348,"To":2349,"Co":2350,"ify":2351,"ently":2352,"Ġproce":2353,"other":2354,"Ġcomponent":2355,"pping":2356,"Ġclear":2357,"Ġimportant":2358,"33":2359,"lesssim":2360,"Ġ$|\\":2361,",\\\\":2362,"97":2363,"ĠThese":2364,"Ġho":2365,"Ġpotential":2366,"Ġdevelop":2367,"Ġ200":2368,"Ġphase":2369,"ils":2370,"aus":2371,"Ġalong":2372,"Ġagain":2373,"Ġembed":2374,"document":2375,"Ġfib":2376,"Ġdete":2377,"Ġcell":2378,"ĠĠĊ":2379,"}({\\":2380,"Ġnext":2381,"Ġnotation":2382,"rr":2383,"Ġindex":2384,"lat":2385,"ick":2386,"Ġdynamic":2387,"II":2388,"Ġflow":2389,"Ġexistence":2390,"olic":2391,"cept":2392,"ler":2393,"ĠFrom":2394,"Ġconvergence":2395,"ount":2396,"Ġtyp":2397,"Ġapply":2398,"Ġcould":2399,"06":2400,"allel":2401,"Ġcontradic":2402,"ympto":2403,"Ġsymmetric":2404,"ins":2405,"\\!\\!":2406,"ier":2407,"appro":2408,"100":2409,"Ġsingular":2410,"tag":2411,"ertain":2412,"Ġcomponents":2413,":=\\":2414,"OS":2415,"Ġnode":2416,"lap":2417,"atter":2418,"citen":2419,"Ġlong":2420,"Ġvia":2421,"27":2422,"Ġupper":2423,"fficients":2424,"Ġrelations":2425,"loc":2426,"Ġargument":2427,"amefont":2428,"bibnamefont":2429,"Ġminimal":2430,"stic":2431,"citenamefont":2432,"Ġcover":2433,"Ġconstra":2434,"ture":2435,"sidered":2436,"Ġprincip":2437,"nts":2438,"Ġentangle":2439,"Ġisomorphism":2440,"Ġunit":2441,"Ġradi":2442,"ĠĠĠĠĠĠĠ":2443,"Ġexpon":2444,"Ġcoordin":2445,"This":2446,"rent":2447,"Ġseries":2448,"iance":2449,"]$,":2450,"trices":2451,"Ġestimates":2452,"Ġarbitrary":2453,"Ġconsidered":2454,"titu":2455,"ĠUsing":2456,"Ġeigenvalu":2457,"Ġsepara":2458,"})=":2459,"Ġimpro":2460,"bin":2461,"tition":2462,"Ġnumer":2463,"oid":2464,"ker":2465,"){\\":2466,"Ġbehavi":2467,"ema":2468,"medi":2469,"Ġsequ":2470,"Ġaver":2471,"07":2472,"Ġregion":2473,"Ġbund":2474,"size":2475,"^*$":2476,"xspace":2477,"zero":2478,"Ġiter":2479,"ĠĠĠĠĠ":2480,"ln":2481,"-(":2482,"dfrac":2483,"Ġcoefficients":2484,"Ġ($":2485,"bibfnamefont":2486,"Ġelect":2487,"Ġlear":2488,"Ġspecial":2489,"Ġfrequ":2490,"35":2491,"Ġsti":2492,"Ġrank":2493,"}}$.":2494,"abstract":2495,"ĠCh":2496,"ational":2497,"28":2498,"Ġchoice":2499,"Ġimage":2500,"Ġdescribed":2501,"26":2502,"Ġexpec":2503,"ilton":2504,"ĠUniversity":2505,"Ġinterest":2506,"plicit":2507,"ark":2508,"Ġchange":2509,"\\}\\":2510,"95":2511,"Ġexten":2512,"Ġdenotes":2513,"rid":2514,"ĠAssume":2515,"ways":2516,"rable":2517,"Ġ(-":2518,"08":2519,"Ġperiod":2520,"ootnote":2521,"Ġmat":2522,"uch":2523,"art":2524,"iota":2525,"orphisms":2526,"tative":2527,"down":2528,"Ġquad":2529,"ĠNe":2530,"Ġyields":2531,"Ġlar":2532,"Ġenough":2533,"Ġfour":2534,".$$":2535,"ety":2536,"Ġaff":2537,"Ġconclude":2538,"Ġcheck":2539,"Ġinvariant":2540,")},":2541,"'}":2542,"96":2543,"formance":2544,"Ġexperiment":2545,"aris":2546,"Ġmake":2547,"tyle":2548,"Lemma":2549,"Ġmatrices":2550,"Ġmeasurement":2551,"tabl":2552,"Ġtimes":2553,"}<":2554,"Ġmaximum":2555,"mental":2556,"dual":2557,"Ġoccur":2558,"Ġgre":2559,"Ġtrivial":2560,"Ġdesign":2561,"Ġweigh":2562,"((":2563,"Ġsha":2564,"Ġcannot":2565,"Ġloss":2566,"Ġtree":2567,"gether":2568,"{}":2569,"Ġweight":2570,"cible":2571,"^{*":2572,"ik":2573,"\\}$,":2574,"Ġevalu":2575,"Ġ&=&":2576,"gn":2577,"footnote":2578,"command":2579,"Ġchoose":2580,"|\\!":2581,"Ġclaim":2582,"ogene":2583,"Ġorth":2584,"Ġhold":2585,"olume":2586,"ior":2587,"lev":2588,"ducible":2589,"Ġinterval":2590,"ring":2591,"}},\\":2592,"Ġsense":2593,"Ġestabl":2594,"asy":2595,"Ġ???}":2596,"30":2597,"pic":2598,"Ġrelated":2599,"DE":2600,"Ġidentity":2601,"}\\|":2602,"Ġ--":2603,"Ġinvol":2604,"pothes":2605,"Ġoptim":2606,"Ġproposed":2607,"ĠHam":2608,"ching":2609,"Ġideal":2610,"ĊĊĊ":2611,"75":2612,"ST":2613,"eed":2614,"bolic":2615,"')":2616,"read":2617,"Ġeasi":2618,"Ġass":2619,"Ġwhat":2620,"Ġstrateg":2621,"Ġtemp":2622,"order":2623,"Ġnorm":2624,"Ġpartial":2625,"Ġapproximation":2626,"Ġframe":2627,"Ġblock":2628,"Ġprecise":2629,"Ġtur":2630,"with":2631,"imilar":2632,"Ġdifferential":2633,"mediate":2634,"Now":2635,"Ġcoun":2636,"Ġcompare":2637,"Ġdecomposition":2638,"varrho":2639,"yer":2640,"Ġhigher":2641,"ura":2642,"Ġcertain":2643,"idth":2644,"Ġextend":2645,"Ġjust":2646,"ju":2647,"Ma":2648,"ason":2649,"Ġinput":2650,"Ġ$-":2651,"inter":2652,"Ġconne":2653,"jecture":2654,"Ġscheme":2655,"Ġdx":2656,"Ġmechan":2657,"Ġinduced":2658,"gu":2659,"sible":2660,"ĠNo":2661,"bre":2662,"perp":2663,"\\]":2664,"comes":2665,"32":2666,"mod":2667,"Ġcar":2668,"ĠConsider":2669,"uring":2670,"lated":2671,"veral":2672,"rem":2673,"Ġalways":2674,"sal":2675,"get":2676,"\\[":2677,"45":2678,"af":2679,"Ġabs":2680,"Ġbu":2681,"tfrac":2682,"Ġsignific":2683,"]}":2684,"Ġirre":2685,"omin":2686,"Ġclasses":2687,"Ġexplicit":2688,"bits":2689,"{{":2690,"Ġphysi":2691,"trict":2692,"Ġinves":2693,"Su":2694,"Ġimple":2695,"thema":2696,"Ġperformance":2697,"corollary":2698,"bs":2699,"inary":2700,"cing":2701,"Ġ$.":2702,"Ġwave":2703,"Ġyou":2704,"ĠSci":2705,"gate":2706,"unctor":2707,"van":2708,",\\,\\":2709,"Ġexactly":2710,"iltonian":2711,"}[\\":2712,"Ġga":2713,"36":2714,"ually":2715,"chie":2716,"$).":2717,"Ġcharacteristic":2718,"mit":2719,"Ġalmost":2720,"bold":2721,"wh":2722,"Ġphoton":2723,"Ġcompute":2724,"slash":2725,"Ġasympto":2726,",{\\":2727,"Ġfil":2728,"Ġcategory":2729,"gen":2730,"//":2731,"itten":2732,"ep":2733,"uting":2734,"})}":2735,"part":2736,"ournal":2737,"ters":2738,"Ġeasy":2739,"Ġdec":2740,"ĠWhen":2741,"Ġtor":2742,"node":2743,"Fig":2744,"ernel":2745,"izing":2746,"&&":2747,"Ġachie":2748,"Ġeffect":2749,"It":2750,"^*(":2751,"Ġ12":2752,"Ġ[\\":2753,"Ġ20":2754,"Ġsto":2755,"Ġmanifold":2756,"}}$,":2757,"ource":2758,"ĠCorollary":2759,"Ġappear":2760,"asic":2761,"Ġbelong":2762,"Ġdescribe":2763,"Ġinstance":2764,"come":2765,"Ġapplied":2766,"duces":2767,"ĊĉĊ":2768,")}}":2769,"}{|":2770,"Ġring":2771,"example":2772,"by":2773,"ĠFinally":2774,"Ġdenoted":2775,"stand":2776,"Ġback":2777,"Ġrecall":2778,"Ġim":2779,"50":2780,"stead":2781,"Ġstill":2782,"sch":2783,"Ġless":2784,"{??}}":2785,"Ġprime":2786,"Ġdiag":2787,"gorithms":2788,"Ġseveral":2789,"Ġstrict":2790,"Ġmom":2791,"://":2792,"_-":2793,"Ġbefore":2794,"brace":2795,"Ġ$,":2796,"Ġdifference":2797,"Ġtogether":2798,"Ġclassif":2799,"Ġbounds":2800,"Ġextended":2801,"Ġgu":2802,"By":2803,"Ġconstruct":2804,"ensor":2805,"ĠFirst":2806,"Ġanalog":2807,"Ġglobal":2808,"mul":2809,"Ġintroduced":2810,"Ġintroduce":2811,"Ġhypothes":2812,"ining":2813,"pen":2814,")>":2815,"Ġodd":2816,"Ġcall":2817,"ĠRes":2818,"Ġshe":2819,"Ġmodu":2820,"ila":2821,"ĠLie":2822,"Ġdiagram":2823,"nces":2824,"Ġlocally":2825,"hood":2826,"vir":2827,"sitions":2828,"ĠFurthermore":2829,"}{(":2830,"$$\\":2831,"Ġwithin":2832,"Ġcurves":2833,"olar":2834,"Ġkernel":2835,"Ġcommon":2836,"Ġstatement":2837,"Ġfo":2838,"Ġsuppose":2839,"cial":2840,"approx":2841,"Ġvan":2842,"Ġrun":2843,"onical":2844,"ĠMathema":2845,"ished":2846,"endix":2847,"lec":2848,"ogeneous":2849,"ĠPo":2850,"bigcup":2851,"binom":2852,"ilb":2853,"Ġequivalence":2854,"Ġbase":2855,"=\\{":2856,"itz":2857,"Ġexamples":2858,"Ġreason":2859,"Ġexpression":2860,"ctures":2861,"module":2862,"^*\\":2863,")})":2864,"SS":2865,"Ġmix":2866,"org":2867,"ived":2868,"av":2869,"Ġfull":2870,"Ġusu":2871,"ild":2872,"Ġwhe":2873,"AB":2874,"ĠOne":2875,"Ġ$\\{\\":2876,"ĠComp":2877,")^\\":2878,"ries":2879,"Ġsquare":2880,"ĠĠĠĠĠĠ":2881,"ĠIndeed":2882,"Ġsignificant":2883,"newcommand":2884,"mc":2885,"imits":2886,"Ġanother":2887,"ined":2888,"Ġcontained":2889,"ited":2890,"backslash":2891,"det":2892,"ĠHamiltonian":2893,"Ġquasi":2894,"}&":2895,"}}_{\\":2896,"Ġaverage":2897,"Ġeasily":2898,"Ġval":2899,"Ġrefer":2900,"Ġcost":2901,"Ġdecre":2902,"ĠOur":2903,"Al":2904,"ticle":2905,"Ġinvesti":2906,"Ġdynamics":2907,"oti":2908,"cr":2909,"ging":2910,"tely":2911,"Large":2912,"\\%":2913,"nol":2914,"Ġversion":2915,"jects":2916,"ĠGiven":2917,"AT":2918,"Ġdivis":2919,"94":2920,"Ġdetermined":2921,"ĠBut":2922,"Ġadj":2923,"date":2924,"Ġclu":2925,")}_{":2926,"Ġrequire":2927,"arp":2928,"38":2929,"Ġnoise":2930,"Ġact":2931,"+(":2932,"Ġalgorithms":2933,"Ġflu":2934,"Ġrelative":2935,"simeq":2936,"Ġcri":2937,"ili":2938,"Ġrange":2939,"ĠWith":2940,"}})":2941,"Ġirreducible":2942,"$:":2943,"Bbb":2944,"Ġrow":2945,"unda":2946,"Ġaccording":2947,"{|":2948,"000":2949,"Ġstable":2950,"Ġdual":2951,"lue":2952,"Ġname":2953,"lect":2954,"Ġapplications":2955,"Ġclose":2956,"Ġpoly":2957,"Ġfunctor":2958,"Ġsuppor":2959,"Ġview":2960,"Ġalgebraic":2961,"Ġ${":2962,"rier":2963,"Ġvectors":2964,"Ġ\\|\\":2965,"Ġbundle":2966,"zed":2967,"mat":2968,"local":2969,"Ġgen":2970,"alg":2971,"Ġfields":2972,"Ġwhether":2973,"bo":2974,"alf":2975,"han":2976,"bmatrix":2977,"Ġdirection":2978,"Ġpairs":2979,"Ġsplit":2980,"EOS":2981,"cref":2982,"Ġcross":2983,"Ġpartition":2984,"ass":2985,"view":2986,"Ġrequired":2987,"vartheta":2988,"Ġnegative":2989,"rf":2990,"Ġmorphism":2991,"40":2992,"ĠMo":2993,"hskip":2994,"Ġprocedu":2995,"Ġallows":2996,"||":2997,"Ġshall":2998,"Ġembedding":2999,"cont":3000,"37":3001,"Ġreduced":3002,"cyc":3003,"viron":3004,"bil":3005,"nolimits":3006,"Ġprojection":3007,"Ġmuch":3008,"Ġlabel":3009,"spec":3010,"Ġcontradiction":3011,"Ġgrow":3012,"arison":3013,"ĠGaus":3014,"Ġincreasing":3015,"formed":3016,"otop":3017,"Ġess":3018,"Ġdiscrete":3019,"ticol":3020,"Ġgeneralized":3021,"ism":3022,"llip":3023,"ĠLa":3024,"39":3025,"Ġreplace":3026,"ĠSimilar":3027,"Ġquestion":3028,"Ġsufficiently":3029,"Ġisomorphic":3030,"Ġquadra":3031,"raction":3032,"dient":3033,")(\\":3034,"texttt":3035,"Ġstatis":3036,"Ġcurrent":3037,"Ġpolynomials":3038,"Ġsupport":3039,"...,":3040,"Ġtaking":3041,"Int":3042,"Ġuniformly":3043,"Ġdistin":3044,"multicol":3045,"oun":3046,"Ġ,\\":3047,"Ġneighbor":3048,"Ġnecessary":3049,"Ġconven":3050,"entary":3051,"Ġrese":3052,"mult":3053,"ken":3054,"Ġnumerical":3055,"mical":3056,"atures":3057,"Ġkey":3058,"ention":3059,"Ġintersection":3060,"Ġchosen":3061,"Ġequality":3062,"Ġwords":3063,"war":3064,"Ġvarious":3065,"multicolumn":3066,"ĠĊĠĠĠ":3067,"Ġformal":3068,"Ġill":3069,"geqslant":3070,"Ġpresented":3071,")|\\":3072,"Ġminim":3073,"scal":3074,"Ġpop":3075,"Ġmultiple":3076,"ogonal":3077,"Ġconf":3078,"ĠĊĉ":3079,"EE":3080,"Ġoriginal":3081,"undamental":3082,"\\}.":3083,"Ġminimum":3084,"trivial":3085,"Ġposition":3086,"eps":3087,"Ġmath":3088,"Ġadd":3089,"Ġlearning":3090,"}}.":3091,"Ġbehavior":3092,"MS":3093,"Ġvis":3094,"Se":3095,"ification":3096,"Ġpreser":3097,"Ġrecent":3098,"Ġpara":3099,"âĪ":3100,"ropy":3101,"Ġrational":3102,"Ġforms":3103,"negative":3104,"Ġalter":3105,"lower":3106,"=-":3107,"notag":3108,"Ġimmediate":3109,"Ġcontribu":3110,"Ġcorresponds":3111,"inde":3112,"itary":3113,"Ġpermu":3114,"Ġcritical":3115,"ale":3116,"rlap":3117,"tu":3118,"tik":3119,"free":3120,"cho":3121,"based":3122,"([":3123,"faces":3124,"black":3125,"sma":3126,"Ġcanonical":3127,"}$$":3128,"know":3129,"Ġinverse":3130,"Ġmeasures":3131,"Ġobserve":3132,"Ġentanglement":3133,"Ġ*":3134,"textsc":3135,"Ġassumptions":3136,"Ġstudied":3137,"bibitem":3138,"Since":3139,"90":3140,"Ġori":3141,"Ġ16":3142,"belian":3143,"ilbert":3144,"Ġvanish":3145,"df":3146,"Ġessential":3147,"land":3148,"CC":3149,"Ġfrequency":3150,"Ġlines":3151,"chastic":3152,"str":3153,"Ġprovided":3154,"Ġ15":3155,"Ġalgebras":3156,"ara":3157,"Ġ_{\\":3158,"Ġobserved":3159,"48":3160,"Ġdepends":3161,"Ġ^":3162,"GL":3163,"31":3164,"ready":3165,"|$":3166,"Ġwritten":3167,"izes":3168,"!\\":3169,"notin":3170,"Ġcontaining":3171,"}}^{\\":3172,"Ġrepresent":3173,"Ġnonlinear":3174,"comple":3175,"hys":3176,"diff":3177,"\\|_":3178,"Ġroot":3179,"'_{":3180,"Ġself":3181,"Ġexponential":3182,"Ġplane":3183,"scripts":3184,"rans":3185,"MR":3186,"resp":3187,"function":3188,"Ġinduction":3189,"ceil":3190,"Ġgood":3191,"mine":3192,"eness":3193,"Ġconsequence":3194,"Ġcorrespond":3195,"roduction":3196,"Ġadditional":3197,"vaila":3198,"Ġsimply":3199,"Ġsequences":3200,"Ġseen":3201,"Ġintegers":3202,"Ġcontext":3203,"Ġdistinct":3204,"seu":3205,"Ġuniver":3206,"cer":3207,"Ġgenerator":3208,"like":3209,"ĊĠĠĠĠĠĠĠĠĠĠĠĠĠĠĠĠ":3210,"ĠHe":3211,">\\":3212,"ink":3213,"mer":3214,"Ġalready":3215,"Ġ\\[\\":3216,"Ġoff":3217,"PS":3218,"Ġinterpre":3219,")}.":3220,"ouble":3221,")}_":3222,"poon":3223,".}~\\":3224,"point":3225,"ying":3226,"ĠQu":3227,"ren":3228,"AR":3229,"Ġoutput":3230,"arpoon":3231,"No":3232,"Ġresearch":3233,"tio":3234,"Ġnear":3235,"Ġlattice":3236,"ird":3237,"Ġ\\,\\":3238,"tate":3239,"Ġplan":3240,"Ġnodes":3241,"Ġprocesses":3242,"Ġfactors":3243,"ised":3244,"198":3245,".;":3246,"Ġcycle":3247,"Ġapplication":3248,"model":3249,"Ġprojective":3250,"Ġchannel":3251,"Ġsubspace":3252,"Ġinstead":3253,"Ġconsists":3254,"Ġuseful":3255,"gener":3256,"Ġduring":3257,"Ġsimula":3258,"65":3259,"alities":3260,"iemann":3261,"hift":3262,"make":3263,"ices":3264,"Ġsitu":3265,"ime":3266,"Ġdirectly":3267,"ĠRecall":3268,"ĠEqu":3269,"Ġevolution":3270,"Ġdoi":3271,"Âł":3272,"Ġspecific":3273,"Ġcre":3274,"iii":3275,"Ġlarger":3276,"Note":3277,"DF":3278,"Ġvalid":3279,"Ġmathema":3280,"ons":3281,"|_":3282,"/(":3283,"ĠSte":3284,"\\|^":3285,"mathbin":3286,"|=":3287,"Ġcurv":3288,"Ġoptimization":3289,"29":3290,"Ġbecomes":3291,"){":3292,"Ġmapping":3293,"Hom":3294,"ĊĠĠĠĠĠĠĠĠĠĠĠ":3295,"Ġstrategy":3296,"known":3297,"Ġ}{":3298,"lations":3299,"ression":3300,"Ġtypes":3301,"44":3302,"Ġimplem":3303,"Ġquoti":3304,"cep":3305,"Ġexpan":3306,"Ġsug":3307,"\\;":3308,"Ġprocedure":3309,"tionary":3310,"Ġsemi":3311,"Ġfunctional":3312,"Ġmultipl":3313,"Ġspe":3314,"Ġbasic":3315,"square":3316,"Ġspin":3317,"Ġsatisfied":3318,"Ġfundamental":3319,"ĠTable":3320,"Ġmode":3321,"matic":3322,"citep":3323,"Ġtensor":3324,"gest":3325,"ĠMe":3326,"})^":3327,"(-\\":3328,"09":3329,"dap":3330,"aran":3331,"Ġremains":3332,"hbar":3333,"equently":3334,"lp":3335,"tikz":3336,"large":3337,"Ġprecisely":3338,"Ġdemon":3339,"Ġchain":3340,"Ġellip":3341,"go":3342,"ĠCar":3343,"Ġato":3344,"Proposition":3345,"Eq":3346,"usion":3347,"Ġdiagonal":3348,"prec":3349,"Ġcohere":3350,"Ġdesired":3351,"Ġhypothesis":3352,"Ġsuc":3353,"Ġapplying":3354,"Ġamong":3355,"uc":3356,"^{(\\":3357,"Ġconstants":3358,"fect":3359,"Ġconverges":3360,"Ġdetails":3361,"though":3362,"type":3363,":}":3364,"Ġtransformation":3365,"Ġprovides":3366,"Ġmoment":3367,"Ġindiv":3368,"Ġexpected":3369,"Ġreco":3370,"Ġsimpl":3371,"An":3372,"Ġconju":3373,"Ġtreat":3374,"Ġdev":3375,"multi":3376,"Ġenviron":3377,"Ġeffects":3378,"Ġdisjoint":3379,"Ġmeasurements":3380,"ĠHilbert":3381,"ĠAlso":3382,"Ġtw":3383,"Ġtar":3384,"Ġreduction":3385,"55":3386,"Ġunderstand":3387,"defn":3388,"}\\,\\":3389,"uration":3390,"check":3391,"lot":3392,"light":3393,"ĠOb":3394,"thing":3395,"Ġtransform":3396,"idence":3397,"Ġlaw":3398,"[-":3399,"gne":3400,"2017":3401,"ttps":3402,"Ġassign":3403,"ilib":3404,"67":3405,"Ġindivi":3406,"Ġsumma":3407,"self":3408,"ĠDefinition":3409,"multline":3410,"vity":3411,"add":3412,"ightarrow":3413,"Ġcommun":3414,"Ġaccu":3415,"ori":3416,"Ġtransition":3417,"berg":3418,"Ġ~":3419,"tocol":3420,"cf":3421,"Ġmass":3422,"seudo":3423,"-$":3424,"ĠGaussian":3425,"vailable":3426,"Ġpur":3427,"Ġsem":3428,"Ġmention":3429,"Ġtemper":3430,"Ġtriangle":3431,"Ġquanti":3432,"Ġ\\{\\":3433,"Ġfinitely":3434,"Ġfinal":3435,")=(":3436,"Ġresulting":3437,"Ġorthogonal":3438,"Ġhowever":3439,"Ġillust":3440,"clo":3441,"Ġeigenvalues":3442,"\\},":3443,"mathit":3444,"Ġstre":3445,"Ġpure":3446,";\\;\\":3447,"Ġestablish":3448,"Ġdetermine":3449,"Ġsteps":3450,"rum":3451,"Rightarrow":3452,"Ġbetter":3453,"Ġpatter":3454,"Ġvariety":3455,"off":3456,"vector":3457,"pped":3458,"ntom":3459,"Ġdeduce":3460,"break":3461,"Ġ$\\|":3462,"\\|_{\\":3463,"Ġrestriction":3464,"Ġnotion":3465,"Ġprac":3466,"armon":3467,"Ġhol":3468,"Ġstructures":3469,"Ġ18":3470,"ires":3471,"Ġotherwise":3472,"Ġshort":3473,"2018":3474,"dash":3475,"Ġexpla":3476,"Ġconjecture":3477,"ev":3478,"Ġauthor":3479,"Ġsupported":3480,"Ġdone":3481,"osi":3482,"textnormal":3483,"Ġ11":3484,"Ġsymbol":3485,"pling":3486,"ilibri":3487,"hip":3488,"Ġspectral":3489,"Ġcoinc":3490,"ĠLi":3491,"Ġ'":3492,"stackrel":3493,"ĠSimilarly":3494,"2016":3495,"Ġ14":3496,"lfloor":3497,"cd":3498,"$(":3499,"Ġcircu":3500,"Ġsuffic":3501,"Ġhaving":3502,"Ġvolume":3503,"]=":3504,"Ġrespon":3505,"64":3506,"Ġimprove":3507,"Ġbest":3508,"\\}_{":3509,"Ġqubit":3510,"Ġball":3511,"iques":3512,"Ġmade":3513,"Ġcurvature":3514,"})=\\":3515,"Ġdemonstra":3516,"Ġquadratic":3517,"ĉĉĉĉ":3518,"stein":3519,"Ġcircle":3520,"which":3521,"...":3522,"own":3523,"*$":3524,"Ġincluding":3525,"rfloor":3526,"'$.":3527,"}}=":3528,"Ġstrictly":3529,"tered":3530,"Ġcoordinates":3531,"Ġasymptotic":3532,"uli":3533,"})^{":3534,"Ġrecur":3535,"Ġrule":3536,"cell":3537,"Ġti":3538,"Ġstart":3539,"Ġtask":3540,"arkov":3541,"Ġexplo":3542,"blem":3543,"Ġframework":3544,"tage":3545,"Ġtr":3546,"mption":3547,"Ġunion":3548,"icro":3549,"hand":3550,"Ġremo":3551,"Ġlatter":3552,"sa":3553,"Ġconc":3554,"&=\\":3555,"sts":3556,"AC":3557,"sur":3558,"triangle":3559,"Ġsignal":3560,"Xi":3561,"ER":3562,"2019":3563,"Ġinver":3564,"Ġconfig":3565,"ourier":3566,"oogle":3567,"Ġremark":3568,"ĠÎ":3569,"Ġyear":3570,"Ġtopological":3571,"lected":3572,"Ġoperation":3573,"phantom":3574,"Ġderivative":3575,"Ġcompared":3576,"Ġleads":3577,"Ġmultiplic":3578,"Ġconstructed":3579,"Ġsmaller":3580,"Ġdistributions":3581,"rees":3582,".}\\":3583,"Ġsui":3584,"Ġangle":3585,"Tr":3586,"uts":3587,"pth":3588,"Ġautom":3589,"ĠAr":3590,"way":3591,")|^":3592,"sets":3593,"Ġcomplexity":3594,"Ġprotocol":3595,"Ġcr":3596,"|}":3597,"Ġefficient":3598,"Ġparts":3599,"Ġans":3600,"Ġear":3601,"aves":3602,"ĠRiemann":3603,"2015":3604,"Ġaround":3605,"ump":3606,"Ġinteraction":3607,"Ġstochastic":3608,"Ġoperations":3609,"ling":3610,")}(\\":3611,"Ġ({\\":3612,"Sh":3613,"Ġdri":3614,"Ġperform":3615,"Ġphysical":3616,"2020":3617,"78":3618,"Ġproposition":3619,"}\\)":3620,",...,":3621,"Ġdiffic":3622,"Ġarea":3623,"Ġbran":3624,"Ġcoefficient":3625,"ĠRemark":3626,"Ġlight":3627,"ully":3628,"Ġunitary":3629,"Ġtopology":3630,"$),":3631,"}^+":3632,"|_{\\":3633,"iting":3634,"Ġderived":3635,"Ġbegin":3636,"gg":3637,"thors":3638,"cond":3639,"cts":3640,"margin":3641,"Ġplace":3642,"2014":3643,"ĠAd":3644,"{(\\":3645,"turb":3646,"+|":3647,"state":3648,"Ġhis":3649,"mathtt":3650,"60":3651,"Ġrole":3652,"Ġdomin":3653,"parallel":3654,"jector":3655,"lice":3656,"Ġtechniques":3657,"itions":3658,"Ġcentral":3659,"bot":3660,")}$.":3661,"Ġ\\}":3662,"Ġfocus":3663,"Ġobjects":3664,"parti":3665,"Ġauto":3666,"Ġpaths":3667,"terial":3668,"gation":3669,"Ġprinciple":3670,"Ġobject":3671,"mulation":3672,"Ġprobabil":3673,"ĠScholar":3674,"substack":3675,"Ġlook":3676,"Ġcluster":3677,"Ġgeometric":3678,"Ġoften":3679,"Ġsimplic":3680,"Ġdeca":3681,"})}\\":3682,"fined":3683,"Ġinequalities":3684,"Ġcomparison":3685,"bly":3686,").$$":3687,"Ġsource":3688,"ath":3689,".\\\\":3690,"rie":3691,"$}}":3692,"variance":3693,"Ġquotient":3694,"Ġ\\!":3695,"fill":3696,"ulus":3697,"mathds":3698,"gan":3699,"^{+":3700,"Ġstability":3701,"Ġeffective":3702,"armonic":3703,"pol":3704,"otopy":3705,"uph":3706,"Ġexperiments":3707,"ĠAt":3708,"uments":3709,"ned":3710,"PR":3711,"Ġsuffices":3712,"ĠTe":3713,"py":3714,"Ġsubsets":3715,"Ġstraight":3716,"AS":3717,"Ġcollection":3718,".)":3719,"ause":3720,"upharpoon":3721,"Ġmonot":3722,"Ġ\\|_{":3723,"racy":3724,"smash":3725,"Ġgradient":3726,"ledge":3727,"Ġrepe":3728,"mits":3729,"Ġdiscussed":3730,"Ġstrongly":3731,"76":3732,"Ġperiodic":3733,"Ġmight":3734,"my":3735,"brac":3736,"Ġqubits":3737,"oh":3738,"Ġdepending":3739,"Ġpe":3740,"range":3741,"Ġintegra":3742,"ah":3743,"eded":3744,"2013":3745,"Ġevent":3746,"Ġratio":3747,"Ġhalf":3748,"valued":3749,"\\!\\":3750,"bes":3751,"Ġinteresting":3752,"oriz":3753,"Ġresi":3754,"Ġavailable":3755,"]^":3756,"Ġdimensional":3757,"upharpoonright":3758,"93":3759,"forward":3760,"Ġpolar":3761,"ĠThat":3762,"Ġillustra":3763,"Ġhomogeneous":3764,"wr":3765,"88":3766,"hile":3767,"Ġaffine":3768,"Ġspan":3769,"wor":3770,"itude":3771,"Ġtakes":3772,"Ġprof":3773,"ability":3774,"isting":3775,"gnetic":3776,"Ġthird":3777,"invariant":3778,"PT":3779,"ipsch":3780,"ering":3781,"Ġ($\\":3782,"Ġseg":3783,"ĠCla":3784,"ously":3785,"Ġnor":3786,"Ġlater":3787,"vari":3788,"Ġnamely":3789,"Ġsolve":3790,"ody":3791,"resh":3792,"Ġcomputed":3793,"}>":3794,"Ġauthors":3795,"pter":3796,")_{\\":3797,"ipschitz":3798,"))$.":3799,"uler":3800,"Ġcode":3801,"Ġdouble":3802,"ina":3803,"Ġ]":3804,"homology":3805,"ski":3806,"Ġplay":3807,"}_+":3808,"(|":3809,"ĠMathematics":3810,"Ġtarget":3811,"Ġtaken":3812,"enc":3813,"subsubsection":3814,"Ġonto":3815,"port":3816,"Ġequilibri":3817,"~~~~":3818,"manif":3819,"_{[":3820,"Ġexpansion":3821,"On":3822,"Introduction":3823,"Ġparallel":3824,"forms":3825,"ĠSet":3826,"ka":3827,"width":3828,"Then":3829,"Ġconstraints":3830,"ometric":3831,"Ġtraining":3832,"Ġelliptic":3833,"bust":3834,"Ġtool":3835,"):=\\":3836,"stable":3837,"^*_":3838,"Ġabelian":3839,"2010":3840,"scil":3841,"alth":3842,"Ġdiscuss":3843,"cccc":3844,"Ġfar":3845,"xis":3846,"Ġdown":3847,"Ġtang":3848,"Ġdescription":3849,"Ġanalytic":3850,"Ġtemperature":3851,"Ġconsist":3852,"priate":3853,"arante":3854,"Ġliter":3855,"LS":3856,"Ġ100":3857,"Ġabsolu":3858,"Ġmaterial":3859,"{$*$":3860,"Ġcriter":3861,"Ġrequires":3862,"77":3863,"Ġcolor":3864,"Un":3865,"{$*$}}}\\":3866,"alk":3867,"tible":3868,"Ġusual":3869,"izer":3870,"downarrow":3871,"NN":3872,"Ġampl":3873,"Ġsuitable":3874,"hang":3875,"aking":3876,"')$":3877,"ario":3878,"zz":3879,"Ġobvious":3880,"Ġincrease":3881,"ĠSec":3882,"Ġ;":3883,"ĠEu":3884,"vdots":3885,"lef":3886,"Ġidea":3887,"Ġrather":3888,"scale":3889,"Ġorbit":3890,"Ġsamples":3891,"ids":3892,"ched":3893,"mpling":3894,"ĠDen":3895,"Box":3896,"ĠProof":3897,"Ġcapa":3898,"Ġparticle":3899,"tane":3900,"Ġrepresented":3901,"Ġsqu":3902,"Ġfeatures":3903,"85":3904,"omorphisms":3905,"Ġaccount":3906,"Ġsaid":3907,"Ġneighborhood":3908,"Ġspectrum":3909,"})_{":3910,"Ġchanges":3911,"boldmath":3912,"Ġalterna":3913,"Ġhyperbolic":3914,"inear":3915,"Ġrepresents":3916,"$&":3917,"mission":3918,"dle":3919,"Ġsearch":3920,"Ġrepresentations":3921,"script":3922,"ĠDefine":3923,"Ġconnection":3924,"|-":3925,"imp":3926,"Ġloop":3927,"langu":3928,")\\|_{":3929,"sel":3930,"fact":3931,"'$,":3932,"ĠFourier":3933,"rd":3934,"Ġguarante":3935,"2012":3936,"gre":3937,"ising":3938,"Sch":3939,"IC":3940,"ĠSta":3941,"Ġsurfaces":3942,"coun":3943,"regular":3944,"lie":3945,"bibfield":3946,"Ġweights":3947,"Ġshowed":3948,"Ġappropriate":3949,"Ġentropy":3950,"Ġextre":3951,"tingu":3952,"gather":3953,"Ġcolumn":3954,"cu":3955,"Ġdeveloped":3956,"Ġpseudo":3957,"path":3958,"PP":3959,"ĊĠĠĠĠĠĠ":3960,"vers":3961,"isk":3962,"exists":3963,"partment":3964,"Ġ13":3965,"Ġspatial":3966,"Ġtable":3967,"Ġsymmetry":3968,"'t":3969,"dered":3970,"ĠExample":3971,"||\\":3972,"ĠAll":3973,"partite":3974,"Ġdt":3975,"Ġinner":3976,"Ġmodule":3977,"parame":3978,"Ġcomposition":3979,"SL":3980,"Ġ&=\\":3981,"MC":3982,"inuous":3983,"Ġretur":3984,"neg":3985,"supp":3986,"Ġcoupling":3987,"ĠBe":3988,"Ġuses":3989,"Ġestimation":3990,"enario":3991,"Ġcount":3992,"ible":3993,"Ġconcent":3994,"doi":3995,"Ġable":3996,"limin":3997,"suming":3998,"Ġsy":3999,"Ġderive":4000,"ends":4001,"Ġ$[\\":4002,"Ġinclude":4003,"osing":4004,"Ġstudies":4005,"66":4006,"iding":4007,"Ġlink":4008,"ĠEn":4009,"Ġmakes":4010,"Ġgrowth":4011,"Ch":4012,"serv":4013,"):=":4014,"Ġ}}":4015,"Ġmotion":4016,"Ġcells":4017,"{*":4018,"Ġstarting":4019,"Ġhomomorphism":4020,"47":4021,"mathbbm":4022,"enerate":4023,"cation":4024,"journal":4025,"Ġperformed":4026,")<":4027,"Bigg":4028,"pher":4029,"Ġground":4030,"Ġnetworks":4031,"Ġadmits":4032,"arily":4033,"aries":4034,"textsf":4035,"Ġimply":4036,"}})$":4037,"SA":4038,"Ġitself":4039,"Sp":4040,"Ġworks":4041,"titute":4042,"Ġneeded":4043,"Ġpul":4044,"rank":4045,"Ġuniversal":4046,"}.$$":4047,"Ġadap":4048,"zation":4049,"Ġdense":4050,"xx":4051,"ograph":4052,"Ġturn":4053,"}.$":4054,"Ġdifferenti":4055,"92":4056,"diag":4057,"alance":4058,"fficiency":4059,"Ġmicro":4060,"loy":4061,"gine":4062,"Ġpopulation":4063,"wards":4064,"Ġsituation":4065,"ĠBan":4066,"cat":4067,"Ġscale":4068,"2011":4069,"Ġaccuracy":4070,"sharp":4071,"ĠThey":4072,"isson":4073,").$":4074,"yl":4075,"Ġdefinitions":4076,"Ġeigenvalue":4077,"vals":4078,"App":4079,"Ġexperimental":4080,"))=":4081,"Ġbinary":4082,"Ġarguments":4083,"hib":4084,"levant":4085,"Ġtrace":4086,"ctic":4087,"Ġoscil":4088,"dules":4089,"Ġgeodes":4090,"Ġutil":4091,"Ġmedi":4092,"Ġconcern":4093,"Ġbelongs":4094,"Ġasser":4095,"ystem":4096,"actions":4097,"Ġsugges":4098,"Ġgeneric":4099,"ĠMarkov":4100,"Ġinc":4101,"46":4102,"osed":4103,"Ġ^{\\":4104,"Ġcone":4105,"43":4106,"AM":4107,"Ġlangu":4108,")}$,":4109,"Ġimplic":4110,"ardin":4111,"ĠPa":4112,"Ġsimulation":4113,"Ġgeometry":4114,"Ġgame":4115,"Ġ}$":4116,"}\\|_{":4117,"&=&":4118,"Ã©":4119,"Ġclassification":4120,"LP":4121,"Ġmach":4122,"Ġtermin":4123,"paces":4124,"omen":4125,"]^{":4126,"Ġradius":4127,"uture":4128,"underset":4129,"$.}":4130,"DP":4131,"Ġcompletely":4132,"osite":4133,"Ġhelp":4134,"Ġscalar":4135,"Bib":4136,"_{+":4137,"ources":4138,"Ġwant":4139,"Ġtheore":4140,"ud":4141,"Ġcorrelation":4142,"Ġadjac":4143,"earch":4144,"Ġcu":4145,"âĪĴ":4146,"iants":4147,"Ġacts":4148,"ley":4149,"Ġassumed":4150,"Ġmis":4151,"Ġfrac":4152,"Ġimmediately":4153,"ano":4154,"Ġhad":4155,"Ġcorrect":4156,"overset":4157,"Ġneighb":4158,"Ġdivisor":4159,"Ġverify":4160,"Ġpref":4161,"ots":4162,"Ġcenter":4163,"ĠScience":4164,"ymmetric":4165,"Ġdu":4166,"picture":4167,"otent":4168,"ored":4169,"Ġgenerality":4170,"Ġinduces":4171,"struction":4172,"\\}}":4173,"Ġfew":4174,"tiny":4175,"Ġmeasured":4176,"igroup":4177,"Ġru":4178,"learly":4179,"Ġfinding":4180,"Ġidentify":4181,"Ġapproximate":4182,"Ġhoriz":4183,"56":4184,"}\\}$":4185,"_{-\\":4186,"Ġdi":4187,"Ġfiber":4188,"sis":4189,"Ġconsidering":4190,"Ġ\\)":4191,"42":4192,"Ġconcept":4193,"Ġcoordinate":4194,"|\\!|":4195,"ĠNew":4196,"atives":4197,"Bibitem":4198,"ki":4199,"class":4200,"isted":4201,"tle":4202,"Ġbo":4203,"Mo":4204,"Ġfac":4205,"Ġelectron":4206,"aring":4207,"ĊĠĊ":4208,"ni":4209,"ourse":4210,"sfer":4211,"Ġvariance":4212,"80":4213,")}^":4214,"rown":4215,"Ġspeed":4216,"alty":4217,"Qu":4218,"ba":4219,"Ġscenario":4220,"Ġremaining":4221,"Cref":4222,"Ġweighted":4223,"onic":4224,"Ġcomputational":4225,"Ġproves":4226,"Ġregularity":4227,"Ġthough":4228,"Ġsyn":4229,"0000":4230,"Ġwhenever":4231,"Ġweakly":4232,"}(-":4233,"ĠDis":4234,"}}=\\":4235,"Ġliterature":4236,"Ġdefines":4237,"Ġdraw":4238,"Ġanti":4239,"Ġ17":4240,"Ġinten":4241,"fe":4242,"case":4243,"iqueness":4244,"AP":4245,"ash":4246,"Ġcohomology":4247,"test":4248,"displaymath":4249,"level":4250,"formal":4251,"Ġpurpo":4252,"SP":4253,"Ġfast":4254,"91":4255,"inger":4256,"Ġobservation":4257,"Ġequilibrium":4258,"bounded":4259,"Ġins":4260,"jor":4261,"hol":4262,"Ġheight":4263,"Ġflat":4264,"Ġcomputing":4265,"Pr":4266,"=(\\":4267,"ĠMath":4268,"Ġput":4269,"ntial":4270,"2009":4271,"Ġcut":4272,"*}\\":4273,"IN":4274,"Ġyield":4275,"ww":4276,"serve":4277,"BC":4278,"Ġenti":4279,"Ġwidth":4280,"Ġdiscussion":4281,"tors":4282,"]{\\":4283,"Ġperfect":4284,"Ġ199":4285,"Ġproofs":4286,"pand":4287,"Ġface":4288,"ises":4289,"Ġperturb":4290,"formations":4291,"ĠCha":4292,"Ġcombination":4293,"Ġparticles":4294,"Ġinclusion":4295,"Ġnecessarily":4296,"Ġerrors":4297,"arg":4298,"sl":4299,"aff":4300,"lor":4301,"ducing":4302,"EM":4303,"Section":4304,"|}{":4305,"ccording":4306,"](":4307,"}$}":4308,"index":4309,"Suppose":4310,"Ġword":4311,"Ġmove":4312,")!":4313,"Ġreference":4314,"Ġtrac":4315,"Ġapproaches":4316,"semb":4317,"xrightarrow":4318,"Ġlevels":4319,"tives":4320,"Ġentries":4321,"Ġdistingu":4322,"Ġmentioned":4323,")}=":4324,"Ġrece":4325,"ata":4326,"}_{{\\":4327,"Ġcommutative":4328,"Ste":4329,"ĠPhysi":4330,"Ġatta":4331,"aco":4332,"Bigl":4333,"missible":4334,"Ġfig":4335,"Ġmanifolds":4336,"grams":4337,"Ġadvan":4338,"{$^":4339,"iled":4340,"Ġproducts":4341,"Ġconveni":4342,"Ġpermutation":4343,"blue":4344,"Ġones":4345,"ĠSee":4346,"que":4347,"qed":4348,"vskip":4349,"Ġtrajector":4350,")$$":4351,"$'":4352,"Ġpas":4353,"Ġpub":4354,"CP":4355,"Ġclearly":4356,"Ġdecay":4357,"Ġgenerating":4358,"101":4359,"ided":4360,"Ġav":4361,"Comp":4362,"Ġ19":4363,"Ġgreater":4364,"lack":4365,"Ġord":4366,"sitivity":4367,"Ġmixed":4368,"}=(":4369,"Ġexpressed":4370,"Ġtreatment":4371,"Ġ}{\\":4372,"Ġdepth":4373,"86":4374,"Ġdiver":4375,"Ġlies":4376,"sol":4377,"41":4378,"izations":4379,"Ġrates":4380,"ĠHa":4381,"kin":4382,"ital":4383,"Ġprior":4384,"Ġlist":4385,"ĠGal":4386,"),(":4387,"]_{":4388,"Ġcircuit":4389,"Ġslight":4390,"condition":4391,"rant":4392,"}/\\":4393,"erences":4394,"\",":4395,"cessing":4396,"Ġ&&\\":4397,"ĠEach":4398,"Im":4399,"two":4400,"SO":4401,"},{\\":4402,"ush":4403,"Ġholomorphic":4404,"bigoplus":4405,"Ġarticle":4406,"ĠAnal":4407,"Ġdetection":4408,";\\;":4409,"Ġhttps":4410,"Ġds":4411,"ĠBanach":4412,"Ġenvironment":4413,"sequently":4414,"Ne":4415,"MM":4416,"Ġgoal":4417,"Ġcru":4418,"Bigr":4419,"Ġtangent":4420,"Ġincreases":4421,"Li":4422,"Ġstraightforward":4423,"Ġstabil":4424,"Ġformulas":4425,"Ġiso":4426,"})(":4427,"Ġshift":4428,"Ġnonzero":4429,"Ġcardin":4430,"Ġtechnique":4431,"eff":4432,"Ġindividual":4433,"Thm":4434,"Ġestimated":4435,"Finally":4436,"Ġconstraint":4437,"ĠAlgorithm":4438,"Ġcoherent":4439,",$$":4440,"From":4441,"Ġcourse":4442,"Ġdimensions":4443,"Ġsimilarly":4444,"sco":4445,"ngth":4446,"ĠMar":4447,"ber":4448,"'}\\":4449,"finity":4450,"_{|":4451,"Ġrec":4452,"Ġanswer":4453,"br":4454,"ches":4455,"Ġdecision":4456,"HS":4457,"Ġwhole":4458,"key":4459,"Ġaim":4460,"'(\\":4461,"ĠCa":4462,"Ġhomotopy":4463,"{$^?":4464,"ĠNotice":4465,"87":4466,"Ġopp":4467,"gs":4468,"step":4469,"Ġfuture":4470,"Res":4471,"locity":4472,"({":4473,"Ġprote":4474,"Ġ\\}$":4475,"ĠLipschitz":4476,"tian":4477,"ĠFix":4478,"={\\":4479,"Ġderivatives":4480,"edu":4481,"Ġcli":4482,"ĠAnd":4483,"Ġexcept":4484,"Ġreduce":4485,"Ġcalculate":4486,"Ġsections":4487,"ontal":4488,"Ġfeature":4489,"wit":4490,"Ġiteration":4491,"Ġunderlying":4492,",(":4493,"Ġdeal":4494,"Ġcalculated":4495,"chy":4496,"Ġreview":4497,"Ġcompati":4498,"Ġhard":4499,"Ġthresh":4500,"ident":4501,"ĊĊĠĠĠ":4502,"Ġentire":4503,"Ġbre":4504,"AD":4505,"Ġrelevant":4506,"uter":4507,"Ġmultiplication":4508,"Ġdy":4509,"})-":4510,"ecause":4511,"'}$":4512,"CD":4513,"Ġissu":4514,"ĠCont":4515,"Ġpric":4516,"clide":4517,"ĠBob":4518,"Ġrobust":4519,"57":4520,"zing":4521,"2021":4522,"'=":4523,"Ġconfiguration":4524,"Ġconditional":4525,"}))":4526,"paration":4527,"Ġefficiency":4528,"---":4529,"lm":4530,"AN":4531,"Ġtrees":4532,"Ġgate":4533,"Ġindeed":4534,"OR":4535,"modules":4536,"Ġdevi":4537,"trac":4538,"hu":4539,"ĠEuler":4540,"Ġyears":4541,"city":4542,"Ġprincipal":4543,"Ġvelocity":4544,"ima":4545,"Ġidentified":4546,"Ġphen":4547,"CM":4548,"wt":4549,"Ġpati":4550,"}$\\":4551,"ĠII":4552,"block":4553,"}.\\":4554,"clidean":4555,"Ġconclusion":4556,"BS":4557,"ystems":4558,"Ġ)\\":4559,"Ġactually":4560,"lest":4561,"year":4562,"aa":4563,"Ġintervals":4564,"Ġknowledge":4565,"field":4566,"Ġexter":4567,"xiom":4568,"ware":4569,"mkern":4570,"Ġgenerally":4571,"}{{\\":4572,"Ġmatching":4573,"')\\":4574,"maketitle":4575,"rence":4576,"ĠAppendix":4577,"Ġobjective":4578,"ĠAlice":4579,"ĠGe":4580,"Ġrotation":4581,"Ġroots":4582,"Ġsolving":4583,"ave":4584,")&":4585,")),":4586,"Ġempty":4587,"Ġ)$":4588,"ES":4589,"xymatrix":4590,"dr":4591,"Ġclosure":4592,"sect":4593,"hook":4594,"dist":4595,"jk":4596,"Ġsampling":4597,"Ġoptical":4598,"Ġdig":4599,"idel":4600,"Ġlayer":4601,"ĠNext":4602,"ĠInter":4603,"Ġinflu":4604,"70":4605,"ered":4606,"Ġvir":4607,"Ġstrength":4608,"},$":4609,"Ġinside":4610,"temp":4611,"ĠDenote":4612,"Ġmem":4613,"duct":4614,"Ġproceed":4615,"Ġorgan":4616,"ari":4617,"bl":4618,"Ġpropor":4619,"Ġvariation":4620,"Ġtransfer":4621,"ĠClearly":4622,"mallest":4623,"Ġautoma":4624,"gated":4625,"volution":4626,"Ġ25":4627,"gr":4628,"claim":4629,"Ġcontinuity":4630,"Ġenc":4631,"Ġacross":4632,"Ġpost":4633,"Ġhome":4634,"Ġgenerate":4635,"Ġmotiv":4636,"Ġ}(":4637,"Ġbuil":4638,"2008":4639,"qubit":4640,"Ġmodules":4641,"Ġtoo":4642,"Ġcalculation":4643,"Ġfit":4644,"Ġjoint":4645,"Ġexplicitly":4646,"Ġwater":4647,"Next":4648,"vered":4649,"ference":4650,"Ad":4651,"Our":4652,"}&\\":4653,"NA":4654,"inty":4655,"orel":4656,"algorithm":4657,"mplectic":4658,"arith":4659,"ked":4660,"Ġestablished":4661,"Ġdistributed":4662,"Aut":4663,"cripts":4664,"Ind":4665,"49":4666,"Ġinjective":4667,"^{[":4668,"rang":4669,"diam":4670,"Ġprobabilities":4671,"Ġconsisting":4672,"defined":4673,"rily":4674,"Ġshape":4675,"Ġdataset":4676,"Ġelementary":4677,"]^{\\":4678,"CS":4679,"Ġreader":4680,"change":4681,"Ġregression":4682,"auchy":4683,"Ġrepor":4684,"Ġforce":4685,"Ġentangled":4686,"Ġsite":4687,"Ġlif":4688,"Ġsphere":4689,"Ġcyclic":4690,"~(\\":4691,"Consider":4692,"gl":4693,"adic":4694,"ĠTa":4695,"ĠGoogle":4696,"Ġappears":4697,"ĠRo":4698,"Ġreson":4699,"citet":4700,"Ġvertical":4701,"Ġamount":4702,"][":4703,"Ġrisk":4704,"Ġresolution":4705,"ĠAfter":4706,"]_":4707,"Ġ{$":4708,"}$)":4709,"}]\\":4710,"Ġsmallest":4711,"Ġonce":4712,"ariant":4713,"tainty":4714,"uparrow":4715,"Ġpolic":4716,"Ġfore":4717,"Ġgenerators":4718,"}\\|\\":4719,"68":4720,"ĠConsequently":4721,"Ġ{{\\":4722,"ermi":4723,"},\\\\":4724,"Ġ?":4725,"@{":4726,"ifically":4727,"cated":4728,"Ġpack":4729,"Ġmathematical":4730,"ĠIns":4731,"ini":4732,"Ġtriang":4733,"Ġrestricted":4734,"lling":4735,"erm":4736,"Ġmagnetic":4737,"Ġcontrast":4738,"paragraph":4739,"Ġfully":4740,"Ġcompletes":4741,"question":4742,"MP":4743,"leftarrow":4744,"Ġprogram":4745,"GH":4746,"criptstyle":4747,"Ġsubgraph":4748,"scriptscriptstyle":4749,"fil":4750,"lay":4751,"Ġlanguage":4752,"Ġmodes":4753,"}^{+":4754,"Ġstated":4755,"ĠCase":4756,"ery":4757,"Ġwin":4758,"ĠRev":4759,"Ġblow":4760,"Ġinterior":4761,"ford":4762,"puts":4763,"eter":4764,"Ġordered":4765,"RR":4766,"ĠLag":4767,"trans":4768,"Ġreach":4769,"Ġfractional":4770,"Set":4771,"ĠPhys":4772,"|^{\\":4773,"Ġgeodesic":4774,"Ġhapp":4775,"dro":4776,"ĠPoisson":4777,"ĠUnder":4778,"convex":4779,"pes":4780,"Ġadjacent":4781,"Ġhu":4782,"ois":4783,"Ġobservations":4784,"timate":4785,"isation":4786,"Ġwide":4787,"Ġbox":4788,"}}}\\,":4789,"Ġdifficult":4790,")[":4791,"Ġschemes":4792,"lean":4793,"page":4794,"categor":4795,"integ":4796,"=[":4797,"Ġgeneralization":4798,"}}+":4799,"ĠĠĠĠĠĠĠĠĠ":4800,"Ġrecon":4801,"_{{":4802,"Ġoccurs":4803,"ko":4804,"2007":4805,"Ġmeasurable":4806,"Ġcrucial":4807,"Ġconta":4808,"Ġstationary":4809,"Ġregions":4810,"choose":4811,"LL":4812,"}~":4813,"weak":4814,"Ġsemigroup":4815,"ĠResearch":4816,"ants":4817,"Ġautomorphism":4818,"Ġintegration":4819,"Ġimages":4820,"^{*}":4821,"Ġrig":4822,"\\).":4823,"Ġalternative":4824,"\\),":4825,"ita":4826,"Ġdefining":4827,"ometry":4828,"Ġplot":4829,"Ġuniqueness":4830,"Ġrules":4831,"Ġshowing":4832,"Ġuser":4833,"sha":4834,"Ġchall":4835,"One":4836,"Ġresponse":4837,"58":4838,"hookrightarrow":4839,"Ġlargest":4840,"ieties":4841,"Ġband":4842,"Ġ30":4843,"Ġinfinity":4844,"bd":4845,"Ġconsistent":4846,".\\]":4847,"SE":4848,"Ġreplaced":4849,"Ġcaus":4850,"sumption":4851,"tw":4852,"IT":4853,"))$,":4854,"nm":4855,"ilies":4856,"ĠEquation":4857,"Ġachieve":4858,"]}\\":4859,"pies":4860,"subsec":4861,"cript":4862,"Ġatten":4863,"Ġselection":4864,"ĠSuch":4865,"ditive":4866,"manifold":4867,"Ġmajor":4868,"encies":4869,"Ġgenus":4870,"Ġmaking":4871,"CA":4872,"}}+\\":4873,"plane":4874,"Ġformulation":4875,"Ġsignificantly":4876,"Ġrewr":4877,"Sec":4878,"thin":4879,"ram":4880,")).":4881,"ower":4882,"Ġscore":4883,"tific":4884,"ĠCho":4885,"ayes":4886,"Example":4887,"Ġinteres":4888,"Upsilon":4889,"general":4890,"char":4891,"href":4892,"asure":4893,"fi":4894,"}})\\":4895,"Ġtheoretical":4896,"CT":4897,"certainty":4898,"Ġmemory":4899,"ground":4900,"oc":4901,"Ġbecome":4902,"ĠCom":4903,"Phys":4904,"Thus":4905,"}}}$":4906,"Ġpattern":4907,"orth":4908,"Ġcry":4909,".~(\\":4910,"dz":4911,"',\\":4912,"ially":4913,"pmod":4914,"pled":4915,"Ġsucces":4916,"urally":4917,"Ġheat":4918,"54":4919,"\\/":4920,"\".":4921,"There":4922,"Ġpresence":4923,"sche":4924,"vect":4925,"_{(\\":4926,"ris":4927,"Ġcommunication":4928,"Ġabsolute":4929,"Ġdependence":4930,"Ġrelatively":4931,"ID":4932,"Definition":4933,"LE":4934,"Ġanalogous":4935,"Ġred":4936,"$};":4937,"``":4938,"**":4939,"|.":4940,"lementary":4941,"auto":4942,"Ġfeasi":4943,"Ġatoms":4944,"eqq":4945,"ĠOther":4946,"Ġachieved":4947,"Be":4948,"gm":4949,"Ġcategories":4950,"$\\\\":4951,"Ġleading":4952,"Ġmolec":4953,"cycle":4954,"Ġsides":4955,"Ġequals":4956,"Ġhorizontal":4957,"Ġassoci":4958,"Ġemploy":4959,"}_{(":4960,"Ġarc":4961,"CH":4962,"Me":4963,"Ġnotice":4964,"Ġharmonic":4965,"Ġcycles":4966,"^*(\\":4967,"Ġmaxim":4968,"ssical":4969,"=-\\":4970,"ĠTechn":4971,"connected":4972,"ultane":4973,"models":4974,"^*}":4975,"Ġessentially":4976,"irich":4977,"ĠRa":4978,"dire":4979,"ending":4980,"hs":4981,"ried":4982,"omic":4983,"uple":4984,"\\-":4985,"newline":4986,"}|^":4987,"penalty":4988,"Ġwhereas":4989,"&=&\\":4990,"gue":4991,"ercise":4992,"84":4993,"})^{\\":4994,"Ġunderstanding":4995,"Ext":4996,"Cor":4997,"Spec":4998,")\\,\\":4999,"timal":5000,"kl":5001,"ans":5002,"Ġdecreasing":5003,"Ġinvestigate":5004,"Ġproving":5005,"idelity":5006,"Case":5007,"ĠCal":5008,"ĊĠĠĠĠĠĠĠĠĠ":5009,".},":5010,"irichlet":5011,"mming":5012,"First":5013,"ĠEuclidean":5014,"ype":5015,"Ġcounter":5016,"}]$":5017,"Ġiff":5018,"inv":5019,"53":5020,"vdash":5021,"ĠRiemannian":5022,"Ġnonnegative":5023,"Ġmachine":5024,"ares":5025,"Ġdef":5026,"olev":5027,"Ġul":5028,"|}\\":5029,"73":5030,"mary":5031,"ĠCauchy":5032,"Ġdomains":5033,"ridge":5034,"Prop":5035,"CO":5036,"Ġsubgroups":5037,"ĠMon":5038,"ĠAccording":5039,"mitive":5040,")\\)":5041,"theo":5042,"Ġdevelopment":5043,"mn":5044,"but":5045,"BM":5046,"{*}}}\\,":5047,"Ġbig":5048,"63":5049,"Ġround":5050,"Ġoutcome":5051,"Ġagent":5052,"fr":5053,"Ġspar":5054,"ables":5055,"rceil":5056,"ines":5057,"Ġatom":5058,"structure":5059,"ght":5060,"Ġscaling":5061,"Ġsci":5062,"Ġdegrees":5063,"Ġstatistical":5064,"Ġthreshold":5065,"email":5066,"Ġsubject":5067,"sures":5068,"Ġ50":5069,"Ġgraded":5070,"Here":5071,"conv":5072,"after":5073,"base":5074,"tree":5075,"ĠBecause":5076,"oral":5077,"IS":5078,"'}(":5079,"Ġexpectation":5080,"words":5081,"lceil":5082,"[{\\":5083,"Ġphotons":5084,"Ġ@":5085,"Ġmagn":5086,"Ġimplementation":5087,"Ar":5088,"Ġslightly":5089,"ductive":5090,"{|\\":5091,"tz":5092,"Ġusually":5093,"sep":5094,"ĠChe":5095,"52":5096,"2006":5097,"lier":5098,"tru":5099,"ĠObserve":5100,"rational":5101,"Ġrelationship":5102,"Ġblocks":5103,"sively":5104,"RS":5105,"Ġregar":5106,"}\\;":5107,"\\'{":5108,"ceed":5109,"Cha":5110,"Ġcavity":5111,"Ġlift":5112,"79":5113,"Ġcriterion":5114,"volume":5115,"]\\\\":5116,"fl":5117,"ung":5118,"Ġensure":5119,"72":5120,"Po":5121,"Ġgene":5122,"Ġ$\\|\\":5123,"51":5124,"ĠBorel":5125,"ogen":5126,"Ġprediction":5127,"pages":5128,"^+$":5129,"Ġbit":5130,"Ġphenomen":5131,"Ġ\\\\[":5132,"points":5133,"placing":5134,"Ġmeaning":5135,"ĠInt":5136,"variants":5137,"Ġcontribution":5138,"}}\\\\":5139,"Ġsplitting":5140,"late":5141,"Ġfamilies":5142,"Ġpropa":5143,"compact":5144,"Ġlinearly":5145,"Ġcovering":5146,"Ġkee":5147,"NS":5148,"address":5149,"Ġ~\\":5150,"*\\":5151,"Ġtorus":5152,"Ġhomology":5153,"tun":5154,"Ġdynamical":5155,"ditional":5156,"acc":5157,"Ġkind":5158,"ropic":5159,"74":5160,"sy":5161,"bigcap":5162,"Ġdetector":5163,"Figure":5164,"}}-":5165,"Ġparabolic":5166,"Ġmodulo":5167,"ĠMan":5168,"circle":5169,"ĠSh":5170,"Ġarri":5171,"ĠSpec":5172,"Corollary":5173,"Ġmechanism":5174,"110":5175,"Ġadmissible":5176,"ĠĊĠĠ":5177,"called":5178,"}:=\\":5179,"Ġcharacterization":5180,"Ġquite":5181,"scriptsize":5182,"Ġagainst":5183,"Ġneeds":5184,"Ġnull":5185,"istence":5186,"can":5187,"Ġatomic":5188,"mand":5189,"varpi":5190,"Ġuntil":5191,"Ġvary":5192,"\\\"{":5193,"succ":5194,"Ġsymplectic":5195,"\\_":5196,"ollow":5197,"Ġindices":5198,"limsup":5199,"biggl":5200,"Ġinvertible":5201,"Ġexhib":5202,"{$^?$":5203,"ĠBell":5204,"89":5205,")/\\":5206,"tification":5207,"Ġevaluation":5208,"Ġembedded":5209,"cohere":5210,"ĠRef":5211,"ages":5212,"intro":5213,"utation":5214,"Ġquantity":5215,"Ġoutside":5216,"))}":5217,"Ġfilter":5218,"ute":5219,"Ġdiscre":5220,"rief":5221,"wers":5222,"Ġ$-\\":5223,"ermitian":5224,"Ġdiffusion":5225,"length":5226,"DS":5227,"acy":5228,"ĠStep":5229,"Ġproduce":5230,"umns":5231,"Ġyour":5232,"End":5233,"nother":5234,"Ġmember":5235,"alse":5236,"rob":5237,"corre":5238,"Ġbar":5239,"}}\\,":5240,"Ġuncertainty":5241,"Ġsurjective":5242,"Ġsimultane":5243,"More":5244,"Ġdifferences":5245,"hyper":5246,"2005":5247,"Ġbra":5248,"Given":5249,"Ġpropose":5250,"tikzpicture":5251,"Recall":5252,"Ġinterested":5253,"Id":5254,"Ġ24":5255,"oding":5256,"Ġevents":5257,"Ġnuc":5258,"),$":5259,"mbining":5260,"Ġtransformations":5261,"tran":5262,"ya":5263,"code":5264,"coloneqq":5265,"{}\\":5266,"Ġcorrelations":5267,"posed":5268,"Ġhealth":5269,"Ġadding":5270,"Ġske":5271,"Ġextends":5272,"Ġcomes":5273,"Ġblack":5274,"Ġinterpo":5275,"^{{\\":5276,"Ġreduces":5277,"^*,":5278,"ittle":5279,"algebras":5280,"State":5281,"Ġdid":5282,"}$;":5283,"Ġbro":5284,"circled":5285,"'-":5286,"IP":5287,"book":5288,"ĠQuantum":5289,"obolev":5290,"Ġjump":5291,"Ġbot":5292,")}=\\":5293,"Ġselected":5294,"Ġseparable":5295,"Ġcombinator":5296,"Ġfigure":5297,"Ġsimplicity":5298,"biggr":5299,"Ġvirt":5300,"marginpar":5301,"dor":5302,"Ġinterpretation":5303,"Ġgates":5304,"|{\\":5305,"uk":5306,"orn":5307,"gineering":5308,"Lo":5309,"term":5310,"mode":5311,"Ġaccura":5312,"ĠWhile":5313,"Ġavoid":5314,"phy":5315,"Ġpurpose":5316,"Ġinteractions":5317,"lex":5318,"bing":5319,"day":5320,"CR":5321,"vergence":5322,"Ġdiffe":5323,"Ġassuming":5324,"Using":5325,"lbrace":5326,"Ġtheorems":5327,"Ġpie":5328,"Ġrelax":5329,"ĠĠĠĠĠĠĠĠĠĠĠ":5330,"MA":5331,"}'$":5332,"Ġnormalized":5333,"Ġlimits":5334,"erential":5335,"Ġextensions":5336,"((\\":5337,"Ġmodified":5338,")<\\":5339,"wn":5340,"dom":5341,"Ġestimator":5342,"Ġrecently":5343,"Ġgrid":5344,"Ġbalance":5345,"origin":5346,"Ġwalk":5347,"Ġdirected":5348,"Ġhuman":5349,"Ġpic":5350,"Ġcorollary":5351,"ories":5352,"Ġincluded":5353,"Ġcountable":5354,"Ġlogic":5355,"Ġcompatible":5356,"ults":5357,"inal":5358,"ilp":5359,"}),\\":5360,"lar":5361,"Ġextra":5362,"commu":5363,"}{}":5364,"Ġinternal":5365,"Ġvol":5366,"Ġsimulations":5367,"|\\!|\\!|":5368,"])":5369,"ĠPhysics":5370,"BB":5371,"termin":5372,"ubic":5373,"Ġbeam":5374,"),\\\\":5375,"Ġpp":5376,"uv":5377,"_{\\{":5378,"Ġtext":5379,"ĠNeu":5380,"jections":5381,"Ġrecor":5382,"ida":5383,")},\\":5384,"Ġinfluence":5385,"Ġgap":5386,"vol":5387,"estions":5388,"lexi":5389,"Ġmargin":5390,"Ġaxis":5391,"Ġsheaf":5392,"}\\!":5393,"Ġsubsection":5394,"ĠĊĉĉ":5395,"Ġseems":5396,"super":5397,"Ġconjugate":5398,"Ġquality":5399,"Ġvio":5400,"69":5401,"ĠYou":5402,"Ġmomentum":5403,"Dis":5404,"vent":5405,"Ġdetailed":5406,"ĠOr":5407,"complete":5408,")$;":5409,"Ġcolumns":5410,"Ġnaturally":5411,"Ġelectro":5412,"ithme":5413,"ĠChina":5414,"rin":5415,"vey":5416,"&-":5417,"lihood":5418,"pf":5419,"ĠâĢĵ":5420,"Ġther":5421,"Ġmorphisms":5422,"CF":5423,"Ġnontrivial":5424,"Ġimpact":5425,"ĠNa":5426,"Ġslo":5427,"Ġgeneration":5428,"Ġlie":5429,"Ġthermal":5430,"OT":5431,"dependent":5432,"Ġchang":5433,"Var":5434,"ls":5435,"servation":5436,"Def":5437,"83":5438,"Ġbin":5439,"ĠBi":5440,"than":5441,"net":5442,"ĠCol":5443,"Ġcomplement":5444,"zy":5445,"Ġpressure":5446,"gent":5447,"Ġund":5448,"}^{*":5449,"Ġactions":5450,"Ġvanishes":5451,"Ġdeterministic":5452,"71":5453,"Ġbehaviour":5454,"}^{(\\":5455,"cian":5456,"Ref":5457,"Ġequi":5458,"sume":5459,"}:\\":5460,"Ġstage":5461,"Ġbundles":5462,"Ġcoincides":5463,"Table":5464,"crimin":5465,"Ġinvolving":5466,"Ġcomputer":5467,"))^":5468,"Ġorientation":5469,"gular":5470,"Ġfail":5471,"Ġtechnical":5472,"Pre":5473,"Ġsubsequence":5474,"head":5475,"So":5476,"Ġuniquely":5477,"oring":5478,"Ġpen":5479,"ĊĠĠĠĠĠĠĠĠĠĠĠĠĠĠĠ":5480,"lli":5481,"Ġinvolved":5482,"Ġtranslation":5483,"Ġidentical":5484,"Ġevaluate":5485,"Ġresidu":5486,"vable":5487,"ĠĠĠĠĠĠĠĠĠĠ":5488,"Ġvarieties":5489,"Ġsegment":5490,"counter":5491,"Ġcapt":5492,"Ġlaser":5493,"ĠPar":5494,"leftrightarrow":5495,"Ġturns":5496,"Ġ{{":5497,"}}_\\":5498,"ham":5499,"atch":5500,"beled":5501,"ĠDirichlet":5502,"2000":5503,"62":5504,"Mod":5505,"scriptstyle":5506,"When":5507,"opf":5508,"Ġsums":5509,"Ġ{$\\":5510,"mail":5511,"rbrace":5512,"Ġstrategies":5513,"})+":5514,"Ġanalyze":5515,"Ġattention":5516,"Ġstring":5517,"GS":5518,"{[":5519,"Gr":5520,"ĠBrown":5521,"EN":5522,"Ġlogarith":5523,"$--":5524,"period":5525,"pq":5526,"Ġbrief":5527,"Ġexplain":5528,"eneral":5529,"formula":5530,"|+":5531,"Ġhist":5532,"Ġagree":5533,"|\\,":5534,"Ġimproved":5535,"|$.":5536,"ĠJaco":5537,"Ġfeed":5538,"Ġshor":5539,"2004":5540,"Ġmoduli":5541,"Ġmonoid":5542,"Ġpiece":5543,"degenerate":5544,"Ġbipartite":5545,"Ġlay":5546,"aly":5547,"^+(":5548,"FT":5549,"61":5550,"Ġkeep":5551,"Ġcontact":5552,"ĠÂ":5553,"Ġcorrespondence":5554,"Ġ[{\\":5555,"Du":5556,"oting":5557,"Ġcontrac":5558,"Ġadded":5559,"rangian":5560,"Ġpolicy":5561,"prob":5562,"tration":5563,"Ġleaves":5564,"Ġtorsion":5565,"FS":5566,"sus":5567,"rely":5568,".-":5569,"Ġmechanics":5570,"Ġpull":5571,"Ġchild":5572,"Ġomit":5573,"ĠGra":5574,"unc":5575,"nor":5576,"AL":5577,"Ġfive":5578,"mf":5579,"Ġswit":5580,"Ġapplies":5581,"Ġ$({\\":5582,"equival":5583,"creasing":5584,"ĠLo":5585,"Ġassertion":5586,"Ġ&=&\\":5587,"TM":5588,"NP":5589,"Lem":5590,"ĠModel":5591,"footnotesize":5592,"thinspace":5593,"Ġways":5594,"]}$":5595,"Ġcalculations":5596,"Ġblue":5597,"Ġjo":5598,"ĠMat":5599,"cknow":5600,"Ġdisk":5601,"Open":5602,"})^{-":5603,"ET":5604,"ilinear":5605,"ĠSecond":5606,"Ġsolved":5607,"pherical":5608,"Ġorbits":5609,"Ġindicates":5610,"titions":5611,"Ġreac":5612,"+}":5613,"Ġoverall":5614,"Ġstatistics":5615,"Ġarrow":5616,"ĠApplying":5617,"centering":5618,"Ġmid":5619,"middle":5620,"Ġdemonstrate":5621,"Ġextreme":5622,"Ġoriented":5623,"Ġmes":5624,"81":5625,"Ġphysics":5626,"ĠAu":5627,"lvert":5628,"cks":5629,"Ġprimitive":5630,"Ġpreviously":5631,"Ġreve":5632,"tability":5633,"pair":5634,"Ġregime":5635,"bracket":5636,"Ġinfinitely":5637,"Ġpatients":5638,"Ġnature":5639,"ret":5640,"za":5641,"Ġpatterns":5642,"Ġchoosing":5643,"flat":5644,"tries":5645,"ĠInstitute":5646,"Ġreported":5647,"poly":5648,"car":5649,"pmb":5650,"Ġchoices":5651,"Ġreturn":5652,"Ġideals":5653,"Ġacting":5654,"lines":5655,"Ġmetrics":5656,"Ġgoes":5657,"Ġsingularities":5658,"Ġgoing":5659,"tang":5660,"smooth":5661,"Ġtriple":5662,"Ġadvantage":5663,"Ġstatements":5664,"Ġmonotone":5665,"questiondown":5666,"textquestiondown":5667,"clusion":5668,"real":5669,"sterior":5670,"odic":5671,"sor":5672,"}}}{":5673,"pid":5674,"Ġincludes":5675,"Ġ\\#":5676,"Ġaddress":5677,"ĊĠĠĠĠĠĠĠĠĠĠĠĠĠĠĠĠĠĠĠĠĠĠĠĠĠĠĠĠĠĠĠĠ":5678,"ĠHu":5679,"Ġunknown":5680,"Ġcombined":5681,"original":5682,"Ġmonomial":5683,"Ġwhy":5684,"ynamic":5685,"ulations":5686,"Ġfeasible":5687,"triang":5688,"Ġexpressions":5689,"irical":5690,"Ġoutcomes":5691,"smallmatrix":5692,"Ġexper":5693,"ĠRec":5694,"meter":5695,"cription":5696,"problem":5697,"]_{\\":5698,"Ġalthough":5699,"erman":5700,"otropic":5701,"Ġunits":5702,"simple":5703,"Ġquestions":5704,"Ġpractice":5705,"ours":5706,"ĠBayes":5707,"Ġaxiom":5708,"Ġcand":5709,"{.":5710,"Ġupon":5711,"Ġexpand":5712,"hance":5713,"besgue":5714,"Ġexisting":5715,"Ġ\\:":5716,"stal":5717,"uniform":5718,"59":5719,"Ġincreased":5720,"Ġ[?":5721,"CL":5722,"AA":5723,"Rev":5724,"Ġreplacing":5725,"Ġsolid":5726,"Ġscatter":5727,"proj":5728,"Ġamplitude":5729,"}=\\{":5730,"Ġtowards":5731,"cepts":5732,"gets":5733,"och":5734,"Ġduality":5735,"mathrel":5736,"enberg":5737,"Ġrows":5738,"Ġsummari":5739,"ĠGre":5740,"Ġquantif":5741,"Ġcoupled":5742,"tot":5743,"Ġmatter":5744,"Ġinvolves":5745,"EEE":5746,"ollowing":5747,"Ġproduction":5748,"Pa":5749,"{}^*":5750,"Ġagents":5751,"lications":5752,"opt":5753,"}<\\":5754,")^{-\\":5755,"Ġbelie":5756,"strong":5757,"textstyle":5758,"Ġadditive":5759,"Ġher":5760,"Ġdise":5761,"cision":5762,"Ġindicate":5763,"ĠĊĊ":5764,"iewed":5765,"placian":5766,"Ġmodular":5767,"bc":5768,"$}\\":5769,"Ġdependent":5770,"Ġmy":5771,"Ġep":5772,"sm":5773,"Ġfla":5774,"Ġmultiplicity":5775,"Ġexponent":5776,"iti":5777,"fer":5778,"Ġimplemented":5779,"Ġarithme":5780,"Ġforward":5781,"ĠCent":5782,"celer":5783,"Ġinvariants":5784,"Ġpractical":5785,"Ġmultip":5786,"Ġ..":5787,"fication":5788,"Ġdifferentiable":5789,"Ġprimes":5790,"Ġknot":5791,"idden":5792,"Ġcopies":5793,"Ġfidelity":5794,"Left":5795,"$&$":5796,"ators":5797,"gru":5798,"Ġprocessing":5799,"versely":5800,"Ġdatasets":5801,"Ġado":5802,"rs":5803,"Ġlimited":5804,".[":5805,"}.}":5806,"entations":5807,"Ġexternal":5808,"overrightarrow":5809,"pan":5810,"Ġpass":5811,"irm":5812,"Ġcovariance":5813,"Ġintroduction":5814,"Ġrise":5815,"Ġabsor":5816,"Ġbijection":5817,")--(":5818,"Equ":5819,"|,":5820,"rvert":5821,"lus":5822,"Ġcore":5823,"Ġdiscrimin":5824,"Long":5825,"complex":5826,"ttp":5827,"ineq":5828,"dorff":5829,"tim":5830,"Ġproject":5831,"atory":5832,"tably":5833,"sqcup":5834,"ĠDiff":5835,")}}\\":5836,"ĠPer":5837,"Ġactive":5838,"###":5839,"Ġearlier":5840,"Ġsoft":5841,"Ġintegrals":5842,"Remark":5843,"82":5844,"Ġconverge":5845,"Ġfra":5846,"mmer":5847,"ixed":5848,"Step":5849,"Ġ...":5850,"}}}}":5851,"SD":5852,"category":5853,"ĠGu":5854,"How":5855,"value":5856,"Ġtot":5857,"2003":5858,"Ġhighest":5859,"edge":5860,"ĠOp":5861,"ĠJournal":5862,"Ġcapacity":5863,"Ġensemb":5864,",.":5865,"Ġlonger":5866,"ĠAlthough":5867,"RT":5868,"Ġ}_{":5869,"sters":5870,"Ġfraction":5871,"Ġcharacteristics":5872,"mation":5873,"ceptional":5874,"Ġvanishing":5875,"ĠDi":5876,"reek":5877,"ĊĊĠĊ":5878,"Ġnever":5879,"Ġinstances":5880,"ibra":5881,"Ġequivalently":5882,"Ġbranch":5883,"Ġhypersur":5884,"vance":5885,"Department":5886,")}_{\\":5887,")]{":5888,"continuous":5889,"ĠSobolev":5890,"Ġperturbation":5891,"that":5892,"}}^\\":5893,"IM":5894,"multirow":5895,"Ġadjoint":5896,"decomp":5897,"ĠFe":5898,")_\\":5899,"Ġdemand":5900,"sube":5901,"well":5902,"rela":5903,"Ġprog":5904,"underbrace":5905,"Ġdetail":5906,"Ġ23":5907,"Ġprice":5908,"Ġcomputations":5909,"inted":5910,"cro":5911,")\\|":5912,"Ġstud":5913,"!}":5914,"Ġelimin":5915,"-{\\":5916,"Ġfinally":5917,"Therefore":5918,"~(":5919,"}}|":5920,"amin":5921,"Ġpulse":5922,"ON":5923,"Ġhighly":5924,"}}}(":5925,"}:=":5926,"ĠTheorems":5927,"jo":5928,"ishing":5929,"iliation":5930,"^*$.":5931,"Op":5932,"RE":5933,"(|\\":5934,"ĠIs":5935,"Ġstress":5936,"ausdorff":5937,"Ġiterations":5938,"Ġdeviation":5939,"Ġ{}":5940,"Eu":5941,"ĠSystems":5942,"Ġcongru":5943,"}}{(":5944,"symmetric":5945,"Ġpreserves":5946,"2002":5947,"Ġpho":5948,"Ġâ":5949,"}\\{":5950,"ctu":5951,"Ġsuccess":5952,"Ġ=&":5953,"Ġonline":5954,"ights":5955,"iability":5956,"ilpotent":5957,"ĠAssumption":5958,"Ġconformal":5959,"Ġsources":5960,",}":5961,"fold":5962,"ccc":5963,"Ġimplement":5964,"ctural":5965,"product":5966,"Ġbody":5967,"dical":5968,"Ġloc":5969,"With":5970,"pendence":5971,"mun":5972,")}]":5973,"Ġpairwise":5974,"proper":5975,"Ġderivation":5976,"Ġnotations":5977,"nes":5978,"ĠLebesgue":5979,"DD":5980,"Ġmer":5981,"Ġ198":5982,"Ġexpect":5983,"Ġdeformation":5984,"Ġothers":5985,"pecially":5986,"Ġquantities":5987,"VM":5988,"Ġthick":5989,"ĠRic":5990,"dv":5991,"Ġgiving":5992,"tency":5993,"ĠMor":5994,"resul":5995,"Ġtun":5996,"Es":5997,"sign":5998,"ĠClaim":5999,"Sub":6000,"functions":6001,")}^{":6002,"ĠSer":6003,"Ġaway":6004,"Ob":6005,"ming":6006,"Ġsix":6007,"Ġupdate":6008,"ets":6009,"Ġneut":6010,"SC":6011,"Ġtransmission":6012,"?}":6013,"Ġspecies":6014,"Ġdirections":6015,"ĠSome":6016,"Gal":6017,"Ġarbitrarily":6018,"Ġpeak":6019,"Ġ21":6020,"Ġinvestigated":6021,"first":6022,"Ġcopy":6023,"singular":6024,"Ġneural":6025,"Ġlocation":6026,",\"":6027,"Ġtesting":6028,"arc":6029,"ius":6030,"Ġbottom":6031,"Ġsubspaces":6032,"Ġpartially":6033,"ĠLagrangian":6034,"Ġintensity":6035,"Ġconcentration":6036,"Ġordering":6037,"Ġconcentra":6038,"OP":6039,"Ġcontrolled":6040,"Ċĉĉĉĉ":6041,"Ġcondu":6042,"ĠCor":6043,"enef":6044,"Main":6045,"ht":6046,"ille":6047,"vo":6048,"entered":6049,"ressed":6050,"imple":6051,"xili":6052,"Ġstronger":6053,"ĠMed":6054,"ji":6055,"Ġfiltration":6056,"Ġlikely":6057,"Ġthink":6058,"ĠBes":6059,"Ġdefinite":6060,"SU":6061,"|<":6062,"upsilon":6063,"ones":6064,"har":6065,"Ġzeros":6066,"Ġrings":6067,"nn":6068,"Ġspecified":6069,"Ġpi":6070,"ĠBrownian":6071,"????":6072,"teness":6073,"Ġdescribes":6074,"Ġ???}\\":6075,"Ġetc":6076,"lished":6077,"Ġrever":6078,"parameter":6079,"rk":6080,"Ġdeep":6081,"cover":6082,"Ġplayer":6083,"Ġallowed":6084,"ada":6085,"Ġcharacterized":6086,"ĠBra":6087,"})}{":6088,"lator":6089,"stant":6090,"xiliary":6091,"ĠTheory":6092,"Ġequipped":6093,"ĠHy":6094,"Ġappe":6095,"Ġrepeated":6096,"gramming":6097,"Ġexplained":6098,"quations":6099,"ĠGalois":6100,"ky":6101,"Ġadmit":6102,"Or":6103,"Ġeigenvector":6104,")-(":6105,"lr":6106,"vc":6107,"ai":6108,"cle":6109,"_*\\":6110,"};\\":6111,"obs":6112,"ental":6113,"theless":6114,"inner":6115,"onormal":6116,"Ġproven":6117,"data":6118,"bon":6119,"Ġindependently":6120,"Ġcubic":6121,"Ġlabels":6122,"ulty":6123,"bet":6124,"Ġimportance":6125,"bic":6126,"''$":6127,"Ġplanar":6128,"Ġ}^{":6129,"ĠPol":6130,"ax":6131,"He":6132,"ople":6133,"))=\\":6134,"Ġ&+":6135,"ĠWhat":6136,"ĠMulti":6137,"001":6138,"variate":6139,"ergodic":6140,"ATE":6141,"ĠMathematical":6142,"*}{":6143,"Assume":6144,"isms":6145,"];":6146,"oids":6147,")}\\\\":6148,"Ġbook":6149,"Ã¶":6150,"Ġchallen":6151,"subequations":6152,"liminf":6153,"vv":6154,"2001":6155,"approxima":6156,"Stop":6157,"'+":6158,"Ġpay":6159,"Ġprepa":6160,"optimal":6161,"Ġposterior":6162,"ĠNational":6163,"instein":6164,"inclu":6165,"Ġexclu":6166,"_*(":6167,"Ġgreat":6168,"Ġown":6169,"idate":6170,"Ġrunning":6171,"}_{-":6172,"Ġespecially":6173,"mum":6174,"positive":6175,"ĠWang":6176,"Ġtasks":6177,"Ġtools":6178,"Ġprofile":6179,"EC":6180,"ĠAc":6181,"''(":6182,"Ġsquee":6183,"Ġtotally":6184,"periodic":6185,"ĠOtherwise":6186,"num":6187,"Ġintegrable":6188,"Ġapproximately":6189,"Ġsettings":6190,"irr":6191,"Ġcoincide":6192,"Ġdiagrams":6193,"Ġopposite":6194,"Ġbio":6195,"Ġtests":6196,"oto":6197,"),$$":6198,"grad":6199,"^*_{":6200,"ĠNeumann":6201,"bilities":6202,"national":6203,"defi":6204,"LT":6205,"Ġ---":6206,"Ġitem":6207,"Ġ35":6208,"Ġcardinality":6209,"closed":6210,"Ġarithmetic":6211,"Ġincident":6212,"lif":6213,"\\!\\!\\!\\!":6214,"ossi":6215,"conj":6216,"Ġflux":6217,"AG":6218,"ĠStu":6219,",\\;":6220,"kov":6221,"sym":6222,"Ġordinary":6223,"Ġelectric":6224,"Ġpartitions":6225,"Cla":6226,"oper":6227,"Ġcombinatorial":6228,"-|":6229,"older":6230,"sit":6231,"Ġ22":6232,"Ġcome":6233,"rig":6234,"Ġmana":6235,"ably":6236,"fg":6237,"Ġsetup":6238,"3934":6239,"}}}{\\":6240,"IF":6241,"Hence":6242,"lip":6243,"Ġaffect":6244,"|(":6245,"chang":6246,"Ġsemis":6247,"}}^{(":6248,"Ġindividu":6249,"vis":6250,">>":6251,"aylor":6252,"Ġload":6253,"Ġecon":6254,"ifies":6255,"Car":6256,"ighted":6257,"lse":6258,"+{\\":6259,"odot":6260,"cline":6261,")$}":6262,"chite":6263,"Ġrepresenting":6264,"Per":6265,"rtimes":6266,"ĠProblem":6267,"urations":6268,"^{-(":6269,"Ġmodeling":6270,"Ġfollowed":6271,"ped":6272,"Ġpolarization":6273,"rmk":6274,"ĠTaking":6275,"Ġscattering":6276,"Ġareas":6277,"Ġthroughout":6278,"Ġevidence":6279,"plan":6280,"Ġchannels":6281,"nobreak":6282,"Ġyet":6283,"Ġdetermines":6284,"Ġ[-":6285,"Ġbenef":6286,"Ġbias":6287,"omy":6288,"Ġcodes":6289,"Ġisolated":6290,"urity":6291,"ĠCan":6292,"Ġevaluated":6293,"preceq":6294,"https":6295,"IR":6296,"ĠSchr":6297,"})\\\\":6298,"Ġsharp":6299,"Ġfluid":6300,"ĠBer":6301,"Ġleaf":6302,"IV":6303,"\\},\\":6304,"photon":6305,"Ġ32":6306,"uri":6307,"Ġtight":6308,"equences":6309,"Ġpossibly":6310,"Ġmeta":6311,"Lie":6312,"Ġ<\\":6313,"sic":6314,"tained":6315,"ĠDo":6316,"SB":6317,"TT":6318,"location":6319,"Ġhydro":6320,"Ġresol":6321,"BibitemOpen":6322,"Ġenhance":6323,"Ġtransport":6324,"ĠCombining":6325,"diamond":6326,"}([":6327,"Ġidentification":6328,"ologies":6329,"ao":6330,"affiliation":6331,"HH":6332,"Ġwaves":6333,"seq":6334,"ĠAgain":6335,"Ġsquares":6336,"^*)":6337,"ĠMeth":6338,"Ġworld":6339,"tingale":6340,"Ġissue":6341,"restric":6342,"Ġnonempty":6343,"\\,.":6344,"ĠDepartment":6345,"Ġsymbols":6346,"}):":6347,"Ġslow":6348,"ĠEvery":6349,"hou":6350,"Ġentry":6351,"Ġlocus":6352,"Ġproduced":6353,"ĠAny":6354,"ED":6355,"Ġcoherence":6356,"Ġideas":6357,"acu":6358,"Shut":6359,"Ġpresentation":6360,"classical":6361,"Ġempirical":6362,"Ġsizes":6363,"close":6364,"flow":6365,"Ġtypical":6366,"Ġactivity":6367,"ĠTwo":6368,"Ġdele":6369,"NoStop":6370,"Ġmut":6371,"Ġruns":6372,"Ġinser":6373,"Ġtypically":6374,"nothing":6375,"BibitemShut":6376,"Ġcomplic":6377,"ĠDes":6378,"ĠĠĠĠĠĠĠĠĠĠĠĠĠĠĠĠĠĠĠĠĠĠĠĠĠĠĠĠĠĠĠĠĠĠĠĠĠĠĠĠĠĠĠĠĠĠĠĠĠĠĠĠĠĠĠĠĠĠĠĠĠĠĠĠ":6379,"ĠPre":6380,")=-":6381,"autoref":6382,"Ġfacts":6383,"ĠTrans":6384,"any":6385,"Mat":6386,"textcolor":6387,"Ġvariational":6388,"Ġparticularly":6389,"Ġdevices":6390,"repres":6391,"Ġtrajectory":6392,"Ġnovel":6393,"Ġ$(-":6394,"Ġrectangle":6395,"oolean":6396,"St":6397,"Ġinfer":6398,"ĠSciences":6399,"Ġ40":6400,"lastic":6401,").\\":6402,"SF":6403,"Ro":6404,"Ġorthonormal":6405,"dia":6406,"dc":6407,"Ġgain":6408,"Ġparametri":6409,"----":6410,"Ġmesh":6411,"Ġcreate":6412,"Ġactual":6413,"Ġrigid":6414,"Ġconvenient":6415,"{-}":6416,"^*$,":6417,"Ġouter":6418,"Ġpermutations":6419,"tances":6420,"Ġ60":6421,"ĠWr":6422,"$.\\\\":6423,"tization":6424,"ĠTake":6425,"Ġmanner":6426,"Ġfluctu":6427,"PD":6428,"midrule":6429,"open":6430,"ography":6431,"Ġsays":6432,"Ġdeterminant":6433,"tokes":6434,"ierarch":6435,"Ġfrequencies":6436,"cyclic":6437,"Ġexec":6438,"Ġbases":6439,"Ġ2015":6440,"Ġimplicit":6441,"Greek":6442,"gon":6443,"las":6444,"Ġcontradicts":6445,"Ġaccurate":6446,"Google":6447,"&&\\":6448,"],\\":6449,"Ġpositions":6450,"+|\\":6451,"}((":6452,"Ġsimultaneously":6453,"Ġworking":6454,",+\\":6455,"Ġpublic":6456,"Ġrel":6457,"Ġlikelihood":6458,"hl":6459,"varnothing":6460,"arent":6461,"Ġpossibility":6462,"nds":6463,"ady":6464,"makebox":6465,"az":6466,"ams":6467,"Ġdisc":6468,"Ġmultiplicative":6469,"Ġbackground":6470,"LM":6471,"Ġcontent":6472,"Ġsimplicial":6473,"osable":6474,"hard":6475,"\\,,":6476,"Ġillustrate":6477,"pc":6478,"iles":6479,"Ġshif":6480,"ule":6481,"Greekmath":6482,"ected":6483,"homogeneous":6484,"Ġregard":6485,"hd":6486,"Ġdevice":6487,"sities":6488,"tities":6489,"]=\\":6490,")}+\\":6491,"Ġmarked":6492,"Sym":6493,"}$:":6494,"'',":6495,"ĠAnalysis":6496,"Ġbroad":6497,"deriv":6498,"}}{{\\":6499,"Ġ((":6500,"|^{-":6501,"ions":6502,"Ġexceptional":6503,"Ġmoving":6504,"Ġcus":6505,"Ġassess":6506,"tituting":6507,"oma":6508,"ĠĠĠĠĠĠĠĠĠĠĠĠ":6509,"ĠSub":6510,"Ġcalculus":6511,"iers":6512,"vice":6513,"Bo":6514,"}}[":6515,"Ġintu":6516,"ĠBo":6517,"Ġrepro":6518,"Ġsimplify":6519,")=\\{":6520,"pos":6521,"gal":6522,"Ġsubstitu":6523,"ban":6524,"ĠSa":6525,"}--\\":6526,"BF":6527,"Ġaccess":6528,"Ġreferences":6529,"}}({\\":6530,"Ġconvolution":6531,"Ġlayers":6532,"Ġmagnitude":6533,"ĠChen":6534,"Ġacceler":6535,"Is":6536,"Ġprojections":6537,"Ġann":6538,"DR":6539,"Ġrecogn":6540,"Ġclusters":6541,"ĠHausdorff":6542,"Ġsingularity":6543,"Ġdecrease":6544,"Ġgames":6545,"ourho":6546,"Ġsignals":6547,"ening":6548,"Ġaccep":6549,"Hz":6550,"ĠPr":6551,"critical":6552,"Ġauxiliary":6553,"mean":6554,"Ġsuccessf":6555,"Ġinterpolation":6556,"####":6557,"Ġpassing":6558,"sky":6559,"&$":6560,"Ġends":6561,"\\|_\\":6562,"Ġtransitive":6563,"Ġimpossi":6564,"Ġ||":6565,"Ġ2016":6566,"Ġcombining":6567,"}~\\":6568,"}\\]":6569,"number":6570,"atural":6571,"thick":6572,"BP":6573,"Ġprecision":6574,"Ġcomplexes":6575,"Ġguarantee":6576,"ĠHopf":6577,"Ġlabeled":6578,"},$$":6579,"Ġthank":6580,"Ġmaterials":6581,"Ġ(-\\":6582,"ĠNon":6583,"liminaries":6584,"::":6585,"Ġtrajectories":6586,"iso":6587,"Ġsummand":6588,"Ġmonotonic":6589,"appendix":6590,"Ġpicture":6591,"Ġdistinguish":6592,"Ġtry":6593,"description":6594,"Ġskew":6595,"eck":6596,"cn":6597,"Ġtrun":6598,"*{\\":6599,"Ġsocial":6600,"Ġheter":6601,"Ġ2014":6602,"vertex":6603,"Ġsemic":6604,")}+":6605,"Ġsent":6606,"ott":6607,"Ġrandomly":6608,"Ġslope":6609,"Ġrough":6610,"}}-\\":6611,"Ġarchite":6612,"ately":6613,"Ġage":6614,"quantum":6615,"Ġtreated":6616,"Mar":6617,"Ġergodic":6618,"bur":6619,"linder":6620,"ĠWh":6621,"....":6622,"lVert":6623,"Bound":6624,"Leftrightarrow":6625,"Ġtends":6626,"Ġunbounded":6627,"tus":6628,"Ġmoments":6629,"Ġcentered":6630,"FF":6631,"ench":6632,"prov":6633,"Ġcorrection":6634,"ibility":6635,"Ġrespective":6636,"Ġabstract":6637,"Ġvisual":6638,"LR":6639,"III":6640,"Ġmoves":6641,"Ġcoll":6642,"Ġdesigned":6643,"Ġsensitivity":6644,"owski":6645,"Ġbits":6646,"Ġinference":6647,"Ġpapers":6648,"ala":6649,"ordan":6650,"ĠCP":6651,"}_{+":6652,"adjoint":6653,"Ġtransitions":6654,"(\\{":6655,"Ġultra":6656,"Ġcarried":6657,"Ġensures":6658,"Ġdelay":6659,"ience":6660,"Ġpor":6661,"Ġnilpotent":6662,"At":6663,"bund":6664,"Ġlife":6665,"spect":6666,"Ġhypotheses":6667,"ĠHom":6668,"ĠBayesian":6669,"Ġflows":6670,"Ġorders":6671,"tribution":6672,",+":6673,"Ġviewed":6674,"Ġsparse":6675,"Ġexplore":6676,"Ġdissi":6677,"tract":6678,"Ġmeet":6679,"degree":6680,"from":6681,"ĠData":6682,"aux":6683,"CN":6684,"ged":6685,"DM":6686,"Ġshare":6687,"^*$-":6688,"ĠBoth":6689,"}}$-":6690,"Ġreferred":6691,"Ġspherical":6692,"this":6693,"Ġconcepts":6694,"ĠTechnology":6695,"Cl":6696,"Ġcapture":6697,"See":6698,")&=":6699,"ensors":6700,"Ġdemonstrated":6701,"ĠHar":6702,"Ġgets":6703,"Ġcodimension":6704,"discre":6705,"Ġresource":6706,"cosh":6707,"2022":6708,"ira":6709,"Ġ2017":6710,"rVert":6711,"run":6712,"}^-":6713,"Ġlittle":6714,"Ġmoreover":6715,"Ġbrac":6716,"supset":6717,"])$":6718,",~":6719,"measure":6720,"Ġproportional":6721,"Ġ28":6722,"tikzcd":6723,"ĊĉĉĊĉ":6724,"Ġplays":6725,"Ġpeople":6726,"ohn":6727,"thanks":6728,"paren":6729,"Ġasymptotically":6730,"rical":6731,"OI":6732,"Ġrestrict":6733,"Ġconnec":6734,"cade":6735,"\\[\\":6736,"tx":6737,"CE":6738,"ositions":6739,"ood":6740,"requ":6741,"Ġarcs":6742,"yond":6743,"Ġarray":6744,"})_":6745,"Ġ2013":6746,"stood":6747,"Ġion":6748,"Ġpriori":6749,"Ġnoted":6750,"gel":6751,"ĠLaplacian":6752,"Au":6753,"Ġalpha":6754,"ĠWithout":6755,"Ġ26":6756,"Ġdiameter":6757,"Ġprogramming":6758,"}^{-\\":6759,"Ġconcerning":6760,"bmod":6761,"thesis":6762,",[":6763,"Ġmarket":6764,"Ġcomposite":6765,"Ġtheories":6766,"Ġ\\}$.":6767,"ditionally":6768,"Ġgenerates":6769,"Ġtemporal":6770,"contro":6771,"Ġreflection":6772,"roben":6773,"ashi":6774,"Ġapproximations":6775,"Ġcrossing":6776,"Ġmatch":6777,"Ġintermediate":6778,"edom":6779,"Ġensemble":6780,"Ġconfigurations":6781,"Ġful":6782,"incar":6783,"Ġunless":6784,"fam":6785,"good":6786,"iring":6787,"})+\\":6788,"_+$":6789,"Ġnotions":6790,"ĠZhang":6791,"Ġmechanical":6792,"'_{\\":6793,"Ġfactorization":6794,"then":6795,"Ġfunctors":6796,"Ġcriteria":6797,"brid":6798,"Ġimprovement":6799,"Ġbeginning":6800,"Ġ\\&":6801,"Ġjus":6802,"|$,":6803,"fib":6804,"Ġ27":6805,"Ġcosts":6806,"Ġimmer":6807,"ared":6808,"comm":6809,"Ġsuggests":6810,"Ġdegenerate":6811,"ĠÏ":6812,"Ġneither":6813,"ller":6814,"Moreover":6815,"Ġformed":6816,"roughout":6817,"Ġcircuits":6818,"lt":6819,"Ġspectra":6820,"mini":6821,"global":6822,"}^*$":6823,"ards":6824,"En":6825,"ĠPe":6826,"ĠMR":6827,"items":6828,"MT":6829,"Ġbuilding":6830,"Ġ$\\,":6831,"Ġlogical":6832,"STATE":6833,")\\}$":6834,"lating":6835,"Further":6836,"coherence":6837,")}-":6838,"uzz":6839,"CG":6840,"})}{\\":6841,"harmonic":6842,"Ġprimary":6843,"Ġempha":6844,"Ġgas":6845,"Ġhierarch":6846,"}))$":6847,"robenius":6848,"factor":6849,"Ġhappens":6850,"lab":6851,"_{|\\":6852,"}|^{":6853,"ĠIts":6854,"ĠAmer":6855,"ĠBern":6856,"ithful":6857,"Ġsubsta":6858,"varsigma":6859,"Ġendow":6860,"Ġdecreases":6861,"ĠLy":6862,"Ġ},":6863,"tribut":6864,"Ġpan":6865,"Ġcomplicated":6866,"Ġthin":6867,"Ġlemmas":6868,")}{(":6869,"Ġcontro":6870,"Ġextremal":6871,"OM":6872,"Ġanalogue":6873,"}$).":6874,"EP":6875,"ĠHermitian":6876,"ĠSpecifically":6877,"Ġpreserving":6878,"lates":6879,"prote":6880,"Ġassignment":6881,"brack":6882,"Col":6883,"ama":6884,"hedron":6885,"Ġstructural":6886,"Ġrewrite":6887,"Bar":6888,"ects":6889,"system":6890,"SI":6891,"^+\\":6892,"ĠUSA":6893,"Ġdepic":6894,"defin":6895,"continu":6896,"hedral":6897,"Ġfibers":6898,"cher":6899,"ĠDue":6900,"Ġdisease":6901,"PhysRev":6902,"Ġamb":6903,"Ġlinks":6904,"ĠSt":6905,"Ġequiv":6906,"odge":6907,"Ġfeedback":6908,"Ġconverse":6909,"ĠConjecture":6910,"Ġbuild":6911,"layer":6912,"ĠLett":6913,"ui":6914,"secu":6915,"DG":6916,"Ġinputs":6917,"Ġneighbourho":6918,"rad":6919,"Ġstack":6920,"ele":6921,")+(":6922,"Ġforces":6923,"sphere":6924,"isher":6925,"Ġsheaves":6926,"Ġbreak":6927,"Ġ^{-":6928,"Ġsat":6929,"Ġimpossible":6930,"cel":6931,"Ġcharge":6932,"Ġreaction":6933,"Ġevol":6934,"lots":6935,"umerical":6936,"Ġpowers":6937,"ussian":6938,"}={\\":6939,"Ġcontraction":6940,"Ġsubalgebra":6941,"half":6942,"gcd":6943,"Ġvacu":6944,"Ġbeyond":6945,")=-\\":6946,"such":6947,"Ġcounting":6948,"Ġbilinear":6949,"sem":6950,"sinh":6951,"Fix":6952,"Ġnorms":6953,"Ġfalse":6954,"ĠAm":6955,"Ġmarginal":6956,"Ġmu":6957,"Ġfaces":6958,"tified":6959,"Ġfinish":6960,"Ġseparated":6961,"Ġexchange":6962,"Ġpointwise":6963,"Ġcomb":6964,"Ġmathematics":6965,"lective":6966,"Ġstri":6967,"radi":6968,"ato":6969,"ĠVer":6970,"Ġintersect":6971,"Ġconvenience":6972,"Ġitems":6973,"Ġremainder":6974,"Ġarise":6975,"^+_":6976,"dies":6977,"newblock":6978,"ious":6979,"Ġdisplace":6980,"Ġcommuta":6981,"Ġscenarios":6982,"Ġupda":6983,"Ġ2018":6984,"ĠOf":6985,"equent":6986,"Ġidentities":6987,"ulated":6988,"ĠNewton":6989,"ounts":6990,"Par":6991,"Ġglu":6992,"Ġintr":6993,"upper":6994,"Similar":6995,"Ġresources":6996,"}^{*}":6997,"ium":6998,"Ġmembers":6999,"kk":7000,"pdf":7001,"jected":7002,"Ġearly":7003,"Ġdon":7004,"chron":7005,"ĠChapter":7006,"Ġunderstood":7007,"Ġaverag":7008,"ctors":7009,"axis":7010,"Ġreport":7011,"Ġprece":7012,"DB":7013,"vier":7014,"allow":7015,"_{*":7016,"Ġcontrols":7017,"special":7018,"span":7019,"gacy":7020,"igu":7021,"Ġ&$":7022,"Ġability":7023,"})-\\":7024,"Ġpick":7025,"Ġguarantees":7026,"cut":7027,"Ġverified":7028,"Ġhandle":7029,"ĠĊĠĠĠĠĠĠĠ":7030,"Ġclustering":7031,"renewcommand":7032,"Ġsequential":7033,"Ġclosely":7034,"}[(":7035,"ÃĹ":7036,"equivariant":7037,"cons":7038,"Ġcare":7039,")|^{":7040,"Ġchanging":7041,"Ġconnecting":7042,"Ġproduces":7043,"corpor":7044,"adj":7045,"TH":7046,"Ġbriefly":7047,"EQ":7048,"Ab":7049,"Ġvarying":7050,"Ġcf":7051,"lb":7052,"Ġsho":7053,"preser":7054,")$:":7055,"Ġfreedom":7056,"\\;\\":7057,"ĠMin":7058,"Ġexponentially":7059,"ques":7060,"ek":7061,"Ġcharacterize":7062,"nating":7063,"Ġcat":7064,"Ġ2010":7065,"ads":7066,"1999":7067,"Ġquery":7068,"Ġassigned":7069,"len":7070,"since":7071,"Ġradial":7072,"spective":7073,"Ġgover":7074,"Ġreveal":7075,"Ġ\\;\\":7076,"Ġlimiting":7077,"Ġreads":7078,"separa":7079,"direct":7080,"ĠSim":7081,"Ġwit":7082,"lecting":7083,"equality":7084,"Ġrecover":7085,"Ġparticip":7086,"respec":7087,"ĠBar":7088,"ĠTaylor":7089,"Ġdisplay":7090,"Ġimagin":7091,"diagonal":7092,"itting":7093,"Ge":7094,"Ġsurvey":7095,"Ġcompe":7096,"blacksquare":7097,"ouse":7098,"ĊĊĠĠ":7099,"ĠLemmas":7100,"cen":7101,"gf":7102,"Ca":7103,"Ġfill":7104,"Non":7105,")={\\":7106,"Ġna":7107,"Ġisomorphisms":7108,"Ġ2012":7109,"bsection":7110,"tributor":7111,"mathring":7112,"illa":7113,"ĠCO":7114,"Ġmaintain":7115,"trically":7116,"her":7117,"Ġpage":7118,"Ġsteady":7119,"\\\\\\":7120,"vities":7121,"Ġcommutes":7122,"NR":7123,"Ġdistances":7124,"manifolds":7125,"iang":7126,"mathord":7127,"Ġinvolution":7128,"Ġ197":7129,"Ġanalyzed":7130,"Ġattemp":7131,"domain":7132,"Ġtil":7133,"rep":7134,"123":7135,"Ġutility":7136,"dotsc":7137,"Ġabsolutely":7138,"izable":7139,"Ġformation":7140,"Ġillustrated":7141,"hn":7142,"ffor":7143,")$)":7144,"Ġformer":7145,"ĠTr":7146,"Ġdivisors":7147,"independent":7148,"Ġtell":7149,"Ġ[(":7150,"cast":7151,"estimate":7152,"Ġmedium":7153,"}\\}_{":7154,"Ġpast":7155,"1016":7156,"selves":7157,"ĠChoose":7158,"Ġindividuals":7159,"@{-":7160,"Ġworth":7161,"${\\":7162,"Ġindicated":7163,"dyna":7164,"Ġ{};":7165,"ddots":7166,"Ġdate":7167,"Ġpump":7168,"Hu":7169,"{}{\\":7170,"Ġid":7171,"Ġprobabilistic":7172,"Ġfair":7173,").\\]":7174,"Diff":7175,"high":7176,"oler":7177,"gments":7178,"atz":7179,"random":7180,"Ġgeneralize":7181,"Ġseparation":7182,")&\\":7183,"ideal":7184,")^*":7185,"wp":7186,"Ġsegments":7187,"Ġtriangles":7188,"Ġvaluation":7189,"scopic":7190,"Om":7191,"ino":7192,"Ġrequirement":7193,"bx":7194,"DA":7195,"lov":7196,")}}{":7197,"Ġpointed":7198,"SM":7199,"Ġcharacters":7200,"Ġ\\,\\,":7201,"outh":7202,"Ġfoli":7203,"nov":7204,"Ġseparate":7205,".}(":7206,"rate":7207,"izers":7208,"comment":7209,"Te":7210,"bigwedge":7211,"Ġmissing":7212,"imed":7213,"1998":7214,"ĠDu":7215,"Ġradiation":7216,"Ġrealized":7217,"ĠFollowing":7218,"Ġinterference":7219,"mond":7220,"Sa":7221,"Ġnormalization":7222,"ales":7223,"Ġresidual":7224,"ĠYoung":7225,"Ġconsecu":7226,"Ġpiecewise":7227,"Supp":7228,"Com":7229,"tope":7230,"ZZ":7231,"Ġexpress":7232,"she":7233,"odd":7234,"ĠAss":7235,"ĠMc":7236,"gment":7237,"\\`":7238,"Ġ}}\\":7239,"ank":7240,"Ġinterpreted":7241,"ĠStatis":7242,"DEs":7243,"Ġvirtual":7244,"FP":7245,"sted":7246,"Ġpredictions":7247,"Dia":7248,"Ġthanks":7249,"theore":7250,"full":7251,"Ġchains":7252,"ications":7253,"otherwise":7254,"ico":7255,"Ġkine":7256,"Ġdisper":7257,"Net":7258,"Ġcontinuously":7259,"Ġangles":7260,"Ġintersec":7261,"assumption":7262,"ĠName":7263,"Ġcontributions":7264,"Ġconnections":7265,"Ġphoto":7266,"ĠGreen":7267,"body":7268,"Ġpredicted":7269,"Ġfails":7270,"$|":7271,"}{(\\":7272,"Ġsites":7273,"~~~~~~~~":7274,"cross":7275,"Ric":7276,"Ġsometimes":7277,"enchmark":7278,"Ġstudents":7279,"www":7280,"cp":7281,"Ġincorpor":7282,"force":7283,"ali":7284,"Ġexamin":7285,"Ġair":7286,"Ġprotein":7287,"Ġgenes":7288,"|>":7289,"ulate":7290,"}}]":7291,"ĠSol":7292,"eries":7293,"Ġcompletion":7294,"Ġrepresentative":7295,"Ġask":7296,"Ġfaster":7297,"Ġplayers":7298,"ĠMax":7299,"Ġcovers":7300,"Ġunstable":7301,"Ġpropagation":7302,"determin":7303,"Ġcollision":7304,"Ġadapted":7305,"Ġextrac":7306,"Ġmixing":7307,"Ġsimulated":7308,"word":7309,",-\\":7310,"$_":7311,"iden":7312,"})(\\":7313,"Ġmainly":7314,"Ġvariant":7315,"Ġcandidate":7316,"Ver":7317,"Ġcylinder":7318,"Contributor":7319,"mr":7320,"Ġscales":7321,"Ġmess":7322,"newtheorem":7323,"Inter":7324,"graphs":7325,"ahler":7326,"pd":7327,"Ġram":7328,"error":7329,"Ġ2011":7330,"Ġsolves":7331,"Cont":7332,"Ġwal":7333,"ules":7334,"ĠSP":7335,"link":7336,"}.\\]":7337,"Ġconfidence":7338,"Ġcaref":7339,"romatic":7340,"Ġchapter":7341,"ĠRob":7342,"states":7343,"Ġcontinue":7344,"unov":7345,"Ġexci":7346,"limit":7347,"'=\\":7348,"Ġproviding":7349,"TS":7350,"Ġregarding":7351,"Ġconvergent":7352,"even":7353,"Ker":7354,"odal":7355,"ister":7356,"Ġpers":7357,"Ġhyperplane":7358,"arable":7359,"Ġremoved":7360,"Ġadvance":7361,"/{\\":7362,"lder":7363,"Ġseparately":7364,"})_{\\":7365,"*{-":7366,"ustom":7367,"Ġencoding":7368,"Xiv":7369,"Ġremove":7370,"Ġdivided":7371,"ĠFunction":7372,"Ġattribu":7373,"andom":7374,"Ġdivergence":7375,"Ġvacuum":7376,"}^{{\\":7377,"Ġcarry":7378,"Ġactiv":7379,"Ġappearing":7380,"Ġfaithful":7381,"Ġpush":7382,")&=\\":7383,"Ġtrivially":7384,"Ġcomparing":7385,"ĠExercise":7386,"Ġballs":7387,"positions":7388,"Ġisometry":7389,"Ġeverywhere":7390,"Ġlogarithmic":7391,"Ġsuggest":7392,",\\,\\,\\,\\":7393,"Ġefficiently":7394,"Ġexecu":7395,"oses":7396,"Ġfibration":7397,"}))\\":7398,"anti":7399,"vised":7400,"tesian":7401,"viously":7402,"}}]{":7403,"=}":7404,"Ġchar":7405,"Ġemission":7406,"discretionary":7407,"bian":7408,"Ġexplan":7409,"$}.":7410,"Ha":7411,"ssification":7412,"rec":7413,"metric":7414,"Ġsimpler":7415,"pringer":7416,"Ġsituations":7417,"iint":7418,"Ġnet":7419,"Ġhidden":7420,"kip":7421,"Ġdrop":7422,"Of":7423,"Ġcrystal":7424,"tages":7425,"Ġrealization":7426,"ĠPri":7427,"ane":7428,"ĠFin":7429,"Ġdivide":7430,"bis":7431,"Ġcoar":7432,"]+":7433,"Ġstands":7434,"ĠPoincar":7435,"Ġtherm":7436,"Ġinductive":7437,"Ġdiffer":7438,"basis":7439,">}[":7440,"chain":7441,"oren":7442,"Ġparity":7443,"Ġunity":7444,"Ġtrip":7445,"Ġarises":7446,"setcounter":7447,"Ġbalanced":7448,"}{|\\":7449,"zo":7450,"ĠAnother":7451,"Ġ2019":7452,"atic":7453,"ĠWeyl":7454,"Ġposs":7455,"ros":7456,"Ġinteract":7457,"ball":7458,"Ġwidely":7459,"ĠRicci":7460,"')$.":7461,"loop":7462,"500":7463,"KL":7464,"}\\}$.":7465,"}{*}{":7466,")})$":7467,"Sim":7468,"Ġselect":7469,"quote":7470,"Ġcancer":7471,"})$-":7472,"Ġ2020":7473,"second":7474,"cave":7475,"Ġwhite":7476,"ml":7477,"heres":7478,"almost":7479,"ĠĊĠĠĠĠ":7480,"Ġstudying":7481,")^{(":7482,"Ġign":7483,"isy":7484,"Ġmiddle":7485,"ether":7486,"Ġemployed":7487,"Ġdetected":7488,"Ġtransverse":7489,"TR":7490,"tensor":7491,"Ġmodification":7492,"Ġnuclear":7493,"struct":7494,"Ġnonlocal":7495,"Ġequivariant":7496,"Ġlimi":7497,"Ġallowing":7498,"Ġneighbourhood":7499,"Ġphenomenon":7500,"Ġreasonable":7501,"OC":7502,"ney":7503,"ĠPut":7504,"Ġimaginary":7505,"ĠGL":7506,"magnetic":7507,"Ġobtains":7508,"Ġperforming":7509,"Ġhomeomorphism":7510,"Ġpages":7511,"ĠFran":7512,"ica":7513,"}'(":7514,"ĠHodge":7515,"Ġrapid":7516,"ĠPress":7517,"Min":7518,"Ġautomorphisms":7519,"print":7520,"coming":7521,"Ġsends":7522,"Ġrefine":7523,"KS":7524,"Ġsimilarity":7525,"provide":7526,"pto":7527,"Pic":7528,"Ġgau":7529,"hyp":7530,"Ġexam":7531,"Ġdescribing":7532,"Ġlearn":7533,"np":7534,"what":7535,"ĠCommun":7536,"RC":7537,"Bbbk":7538,"gement":7539,"weight":7540,"mstar":7541,"GG":7542,"Ġembeddings":7543,"quasi":7544,"Ġcompleteness":7545,"ider":7546,"lll":7547,"Ġchemical":7548,"{}{":7549,")=(\\":7550,"ĠNP":7551,"ĊĠĠĠĠĠĠĠĠĠĠ":7552,"TP":7553,"]^-":7554,"ĠState":7555,"Ġreverse":7556,"Ġconsecutive":7557,"Ġsignature":7558,"Ġalign":7559,"control":7560,"Max":7561,"Ġrelies":7562,"nots":7563,"providecommand":7564,"Ġindependence":7565,"]}(":7566,"Ġvon":7567,"Ġcorrelated":7568,"verage":7569,"gingroup":7570,"begingroup":7571,"ville":7572,"Ġrestrictions":7573,"Ġseem":7574,"}=-":7575,"mass":7576,"Ġelse":7577,"]&":7578,"Ġdisco":7579,"Ġclin":7580,"endgroup":7581,"\\}}\\":7582,"Ġseman":7583,"mate":7584,"}\\}":7585,"ĠCondition":7586,"Ġdim":7587,"Ġwindow":7588,"ĠLu":7589,"Ġintersects":7590,"ĠĠĠĠĠĠĠĠĠĠĠĠĠ":7591,"Ġdecoherence":7592,"physi":7593,"dl":7594,"}=(\\":7595,"Ġformally":7596,"nergy":7597,"ĠLaplace":7598,"ML":7599,"Ġconvention":7600,"Ġspread":7601,"Ġcombinations":7602,"ĠProper":7603,"âĢĶ":7604,"=|":7605,"ĠĠĠĠĠĠĠĠĠĠĠĠĠĠĠ":7606,"ĠEqs":7607,"ifur":7608,"pects":7609,"tuple":7610,"wave":7611,"Ġobtaining":7612,"Ġhistory":7613,"rg":7614,"Script":7615,"ae":7616,"fol":7617,"els":7618,"scheme":7619,"Ġmeasuring":7620,"Ġminor":7621,"Ġangular":7622,"ĠRad":7623,"Ġmacro":7624,"All":7625,")]\\":7626,"vin":7627,"iy":7628,"ĠStru":7629,".\\,":7630,"shift":7631,"phase":7632,"ĠNamely":7633,"ĠReg":7634,"BL":7635,"Ġsurely":7636,"mas":7637,"{-\\":7638,"Ġ&-":7639,"Ġri":7640,"ĠWrite":7641,"))_{":7642,"breve":7643,"Ġph":7644,"edy":7645,"Ġobservable":7646,"Ġprotocols":7647,"minipage":7648,"ciety":7649,"iss":7650,"ĠFound":7651,"ecke":7652,"Ġ|^":7653,"chool":7654,"Ġnumerically":7655,"final":7656,"}|_{":7657,"ĠSupp":7658,"apunov":7659,"asu":7660,"labor":7661,"Ġspanned":7662,"entable":7663,"ĠIII":7664,"pite":7665,"Ġsubsequent":7666,"abi":7667,"Ġhypersurface":7668,"sided":7669,"fs":7670,"Ġconcludes":7671,"Ġrequirements":7672,"Ġresidue":7673,"Ġmechanisms":7674,"Ġwriting":7675,"midt":7676,"irth":7677,"entific":7678,"Ġinvariance":7679,"1997":7680,"Ġinitially":7681,"raise":7682,"Ġpriv":7683,"Ġeffectively":7684,"ĠKo":7685,"1007":7686,"hips":7687,"Ġpullback":7688,"ĠBoolean":7689,"^-(":7690,"Ġobservables":7691,"Ġgreen":7692,"Ġcau":7693,"Ġinterface":7694,"cknowled":7695,"New":7696,"hic":7697,"Ġlengths":7698,"}'\\":7699,"pole":7700,"ĠInteg":7701,"vy":7702,"Ġincomp":7703,"Ġdru":7704,"Ġ(.":7705,"acts":7706,"ĠSp":7707,"ĠImp":7708,"Ġcovered":7709,"ĠPauli":7710,"mom":7711,"'}{":7712,"Ġargue":7713,"Ġmixture":7714,"Ġproperly":7715,"Ġissues":7716,"|^\\":7717,"Ġreser":7718,"ender":7719,"Ġ|}\\":7720,"Ġpresents":7721,"Ġneighbors":7722,"}}^{-":7723,"Ġnoting":7724,"Ġreturns":7725,"ĠĠĠĊ":7726,"Ġadaptive":7727,"Ġwall":7728,"Ġdominated":7729,"ĠCM":7730,"Ġvisco":7731,"112":7732,"Ġlaws":7733,"series":7734,"Ġscience":7735,"ĠEar":7736,"dients":7737,"Ġdescent":7738,"Ġinvolve":7739,"implies":7740,"Ġcausal":7741,"Ġtravel":7742,"ues":7743,"||_{":7744,"Ġtwisted":7745,"otopic":7746,"ĊĊĉ":7747,"itive":7748,"Ġtwice":7749,"liminary":7750,"rich":7751,"Ġoutputs":7752,"respectively":7753,"Out":7754,"Den":7755,"Ġsket":7756,"However":7757,"Ġrelaxation":7758,"ĠEngineering":7759,"}^*\\":7760,")})\\":7761,"Quantum":7762,"convergence":7763,"solution":7764,"Cal":7765,"Ġarrive":7766,"Ġ\\{(":7767,"sb":7768,"Ġsoftware":7769,"Ġreconstruction":7770,"Ġdiffeomorphism":7771,"{(-":7772,"Ġproportion":7773,"ĠDirac":7774,":{\\":7775,"mage":7776,"sd":7777,"simal":7778,"rex":7779,"Ġresis":7780,"ĠDiscrete":7781,"igner":7782,"Ġuna":7783,"}''":7784,"bro":7785,"Ġnice":7786,"Gu":7787,"}{$":7788,"abor":7789,"Ġtail":7790,"Ġvalued":7791,"Ġcm":7792,"band":7793,"coded":7794,"SR":7795,"Ġday":7796,"rl":7797,"imo":7798,"differential":7799,"Ġmirr":7800,"Ġboundaries":7801,"TL":7802,"unit":7803,"ĠSubsection":7804,"Ġfourth":7805,"Ġconstructions":7806,"cou":7807,"Ġletting":7808,"Ġspecifically":7809,"Ġdivisible":7810,"Ġglob":7811,"Ġflexi":7812,"ku":7813,"}+(":7814,"constant":7815,"Ġ29":7816,"preserving":7817,"ĠSubs":7818,"Ã¡":7819,"Rec":7820,"GP":7821,"ĠVol":7822,"dinger":7823,"ĠGraph":7824,"\\})":7825,"Ġaugm":7826,"Ġrecursive":7827,"Ġdou":7828,"asso":7829,"ĠFrobenius":7830,"DC":7831,"Ġlowest":7832,"Ġwish":7833,"ĉĉĉ":7834,"Ġtriangular":7835,"Ġdetermining":7836,"boundary":7837,"avy":7838,"Sta":7839,"Ġpreparation":7840,"Ġfibre":7841,"ĠBased":7842,"ĠPub":7843,"uristic":7844,"Ġ{(":7845,"Ġfine":7846,"wap":7847,":\\,":7848,"Ġendpoints":7849,"theory":7850,"111":7851,"Ġweaker":7852,"_+(":7853,")\\|^":7854,"Ġ90":7855,"conf":7856,"Ġbuilt":7857,".]":7858,"Ġversions":7859,"Ġchildren":7860,"cited":7861,"lag":7862,"Ġforcing":7863,"rope":7864,"Ġlattices":7865,"Ġconstructing":7866,"Ġcube":7867,"FC":7868,"Ġspl":7869,"insic":7870,"Ġdot":7871,"Ġdra":7872,"Ġsl":7873,"istent":7874,"}_*":7875,"{+":7876,"tein":7877,"bp":7878,"Ġresonance":7879,"\\}^":7880,"Ġcompactness":7881,"ĠConversely":7882,"vival":7883,"Ġaspects":7884,"Ġeffor":7885,"Ġorganized":7886,"Ġstarts":7887,"Ġallocation":7888,"ĠĊĠĠĠĠĠ":7889,"EG":7890,"Ġcreated":7891,"Ġfall":7892,"ĠDec":7893,"Ġmonit":7894,"ĠGa":7895,"Ġconsideration":7896,").}":7897,"Ġmonotonicity":7898,"Ġcolors":7899,"Ġestimating":7900,"Ġoccup":7901,"Ġanalys":7902,"rup":7903,"cO":7904,"(\\|":7905,"Ġterminal":7906,"Ġplus":7907,"ives":7908,"lam":7909,"BR":7910,"Ġtele":7911,"Hy":7912,"Ġidemp":7913,"KK":7914,"Ġpulses":7915,"minimal":7916,"ymmetry":7917,"existence":7918,"atern":7919,"Ġtoric":7920,"Ġtruth":7921,"1996":7922,"kh":7923,"}})$.":7924,"Ġmatro":7925,"ĠSha":7926,"Ġsuggested":7927,"ppings":7928,"Ġ\\\\\\":7929,"lone":7930,"ĠAb":7931,"ĠInternational":7932,"VV":7933,"Ġcommonly":7934,"gi":7935,"_*$":7936,"artz":7937,"ĠAdditionally":7938,"Ġanalytical":7939,"Ġparametric":7940,"Ġextract":7941,"ĠExt":7942,"Ġspecify":7943,"Ġ),":7944,"Ġdominant":7945,"sue":7946,"Ġ95":7947,"^{'":7948,"Ġreasons":7949,"Ġtrig":7950,"exact":7951,"uu":7952,"evertheless":7953,"BG":7954,"EuScript":7955,"ĠInformation":7956,"Ġeventually":7957,"portation":7958,"Ġlack":7959,"$-$":7960,"vspace":7961,"Ġtitle":7962,"Ġcap":7963,"'|":7964,"Ġsecurity":7965,"Ġmanip":7966,"ĊĠĠĠĠĠĠĠĠĠĠĠĠ":7967,"Ġexceed":7968,"ĠKey":7969,"ĠPart":7970,"Ġendowed":7971,"Ġ36":7972,"Ġgauge":7973,"Dec":7974,"],[":7975,"Ġobviously":7976,"Ġtechnology":7977,"And":7978,"arabic":7979,"http":7980,"Ġperspective":7981,"ola":7982,"Ġusers":7983,"ander":7984,"include":7985,"OD":7986,"Ġcommute":7987,"ners":7988,"Ġadjust":7989,"ĠTho":7990,">[":7991,"))^{":7992,"uss":7993,"Ġarrange":7994,"Ġstor":7995,"bundle":7996,"Ġ37":7997,"EL":7998,"Ġexhibit":7999,"dynamic":8000,"gend":8001,"bt":8002,"Ġintroducing":8003,")$]":8004,"Ġ34":8005,"Ġphases":8006,"})|":8007,"ĠGerman":8008,"Ġcause":8009,"Ġvs":8010,"Fe":8011,"Ġregularization":8012,"ashed":8013,"ĠEs":8014,"Ġexamine":8015,"Ġisometric":8016,"}${\\":8017,"shape":8018,")]$":8019,"){$":8020,"hable":8021,"variable":8022,"rev":8023,"Ġpurely":8024,"Ġinfe":8025,"boxtimes":8026,"Ġaf":8027,"ifications":8028,"seteq":8029,"Ġrota":8030,"Ġdegener":8031,"imath":8032,"tail":8033,"ographic":8034,"urn":8035,"ibration":8036,"Ġtransmit":8037,"image":8038,"Ġfile":8039,"Ġvariations":8040,"uer":8041,"Ġmolecular":8042,"Ġpredict":8043,"ĠCR":8044,"using":8045,"similar":8046,"BD":8047,"ĉĉĉĉĉĉĉĉ":8048,"Ġĉ":8049,"ĠCN":8050,"Ġworst":8051,"}\\!\\":8052,"tunately":8053,"ĠJordan":8054,"isenberg":8055,"Ġbranching":8056,"ode":8057,"Ġaxioms":8058,"Ġacqu":8059,"Â°":8060,"Ã¼":8061,"},\\,":8062,"Two":8063,"]]":8064,"Ġdrawn":8065,"stro":8066,"ĠSur":8067,"Ġdevoted":8068,"nti":8069,"PC":8070,"warz":8071,"Ġspanning":8072,"Ġfailure":8073,"ĠInstead":8074,"Ġreducing":8075,"Ġdesc":8076,"Ġcomposed":8077,"iner":8078,"UR":8079,"Ġlooking":8080,"tel":8081,"}_{\\{":8082,")/(":8083,"Ġpreceding":8084,"Ġquick":8085,"decreasing":8086,"asymp":8087,"Ġmodify":8088,"Ġboundedness":8089,"Ġsummary":8090,"Ġconsequently":8091,"ĠGauss":8092,"Ġ|{\\":8093,"versal":8094,"core":8095,"ĠĠĠĠĠĠĠĠĠĠĠĠĠĠ":8096,"Ġlocated":8097,"Ġstabilizer":8098,"ĠElect":8099,"Ġbenchmark":8100,"thetic":8101,"ynamical":8102,"Ġconcrete":8103,"supseteq":8104,"terna":8105,"semi":8106,"mathopen":8107,"neigh":8108,"Ġminimizing":8109,"+(\\":8110,"Ġmappings":8111,"ny":8112,"Ġestimators":8113,"Ġleave":8114,"GM":8115,":[":8116,"Ġcoloring":8117,"Ġnone":8118,"Ġsep":8119,"Ġreceived":8120,"Ġmartingale":8121,"Ġcompound":8122,"Ta":8123,"ressible":8124,"sho":8125,"Ġtransforms":8126,"ican":8127,"Ġshortest":8128,"ĠBio":8129,"power":8130,"Ġpurposes":8131,"Ġrepeat":8132,"ardy":8133,"Ġconvexity":8134,"Ġdivides":8135,"FA":8136,"ĊĠĠĠĠĊĠĠĠ":8137,"Ġcompleted":8138,"Mon":8139,"Ra":8140,"kets":8141,"BA":8142,"Ġeasier":8143,"Ġattack":8144,"Ġextending":8145,"Ġloops":8146,"General":8147,"urated":8148,"PA":8149,"FI":8150,"ĠLiu":8151,"iu":8152,"Ġoscillator":8153,"alt":8154,"Ġindu":8155,"Ġalternating":8156,"Ġ...,":8157,"Ġtend":8158,"vs":8159,"Ġnucle":8160,"BV":8161,"dge":8162,"Pol":8163,"ĠType":8164,"aleph":8165,"ĠSL":8166,"lication":8167,"ologically":8168,"Ġdetect":8169,"NE":8170,"Ġ\\;\\;":8171,"dg":8172,"ogeneity":8173,"Ġcustom":8174,"Ġattrac":8175,"ticles":8176,"omp":8177,"Ġarising":8178,"lections":8179,"Ġcircles":8180,"^-$":8181,"Ġreasoning":8182,"Ġdifficulty":8183,"tory":8184,"ĠResults":8185,"ND":8186,"oots":8187,"Ġ31":8188,"Lu":8189,"Ġcollected":8190,"Ġconservation":8191,"ĠIm":8192,"Ġapproximated":8193,"aling":8194,"curve":8195,"protect":8196,"commutative":8197,"graphics":8198,"Ġdamp":8199,"Ġ+(":8200,"weighted":8201,"{??}}\\":8202,"ja":8203,"ĠEquations":8204,"constra":8205,"graded":8206,"120":8207,"tiveness":8208,"oder":8209,"Ġ2009":8210,"ĊĠĊĠ":8211,"compon":8212,"Ġsummation":8213,"Ġsuperposition":8214,"zen":8215,"kn":8216,"ctive":8217,"keywords":8218,"Ġprefer":8219,"Ġfluctuations":8220,"standard":8221,"Ġsubmanifold":8222,"ĠâĪĴ":8223,"Ġpolytope":8224,"taneous":8225,"trace":8226,"ĠBa":8227,"mos":8228,"ĠLog":8229,"Ġdz":8230,"Ġbifur":8231,"anal":8232,"Ġagreement":8233,"Ġhappen":8234,"KD":8235,"tier":8236,"|)":8237,"Ġunc":8238,"vention":8239,"ception":8240,"Ġremoving":8241,"Ġnothing":8242,"Ġprepared":8243,"mbridge":8244,"istency":8245,"Ġconjugacy":8246,"Ġtraditional":8247,"Ġstorage":8248,"Ġque":8249,"Ġtrade":8250,"enum":8251,"Ġ\\,.":8252,"\\{(":8253,"md":8254,"Ġkernels":8255,"\\%$":8256,"Ġrecurrence":8257,"Another":8258,"article":8259,"\";":8260,"ĠVar":8261,"Ġ#":8262,"Ġeq":8263,"kernel":8264,"integral":8265,"OO":8266,"lattice":8267,"ĠBu":8268,"Ġcongruence":8269,"Ġnearly":8270,"oli":8271,"}},{\\":8272,"Ġ\\'":8273,"ĠIEEE":8274,"Ġ\\|_":8275,"ĊĉĊĉ":8276,"Ġthought":8277,"Ġcommunity":8278,"turbed":8279,"oling":8280,"Ġpowerful":8281,"Ġgave":8282,"Ġwitness":8283,"ddot":8284,"=\\{\\":8285,"Ġglobally":8286,"Ġconsistency":8287,"iving":8288,"$},":8289,"^*)$":8290,"Ġconstrained":8291,"alan":8292,"})}$":8293,"flu":8294,"qq":8295,"includegraphics":8296,"Ġ${{\\":8297,"Ġlocalization":8298,"values":8299,"Ġprobe":8300,"}\\),":8301,"ijk":8302,"Ġsolvable":8303,"pub":8304,")\\;":8305,"Ġdays":8306,"Ġpossibilities":8307,"Ġtested":8308,"nc":8309,"Ġsupre":8310,"^*\\!":8311,")}|":8312,"Ġsubstantial":8313,"Ġoverlap":8314,"Ġknots":8315,"conver":8316,"changed":8317,"cale":8318,"Similarly":8319,"Ġenumer":8320,"Ġhybrid":8321,"[[":8322,"$]":8323,"ool":8324,"ynamics":8325,"bv":8326,"Ġconducted":8327,"Ġinfinitesimal":8328,"mplex":8329,"notation":8330,"ĠNevertheless":8331,"Ġapplicable":8332,"ĠYork":8333,"Ġreadily":8334,"igible":8335,"}[{\\":8336,"GR":8337,"ĠCarlo":8338,"Ġposet":8339,"Â±":8340,"Ġtransformed":8341,"\\|^{":8342,"Ġoptimality":8343,"ĠSing":8344,"Der":8345,"Ġbad":8346,"ĠTra":8347,"Ġlocations":8348,"})^\\":8349,"atop":8350,"Pri":8351,"Ġcontrary":8352,"_+\\":8353,"jan":8354,"!\\!":8355,"ĠContinuous":8356,"Ġ_\\":8357,"lind":8358,"Ġsus":8359,"character":8360,"uscript":8361,"Ġmonth":8362,"else":8363,"basic":8364,"rossRef":8365,"ĠGeneral":8366,"&+":8367,"Ġpotentials":8368,"ĠHealth":8369,"Ġsake":8370,"nk":8371,"Ġhull":8372,"Ġ45":8373,"}'_":8374,"Ġten":8375,",\\]":8376,"height":8377,"Ġhar":8378,"Ġdic":8379,"ducation":8380,"Ġarchitecture":8381,"gies":8382,"kel":8383,"Ġready":8384,"Ġdiscussions":8385,"ĠFind":8386,"bability":8387,"Ġsuff":8388,"Ġshared":8389,"ef":8390,"Ġener":8391,"}=-\\":8392,"XY":8393,"Ġimaging":8394,"wan":8395,"ĠHigh":8396,"related":8397,"ĠLyapunov":8398,".:":8399,"coordin":8400,"Ġversus":8401,"Ġsimplified":8402,"geometric":8403,"Ġdensities":8404,"Ġdivision":8405,"Ġformulated":8406,"Ġsubstitution":8407,"-(\\":8408,"aka":8409,"Ġtherein":8410,"LC":8411,"Ġelastic":8412,"prising":8413,"Ġ).":8414,"depth":8415,"ĠGro":8416,"mathclose":8417,"Ġviscosity":8418,"Ġexpl":8419,"Ġmodulus":8420,"Longrightarrow":8421,"Ġcollap":8422,"arest":8423,"Ġdriven":8424,"}{-":8425,"ront":8426,"}]$.":8427,"cost":8428,"Ġmonoidal":8429,"ĠâĪ":8430,")}\\,":8431,"Ġ-(":8432,"une":8433,"polar":8434,"Ġphenomena":8435,"url":8436,"Ġpopular":8437,"''\\":8438,"''.":8439,"itudes":8440,"alytic":8441,"pired":8442,"orov":8443,"gating":8444,"ĠCH":8445,".(\\":8446,"aten":8447,"ancial":8448,"}){\\":8449,"Ġmaximally":8450,";\\;\\;\\;\\":8451,"Ġengineering":8452,"Ġinduce":8453,"Ġplaces":8454,"Univer":8455,"Ġeigenvectors":8456,"lements":8457,"Ġ33":8458,"Ġ!":8459,"active":8460,"Ġint":8461,"list":8462,"string":8463,"ĠAppl":8464,"iton":8465,"+$":8466,")*":8467,"loch":8468,"Ġindexed":8469,"Ġdistinguished":8470,"ĠFoundation":8471,"|}{\\":8472,"sat":8473,"cally":8474,"Multi":8475,"}^*(":8476,"Ġunital":8477,"eller":8478,"eqno":8479,".\"":8480,"Ġidentically":8481,"}_{[":8482,"velength":8483,"}^{[":8484,"usted":8485,"posedness":8486,"elect":8487,"Sha":8488,"Ġcer":8489,"bottom":8490,"Ġ\\}$,":8491,"Ġminimize":8492,"Chen":8493,"Stokes":8494,"Ġarrows":8495,"Ġquantitative":8496,"tharpoon":8497,"Ġindust":8498,"Ġpairing":8499,"acter":8500,"Ġantic":8501,"partition":8502,"Ġmind":8503,"ston":8504,"Ġcoming":8505,"Ġdashed":8506,"nihi":8507,"Ġlatent":8508,"Ġvehic":8509,"Ġrely":8510,"Ġland":8511,"ann":8512,"Ġletter":8513,"Ġquar":8514,"Ġdisplacement":8515,"Ġcancel":8516,"Alg":8517,"Br":8518,"Ġcarbon":8519,"Sing":8520,"Ġ2008":8521,"Ġpreserve":8522,"cone":8523,"Ġdenomin":8524,"Ġexperience":8525,";{\\":8526,"enti":8527,"Ġletters":8528,"Ġenvironmental":8529,"Ġisotropic":8530,"Ġalgebraically":8531,"Ġtrain":8532,"'.":8533,"TC":8534,"Ġcaused":8535,"Ġcoarse":8536,"ĠYang":8537,"yy":8538,"rix":8539,"Ġscores":8540,"'}(\\":8541,"ĠJan":8542,"gray":8543,"Ġsor":8544,"itt":8545,"Chapter":8546,"1995":8547,"1000":8548,"Ġautomatically":8549,"Ġvariants":8550,"Ġreally":8551,"Ġacid":8552,"Ġpossess":8553,"+\\|":8554,"Ġexpo":8555,"Ġlisted":8556,"}\\).":8557,"OL":8558,"Ġcolour":8559,"rial":8560,"Ġregarded":8561,"GF":8562,"extension":8563,"dig":8564,"above":8565,")}-\\":8566,"ĠSpringer":8567,"ĠAlex":8568,"Ġnano":8569,"Some":8570,"Ġport":8571,"Ġminimizer":8572,"__":8573,"Ġclaimed":8574,"Di":8575,"Exp":8576,"978":8577,"ĠMonte":8578,"rtin":8579,"These":8580,"otic":8581,"tp":8582,"Ġhead":8583,"Ġ80":8584,"Ġacces":8585,"Ġanc":8586,"ellow":8587,"Ġcombine":8588,"Ġray":8589,"=$":8590,"uan":8591,"Mc":8592,"Ġintegrating":8593,"chen":8594,"diab":8595,"spaces":8596,"orbit":8597,"Gra":8598,"Fin":8599,"Ġinversion":8600,"Ġperforms":8601,"restriction":8602,"racle":8603,"Ġconsequences":8604,"Ġprinciples":8605,"Ġdrift":8606,"Appendix":8607,"|\\\\":8608,"ĊĠĠĊĠ":8609,"Ġnoisy":8610,"sys":8611,"lood":8612,"ĠJacobian":8613,"Ġmanuscript":8614,"onds":8615,"Ġ196":8616,"Ham":8617,"Ġconstitu":8618,"Lip":8619,"ĠPh":8620,"ERT":8621,"ĠEurope":8622,"sibility":8623,"SW":8624,"''_":8625,"Ġplots":8626,"Ġpreserved":8627,"Ġrobustness":8628,")}^{\\":8629,"Ġdiagno":8630,"eces":8631,"ĊĠĠĠĠĠĠĠĠĠĠĠĠĠ":8632,"'_\\":8633,"ws":8634,"Ġke":8635,"lease":8636,"Ġforest":8637,"ient":8638,"ponential":8639,"Ġidentifying":8640,"dfn":8641,"kj":8642,"\\\\[":8643,"Ġmutually":8644,"'}}":8645,"ĠPic":8646,"Ġcircular":8647,"Ġdefinable":8648,"Des":8649,"Ġarm":8650,"lein":8651,"PM":8652,"Ġ)}":8653,"particle":8654,"Ġreached":8655,"AE":8656,"bigvee":8657,"Ġabsence":8658,"white":8659,"groups":8660,",{":8661,"Ġassociate":8662,"}\\|_":8663,"})]":8664,"CI":8665,"zes":8666,"eg":8667,"Ġample":8668,"300":8669,"_*(\\":8670,"gates":8671,"aut":8672,"ĠAg":8673,"verb":8674,"Ġqueries":8675,"Ġinvestigation":8676,"Ġconventional":8677,"Model":8678,"}}},":8679,"ĠGr":8680,"Wang":8681,"ĠSociety":8682,"Ġtrained":8683,"ĠGroup":8684,"teo":8685,"Ġpublished":8686,"ĠAlgebra":8687,"haps":8688,"Ġformalism":8689,"gery":8690,"Ġmapped":8691,"eigen":8692,"rehen":8693,"Ġservice":8694,"mbf":8695,"Ġ$<":8696,"sey":8697,"requency":8698,"Ġgrant":8699,"\\,{\\":8700,"Ġmultivariate":8701,"when":8702,"rick":8703,"Ġdepicted":8704,"Ġterminology":8705,"}\\|^":8706,"))-":8707,"era":8708,"composable":8709,"estima":8710,"nik":8711,"Ġadvers":8712,"ĠDav":8713,"Ġdriving":8714,"Ġcomparable":8715,"Ġcomputable":8716,"green":8717,"domin":8718,"Ġpercen":8719,"going":8720,"Ġcounts":8721,"|=\\":8722,"Ġencoded":8723,"ĠChern":8724,"erc":8725,"ĠST":8726,"expan":8727,"Ġenables":8728,"Ġ\\({\\":8729,"):\\":8730,"blems":8731,"Ġrefers":8732,"induced":8733,"ĠEven":8734,"ĠMay":8735,"Ġ\\|_{\\":8736,"oration":8737,"}{$\\":8738,"ĠDynamical":8739,"monot":8740,"Ġchecked":8741,"Ġexcited":8742,"Ġbackward":8743,"Sol":8744,"uel":8745,"ĠKu":8746,"specific":8747,"sig":8748,"vor":8749,"const":8750,"Ġclinical":8751,"dri":8752,"NC":8753,"}}|\\":8754,"ĠNumber":8755,"Notice":8756,"Ġsqueezing":8757,"Ġ}^{\\":8758,"#\\":8759,"below":8760,"sgn":8761,"km":8762,"win":8763,"Ġ\\}.":8764,"FL":8765,"Ġbelieve":8766,")|$":8767,"})/":8768,"Ġattain":8769,"Ġtwist":8770,"KM":8771,"tile":8772,"Ġsampled":8773,"Ġhelpful":8774,"Ġexperimentally":8775,")\\}":8776,"Ġstrings":8777,"apan":8778,"Ġplaced":8779,"Ġ???}}{\\":8780,"NI":8781,"Ġfoliation":8782,"SV":8783,"Ġmanagement":8784,"}\\}$,":8785,"Ġanalyses":8786,"]{$":8787,"FG":8788,"Ġ:---":8789,"bgroup":8790,"Ġexponents":8791,"ury":8792,"}\\|_{\\":8793,"yp":8794,"&&&&":8795,"onically":8796,"Si":8797,"ĠObviously":8798,"deca":8799,"lass":8800,"enging":8801,"ogon":8802,"Ġappendix":8803,"fo":8804,"Ġremarks":8805,"cycles":8806,"Ġbaseline":8807,"Ġmaster":8808,"Ġintegrated":8809,"-}":8810,"Ġ?}}":8811,"Ġ}(\\":8812,"Ġintrinsic":8813,"ĠEarth":8814,"mard":8815,"ĠSy":8816,"EX":8817,"Markov":8818,"iods":8819,"Ġperturbations":8820,"etherian":8821,"ĠNetwork":8822,"ars":8823,"Ġrecomm":8824,"efficient":8825,"oulli":8826,"Ġ^\\":8827,"Ġvoltage":8828,"algo":8829,"Ġfunctionals":8830,"uples":8831,"lects":8832,"mt":8833,"Ġspectro":8834,"ĠEinstein":8835,"Ġtopic":8836,"Ġiterative":8837,"Ġquatern":8838,"Ġchallenges":8839,"bif":8840,"Ġstream":8841,"ĠTheir":8842,"Ġattract":8843,"egroup":8844,"sn":8845,"Ġtells":8846,"Ġmolecules":8847,"result":8848,"haus":8849,"}\\,.":8850,"parametric":8851,"thered":8852,"Ġbelonging":8853,":(":8854,"ĠCox":8855,"dec":8856,"ratic":8857,"frame":8858,")\\|_{\\":8859,"tivities":8860,"|+|":8861,"PG":8862,"Ġ\\|^":8863,"Ġminimization":8864,"wal":8865,"odrom":8866,"Ġcomments":8867,"Ġpotentially":8868,"ĠControl":8869,"{${\\":8870,"omics":8871,"ĠKa":8872,"Ġdetectors":8873,"Ġstatic":8874,"Ġobe":8875,"Ġheuristic":8876,"xes":8877,"}}}(\\":8878,"ĠRet":8879,"lifford":8880,"func":8881,"ĠComputer":8882,"orent":8883,"Ġdel":8884,"Ġrandomized":8885,"Ġmultiplier":8886,"ootstra":8887,"ĠAust":8888,"sson":8889,"rian":8890,"ĠMod":8891,"Wh":8892,"Ġdigraph":8893,"Ġ64":8894,"world":8895,"{??}}$":8896,"TV":8897,"Preliminaries":8898,"KP":8899,"Ġ48":8900,"Ġsil":8901,"ĉĊ":8902,"$.\\":8903,"1994":8904,"|<\\":8905,"'},":8906,"Ġdividing":8907,"stability":8908,"Ġsemisimple":8909,"Tor":8910,"nmid":8911,"ĠĠĊĠ":8912,"Ġstopping":8913,"=\\,":8914,"actor":8915,"natural":8916,"Bra":8917,"lege":8918,"td":8919,"pose":8920,"Ġrigor":8921,"Ġrescal":8922,"Ġtuple":8923,"Ġ&:=":8924,"Ġ$$(":8925,"Ġconfirm":8926,",...":8927,"ĠApplied":8928,"Ġ&+\\":8929,"ested":8930,"Ġprocedures":8931,"ĠCartan":8932,"XX":8933,"Ġimplication":8934,"itch":8935,"Ġbirational":8936,"jectivity":8937,"Ġ42":8938,"Ġspeaking":8939,"nice":8940,"Ġingre":8941,"Ġ2007":8942,"Cat":8943,"Ġprofiles":8944,"ective":8945,"secting":8946,"rn":8947,"perimental":8948,"ĠMC":8949,"Ġsound":8950,"Ġprogress":8951,"titive":8952,"ĠHeisenberg":8953,")~":8954,"calc":8955,"Ġinterfer":8956,"HM":8957,"Ġcontribute":8958,"shed":8959,"algorithmic":8960,"}\\{\\":8961,"Ġpanel":8962,"ĠEng":8963,"nual":8964,"possi":8965,"Ġcardinal":8966,"addle":8967,"LA":8968,"Ġsplits":8969,"Mor":8970,"ymptotic":8971,"Ġsensitive":8972,"Pe":8973,"Ġ2000":8974,"Ġvor":8975,"Ġmotivated":8976,"Ġsynchron":8977,"dV":8978,"ube":8979,"Ġ.$$":8980,"Ġsubcategory":8981,"ĠSoc":8982,"theoretic":8983,"))\\\\":8984,"Ġconjugation":8985,"Ġsubdiv":8986,"1103":8987,"terex":8988,"expand":8989,")\\}_{":8990,"Ġsupremum":8991,"ux":8992,"Ġconsumption":8993,"Ġmet":8994,"tharpoonup":8995,"ange":8996,"aftergroup":8997,"mor":8998,"Ġ\\,,":8999,"Ġbracket":9000,"hind":9001,"FM":9002,"ĠISB":9003,"Graph":9004,"orentz":9005,"essian":9006,"rane":9007,"Ġlot":9008,"Ġwalks":9009,"ĠIntroduction":9010,"Ġguaranteed":9011,"Ġconsiderations":9012,",,":9013,"Ġconcerned":9014,"Ġsomething":9015,"$|\\":9016,"cH":9017,"Ġcos":9018,"Ġannihi":9019,"approximation":9020,"Gre":9021,"Ġliqu":9022,"cord":9023,"Ġexterior":9024,"Ġmirror":9025,"Ġattached":9026,"ĠLabor":9027,"=.":9028,"Ġsomewhat":9029,"Ġvalidity":9030,"!}\\":9031,"Ġfindings":9032,"<-":9033,"alanced":9034,"Ġaffected":9035,"Ġimplications":9036,"ĠCenter":9037,"What":9038,"}^{+\\":9039,"fortunately":9040,"CV":9041,"ĠLin":9042,"asc":9043,"ense":9044,"cM":9045,"ĠHecke":9046,"Ġjournal":9047,"Ġrooted":9048,"Ġexcitation":9049,"zer":9050,"fun":9051,"dp":9052,"meth":9053,"ĠISBN":9054,"Furthermore":9055,"Ġstore":9056,"^*_{\\":9057,"relation":9058,"ock":9059,"Define":9060,"Lin":9061,"trie":9062,">]":9063,"Ġdecompositions":9064,"jj":9065,"QC":9066,"'})":9067,"Ġdark":9068,"disc":9069,"toff":9070,"lish":9071,"Ġpolygon":9072,"Sc":9073,"Ġsimplest":9074,"icz":9075,"ivari":9076,"ordered":9077,"125":9078,"}\\}\\":9079,"Ġmm":9080,"Ġclar":9081,"Ġkin":9082,"ĠCA":9083,"Vol":9084,"Ġindecomposable":9085,"Ġswitching":9086,"Ġ=&\\":9087,"Ġ$\\{(":9088,"Ġenable":9089,"Ġtrop":9090,"ĠPO":9091,"Ġbath":9092,"cope":9093,"Ġscre":9094,"Norm":9095,"ream":9096,")))":9097,"dcds":9098,"conjecture":9099,"ĠAut":9100,"pass":9101,"Ġdiscretization":9102,"xic":9103,"IEEE":9104,"cF":9105,"}(|":9106,"Ġprograms":9107,"Reg":9108,"originalright":9109,"originalleft":9110,"ilde":9111,"}}:":9112,"ĠMethods":9113,"~~~":9114,"arning":9115,"pation":9116,"mix":9117,"Ġassociative":9118,"beq":9119,"ĠBen":9120,"ĠStates":9121,"ĠCohen":9122,"$~":9123,"isotropic":9124,"UC":9125,"sample":9126,"Ġclique":9127,"Ġindicator":9128,"timization":9129,"Ġamounts":9130,"Ġ%":9131,"Ġchallenging":9132,"Ġ$${\\":9133,"Ġsolar":9134,"-\\!":9135,"null":9136,"Ġdeci":9137,"cknowledge":9138,")|=":9139,"}-{\\":9140,"rehensive":9141,"braket":9142,"results":9143,"Ġsimplex":9144,"cov":9145,"Ġadiab":9146,"uzzy":9147,"ĠOnce":9148,"oidal":9149,"ĠCalc":9150,"varkappa":9151,"Ġthings":9152,"\"]":9153,"NT":9154,"Ba":9155,"Ġions":9156,"Ġcones":9157,"Ġlying":9158,"Ġpayoff":9159,"Str":9160,"uni":9161,"roxima":9162,"Ġpatient":9163,"Ġconclusions":9164,"tre":9165,"Bi":9166,"hao":9167,"Ġassociation":9168,"hr":9169,"short":9170,"variety":9171,":=\\{":9172,"equivalent":9173,"Ġshifts":9174,"ancy":9175,"fixed":9176,"diagram":9177,"ĊĉĠ":9178,"Ġsubf":9179,"{,":9180,"Ġwavelength":9181,"scopy":9182,"}$),":9183,"Ġoccurrence":9184,"')$,":9185,"DT":9186,"Ġled":9187,"{\\'":9188,"ĠIV":9189,"rrbracket":9190,"))(":9191,"llbracket":9192,"junction":9193,"^{*}\\":9194,"leton":9195,"Ġrewritten":9196,"ĠStar":9197,"Ġbus":9198,"terexample":9199,"lbrack":9200,"\\}.$$":9201,"ĠShe":9202,"ana":9203,"Ġdiscriminant":9204,"Ġprescri":9205,"Ġcomplementary":9206,"Ġranges":9207,"},...,":9208,"Ġdr":9209,"Ġabsorption":9210,"ders":9211,"condu":9212,"ĠCambridge":9213,"{~":9214,"Ġcompac":9215,"Ġbos":9216,"Ġmill":9217,"Ġ=(":9218,"ĠEcon":9219,"Ġconcaten":9220,"ĠPlan":9221,"iness":9222,"while":9223,"ĠNat":9224,"RP":9225,"ĠLinear":9226,"ivariate":9227,"rey":9228,"ances":9229,"Ã¤":9230,"ading":9231,"Ġtruncated":9232,"Before":9233,"GD":9234,"Ġgamma":9235,"400":9236,"Ġ|}":9237,"loso":9238,"MI":9239,"equivalence":9240,"$(\\":9241,"erent":9242,"@{}":9243,"Ġpreliminary":9244,"Ġslice":9245,"Ġ\\((":9246,"cellcolor":9247,"Ġformulate":9248,"ĠSchool":9249,"ĠSti":9250,"Ġinstr":9251,"Ġbehind":9252,"Ġneur":9253,"Ġcurrently":9254,"Ġresistance":9255,"ĠJohn":9256,"relax":9257,"sequence":9258,"Ġ1000":9259,"DBLP":9260,"Ġcompactly":9261,"ĠWal":9262,"ians":9263,"Ġcorner":9264,"ester":9265,"ĠVe":9266,"Ġfront":9267,"Ġlabelled":9268,"Ġ([":9269,"}}}_":9270,"ĠJa":9271,"Ġdoing":9272,"ĠPet":9273,"Ho":9274,"ĠNash":9275,"marginnote":9276,"Ġstatus":9277,"))}\\":9278,"Ġheavy":9279,"{\\|":9280,"HC":9281,"eder":9282,"Ġbis":9283,"Ġhope":9284,"responding":9285,"Ġperiods":9286,"Ġendpoint":9287,"Ġfinancial":9288,"Ġsequel":9289,"ĠWigner":9290,"vrule":9291,"Ġflip":9292,"ĠHardy":9293,"divis":9294,"erre":9295,"ĠUse":9296,"Ġquadrature":9297,"Ġfinds":9298,"BE":9299,"polynomial":9300,"vitation":9301,"While":9302,"last":9303,"pack":9304,"ĠThroughout":9305,"ĠJacobi":9306,"Ġrefinement":9307,"ĠTime":9308,"tures":9309,"Ġplate":9310,"traction":9311,"Ġhole":9312,"distance":9313,"imit":9314,"}]$,":9315,"ĠCur":9316,"nx":9317,"current":9318,"Ġequally":9319,"aki":9320,"Ġ2021":9321,")}}{\\":9322,"sw":9323,"zc":9324,"hh":9325,"Ġtom":9326,"Ġformulae":9327,"Ġcircum":9328,"Ġsuccessful":9329,"Ġunlike":9330,"coherent":9331,")$\\":9332,"Ġoracle":9333,"increasing":9334,"Ġoutper":9335,"ĠWork":9336,"Ġsummarize":9337,"tem":9338,"Zhang":9339,"\\}\\\\":9340,"Ġachieves":9341,"ĠTop":9342,"/(\\":9343,"Ġparagraph":9344,"HD":9345,"Ġ|{":9346,"ĠBefore":9347,"RL":9348,"ĠHan":9349,")&=&":9350,"Ġverification":9351,"tios":9352,"Ġduration":9353,"loss":9354,"ĠSU":9355,"++":9356,"Ġbinomial":9357,"Ġbiological":9358,"nb":9359,"ĠMu":9360,"biased":9361,"Ġdevelo":9362,"ellip":9363,"hanks":9364,"ĠMater":9365,"}})$,":9366,"mathp":9367,"ramified":9368,"Ġsketch":9369,"Ġentirely":9370,"aker":9371,"tb":9372,")\\]":9373,"rightharpoonup":9374,"Ġintersections":9375,"Ġdecompose":9376,"iro":9377,"eb":9378,"Ġroughly":9379,"cA":9380,"Ġhomomorphisms":9381,"ĠTran":9382,"ometer":9383,"'/":9384,"]-":9385,"')=":9386,"lg":9387,"kg":9388,"discrete":9389,"Ġprefix":9390,"ĊĠĠĠĠĠĠĠĠĠĠĠĠĠĠĠĠĠĠĠ":9391,"NF":9392,"Ġ99":9393,"Ġplanes":9394,"ĠSections":9395,"^-_":9396,"Ber":9397,"+\\!":9398,"Ġsupports":9399,"BH":9400,"Ġaxi":9401,"tify":9402,"\\,}":9403,")\\|_":9404,"Ġbranches":9405,"representation":9406,"ardi":9407,"BT":9408,"{-}\\":9409,"lexive":9410,"three":9411,"Ġtriangulation":9412,"ĠNavier":9413,"MF":9414,"eu":9415,"Ġsmoothing":9416,"SH":9417,"odinger":9418,"})\\,":9419,"Ġreward":9420,"Ko":9421,"Ġmedian":9422,"ĠEnergy":9423,"Ġeconomic":9424,"1993":9425,"Ġ(|":9426,"lined":9427,"density":9428,"Ġsw":9429,"Ġrep":9430,"Ġnegl":9431,"Ġchallenge":9432,"ĠOver":9433,"Ġexplanation":9434,"Ġlifting":9435,"dm":9436,"GE":9437,"Ġfract":9438,"Ġrelationships":9439,"Do":9440,"ĠAssuming":9441,")$).":9442,"Ġcovari":9443,"Ġzeta":9444,"Ġadvantages":9445,"Ġsurvival":9446,"])\\":9447,"entioned":9448,"Ġpackage":9449,"Ġordinal":9450,"Ġsure":9451,"Ġimmersion":9452,"Anal":9453,"Ġpieces":9454,"Ġconsiders":9455,"Ġ2006":9456,"ĠMA":9457,"setlength":9458,"Ġsignificance":9459,"});":9460,"'}$.":9461,"Ġbul":9462,"etale":9463,"Ġtis":9464,"ĠMean":9465,"noalign":9466,"gp":9467,"Ġnan":9468,"card":9469,"continuity":9470,"kt":9471,"ouville":9472,"Ġspheres":9473,"ĠMic":9474,"double":9475,"spin":9476,"later":9477,"Ġsimulate":9478,"ĠApplications":9479,"subsetneq":9480,"ĠStr":9481,"trical":9482,"Ġhypergraph":9483,"Ġcomputes":9484,"}-(":9485,"uff":9486,"Data":9487,"Ġfirm":9488,"Ġ)$.":9489,"Ġexpansions":9490,"Ġgroupoid":9491,",*":9492,"Che":9493,"OPT":9494,"Ins":9495,"Ġmotivation":9496,"Ġbur":9497,"ĠAmerican":9498,")>\\":9499,"Ġdeli":9500,"illia":9501,"Ġrecalling":9502,"Ġaccomp":9503,"longmapsto":9504,"textwidth":9505,"nals":9506,"lug":9507,"iao":9508,"Ġgrading":9509,"processing":9510,"ĠGermany":9511,"mistry":9512,"Ġwhence":9513,"bedding":9514,"vation":9515,"Ġnearest":9516,"Ġlimitations":9517,"ĠSc":9518,"smallsetminus":9519,"Ġspir":9520,"ariski":9521,"input":9522,"vices":9523,"rc":9524,"-$\\":9525,"Ġmessage":9526,"triangleq":9527,"Ġ38":9528,"-.":9529,".(":9530,"Ġsymmetries":9531,"}|$":9532,"Ġsmoothness":9533,"torsion":9534,"^+}":9535,"ĠGen":9536,"echan":9537,"Ġsensor":9538,"gt":9539,"Log":9540,"Ġdoesn":9541,"Ġcolored":9542,"ĠĊĠĊ":9543,"Ġenergies":9544,"orenstein":9545,"Ġflag":9546,"generic":9547,"ĠStra":9548,"ĠPy":9549,"Ġplasma":9550,"Cho":9551,"unique":9552,"lands":9553,".}}":9554,"$.)":9555,"initial":9556,"Ġhttp":9557,"Ġinhib":9558,"onom":9559,"Ġbid":9560,"Ġviolation":9561,"bling":9562,"umin":9563,"{?":9564,"Ġclock":9565,"Ġvalidation":9566,"Ġfusion":9567,"PL":9568,"coro":9569,"Ġmonomials":9570,"cC":9571,"|+\\":9572,"wood":9573,"ĠLike":9574,"iteness":9575,"Ġthereby":9576,"Ġsemantics":9577,"decomposition":9578,"Ġapparent":9579,"Ġestablishes":9580,"Ġreci":9581,"Key":9582,"sov":9583,"}&=":9584,"Ġpolym":9585,"bn":9586,"0001":9587,"Ġlanguages":9588,"}}}_{":9589,"^{*}(":9590,"Ġoverview":9591,"tails":9592,"DI":9593,"ĠHo":9594,"irected":9595,"Ġparticipants":9596,"Ġperson":9597,"Ġsystematic":9598,"etal":9599,"squ":9600,"ĠDel":9601,"structions":9602,"Time":9603,"Ġsurprising":9604,"Ġalphabet":9605,"ĠStructure":9606,"simp":9607,"Red":9608,"PO":9609,"_{_{":9610,"itro":9611,"ĠFlo":9612,"Ġchanged":9613,"ĠJapan":9614,"|_\\":9615,"Ġseed":9616,"Ġadop":9617,"rea":9618,"]}{":9619,"Ġdrug":9620,"bow":9621,"Ġ??}":9622,"Ġ70":9623,"Ġequalities":9624,"thon":9625,"Ġintuition":9626,"Ġtoler":9627,"component":9628,"002":9629,"Ġrealistic":9630,"Ġframes":9631,"Ġclassified":9632,"Ġtrial":9633,"Ġtrack":9634,"Ġbrain":9635,"Ġmodern":9636,"Ġsquared":9637,"Ġ???}${\\":9638,"Ġthermod":9639,"Ġstatistic":9640,"\\)-":9641,"Div":9642,"Ġstored":9643,"ĠSystem":9644,"Ġ\\).":9645,"ĠBound":9646,"cape":9647,"Ġcloser":9648,"Ġextremely":9649,"hev":9650,"ĠUniversit":9651,"Why":9652,"TA":9653,"ME":9654,"Ġpole":9655,"Ġdro":9656,"triangler":9657,"aw":9658,"Ġgrows":9659,"Ġdecomposed":9660,"alignat":9661,"Ġuniverse":9662,"itor":9663,"tivistic":9664,"sest":9665,"Ġautomaton":9666,"Ġliquid":9667,"Ġpopulations":9668,"Ġtum":9669,"```":9670,"ĠFr":9671,"tility":9672,"($":9673,"Ġpenalty":9674,"rrrr":9675,"180":9676,"pothesis":9677,"Ġjoin":9678,"voir":9679,"Ġengine":9680,"gathered":9681,"FH":9682,"Ġcalculating":9683,"Ġgeneralizes":9684,"Ġkinetic":9685,"Har":9686,"Ġcorrectly":9687,"Ġlabor":9688,"Ġimplying":9689,"DL":9690,"GA":9691,"hiloso":9692,"conne":9693,"}}\\)":9694,"Ġcountries":9695,"ĠPla":9696,"ĠLorentz":9697,"Ġ47":9698,"Ġresp":9699,"Ġcovariates":9700,"105":9701,"Ġnega":9702,"servative":9703,"Ġsort":9704,"planes":9705,"count":9706,"^-\\":9707,"equal":9708,"Ġjumps":9709,"infinite":9710,"adap":9711,"maximal":9712,"Lipschitz":9713,"Ġfund":9714,"Ġplat":9715,"}}$\\":9716,"Ġthemselves":9717,"hler":9718,"ĠBur":9719,"ĠPR":9720,"Ġquotients":9721,"Ġsending":9722,"Problem":9723,"Ġboxes":9724,"[$(":9725,"Ġ:\\":9726,"}}/":9727,"ĠClifford":9728,"Ġadopt":9729,"Ġ\\},":9730,"Ġwind":9731,"illing":9732,")}]{":9733,"^+_{":9734,"iesz":9735,"Ġinduc":9736,"Ġratios":9737,"ĠÃ":9738,"erenti":9739,"Na":9740,"Ġ)^":9741,"root":9742,"Ġrecord":9743,"enable":9744,"parse":9745,"idates":9746,"Gaussian":9747,"Ġadiabatic":9748,"Ġrou":9749,"ogonality":9750,"ibbs":9751,"NL":9752,"rays":9753,"chor":9754,"Ġexplored":9755,"}.)":9756,"Ġindicating":9757,"rror":9758,"\\/}":9759,"\\(":9760,"Ġextent":9761,"cz":9762,"Ġclimate":9763,"Ġhel":9764,"ske":9765,"hor":9766,"ye":9767,"ĠStatistics":9768,"cv":9769,"^+,":9770,"}$.}":9771,"Ġvaries":9772,"ĠSchur":9773,"Ġferm":9774,"Ġcompr":9775,"Ġ75":9776,"ĠBS":9777,"Ġ46":9778,"noise":9779,"Ġpoles":9780,"hael":9781,"mith":9782,"Ġgeodesics":9783,"Second":9784,"Ġcusp":9785,"ashion":9786,"Ġweb":9787,"Ġisome":9788,"cessed":9789,"Ġconnectivity":9790,"antor":9791,"Ġretrie":9792,"Ġdeviations":9793,"ito":9794,"Ġrays":9795,"Ġ}.":9796,"venue":9797,"stron":9798,"Ġtropical":9799,"Ġsummarized":9800,"ĠProperty":9801,"Ġconcave":9802,"Ġaspect":9803,",\\,\\,":9804,"Med":9805,"propto":9806,"+\\|\\":9807,"128":9808,"Ġcouple":9809,"Ġquickly":9810,"sump":9811,"Ġprojector":9812,"}};":9813,"}}\\|":9814,"Ġcompression":9815,"Ġrich":9816,"analytic":9817,"atell":9818,"})-(\\":9819,"ĠRecently":9820,"Ġdealing":9821,"Ġlearned":9822,"ionic":9823,"Ġmethodology":9824,"GW":9825,"Ġendomorphism":9826,"bru":9827,"Ġagg":9828,"tens":9829,"Ġdamping":9830,"Local":9831,"Rep":9832,"ĠGP":9833,",|":9834,"Ġdisks":9835,"rcl":9836,")\\|\\":9837,"triangleright":9838,"Ġ}_":9839,"Ġelectromagnetic":9840,"Ġdist":9841,"dequ":9842,"Ġmatroid":9843,"fp":9844,"ĠSan":9845,"Ġmodeled":9846,"Ġpoor":9847,"vanishing":9848,"recall":9849,"ĠĊĉĊ":9850,"Ġjob":9851,"odromy":9852,"Ġextracted":9853,"Ġanalyzing":9854,"Prob":9855,"Ċĉĉĉĉĉ":9856,"Ġidempotent":9857,"BO":9858,"Ġpredictive":9859,"Ġhouse":9860,"(\\|\\":9861,")|_{":9862,"ccur":9863,"Ġomitted":9864,"Ku":9865,"Ġada":9866,"Ġdenominator":9867,"possibly":9868,"HE":9869,"Ġelectrons":9870,"}({":9871,"member":9872,"Ġemplo":9873,"ĠWi":9874,"Ġsigned":9875,"}.\\\\":9876,"-|\\":9877,"triangleleft":9878,"cused":9879,"Ġold":9880,"ĠDNA":9881,"Ġbifurcation":9882,"Ġ:=\\":9883,"Ġscaled":9884,"Ġur":9885,"Ġdatabase":9886,"Ġradical":9887,"Ġcontinuation":9888,"tificial":9889,"Ġmultiplying":9890,"Tilde":9891,"inkowski":9892,"Ġdigital":9893,"Ġnegligible":9894,"ĠInte":9895,"served":9896,"atellite":9897,"there":9898,"Ġ\\@":9899,"romov":9900,"rand":9901,"ingly":9902,"Ġemphasize":9903,"Ġrecovery":9904,"version":9905,")\\,.":9906,"CrossRef":9907,"1992":9908,"Ġenvironments":9909,"Ġappeared":9910,"Ġpix":9911,"syn":9912,")}{|":9913,"$\\,":9914,"Ġtensors":9915,"Ġpun":9916,"Ġcoding":9917,"Ġwar":9918,"Ġ39":9919,"ulture":9920,"Ġschool":9921,"Ax":9922,"Ġgenetic":9923,"ayley":9924,"Ġcauses":9925,"FR":9926,"Ġincidence":9927,"Ġsector":9928,"^*=":9929,"single":9930,"){$\\":9931,"Ġ65":9932,"IL":9933,"ĠYu":9934,"}+{\\":9935,"oulo":9936,"qw":9937,"Ġstarted":9938,"{.}":9939,"dund":9940,"lliptic":9941,"Ġspins":9942,"ĠEd":9943,"Ġ2005":9944,"Ġimproves":9945,"tf":9946,"llll":9947,"cities":9948,"Top":9949,"Ġfiltered":9950,"MO":9951,"ĠBol":9952,"lemm":9953,"}^+$":9954,"yz":9955,"site":9956,"tn":9957,"ĠMag":9958,"ĠProceed":9959,"Ġcrossings":9960,"Ġpromis":9961,"Ġbandwidth":9962,"property":9963,"HP":9964,"'^":9965,"ootstrap":9966,"Ġelectronic":9967,"Ġhype":9968,"Ġsigns":9969,"Ġactivation":9970,"Ġreceiver":9971,"\\:":9972,"Ġunramified":9973,"Ġdissipation":9974,"conju":9975,"Ġ53":9976,"Ġreducible":9977,"mination":9978,"ĠMost":9979,"ĠJo":9980,"some":9981,"Ġdelta":9982,"ĠSO":9983,"tm":9984,"Ġprom":9985,"Ġthesis":9986,"Man":9987,"Ġemit":9988,"wall":9989,"stab":9990,"ÃŃ":9991,"Ġ\\}_{":9992,"Ġcenters":9993,"Ġgravity":9994,"family":9995,"Ġcompatibility":9996,"Ġdeath":9997,"ping":9998,"utine":9999,"Ġcoverage":10000,"NO":10001,"\\})$":10002,"hdots":10003,"Ġ\\),":10004,"}$&":10005,"Ġobsta":10006,"{$^*$":10007,"Ġreading":10008,"ĠSto":10009,"Ġequivalences":10010,"pative":10011,"Ġmark":10012,"Ġoptimized":10013,"Ġhomeomorphic":10014,"ĠÎ¼":10015,"damard":10016,"Ġplant":10017,"Ġmic":10018,"Ġrecursion":10019,"raisebox":10020,"Ġcontradicting":10021,"Ġpositivity":10022,"ĠAcade":10023,"ĠBesides":10024,"ĠAD":10025,"Ġ500":10026,"reduction":10027,"PI":10028,"%)":10029,"Ġdecisions":10030,"Mu":10031,"olm":10032,"Ġparties":10033,"RN":10034,"ĠMethod":10035,"Ġbeams":10036,"Ġlosses":10037,"Bu":10038,"}(-\\":10039,")\\}$.":10040,"ĠLearning":10041,"Ġ$\\#":10042,"Ġquiver":10043,"ĠPDE":10044,"mechan":10045,"dw":10046,"Ġinteracting":10047,"bk":10048,"Ġacyclic":10049,"normalfont":10050,"Ġtalk":10051,"corner":10052,"Ġshifted":10053,"Pub":10054,"ĠMach":10055,"dget":10056,"bounds":10057,"_{*}":10058,"Ġadjacency":10059,"stric":10060,"ĠZariski":10061,"ĠLegend":10062,"Imp":10063,"central":10064,"Ġoscillat":10065,"Ġreaches":10066,"Ġresearchers":10067,"Ġchecking":10068,"measu":10069,"Ġbijective":10070,"ilities":10071,"Ġsubsystem":10072,"Ġ$[-":10073,"Ġovercome":10074,"Ġamplitudes":10075,"trees":10076,"ĠEuropean":10077,"hel":10078,"RM":10079,"Ġnm":10080,"ronic":10081,"MSE":10082,"pending":10083,"scalebox":10084,"Ġmild":10085,"abelian":10086,"Ġillustrates":10087,"Ġsuccessfully":10088,"entropy":10089,"Ġrecursively":10090,"Ġblood":10091,"Ġrotations":10092,"oney":10093,"mentation":10094,"tized":10095,"dable":10096,"ensive":10097,"))+":10098,"coordinate":10099,"otal":10100,"Ġtemperatures":10101,"005":10102,"Ġ43":10103,"FD":10104,"Ġmostly":10105,"ĠReview":10106,"Ġconversion":10107,"sg":10108,"Ġ&(":10109,"Ġoscillations":10110,";\\\\":10111,"only":10112,"Equation":10113,"{#":10114,"Ġconverging":10115,"Ġassemb":10116,"}\\,,":10117,"Ġnarrow":10118,"Ġlocalized":10119,"atible":10120,"Ġrelate":10121,"Ġargu":10122,"Ġoc":10123,"stage":10124,"bR":10125,"mk":10126,"^*)\\":10127,"dR":10128,"Ġevaluating":10129,"]^\\":10130,"Ġdeveloping":10131,"ĠMicro":10132,"^{*}$":10133,"Conclusion":10134,"ĠChar":10135,"[$\\":10136,"utational":10137,"Ġcontinuum":10138,"Ġoption":10139,"valid":10140,"ĠClassification":10141,"Ġparameterized":10142,"ĠBernoulli":10143,"Ġconcerns":10144,"gtr":10145,"Ġ$\\,\\":10146,"lk":10147,"arged":10148,"true":10149,"ced":10150,"ĠLP":10151,"Ġexposure":10152,"Ġinjection":10153,"ĠWu":10154,"Ġcounterexample":10155,"kr":10156,"has":10157,"uses":10158,"hoff":10159,")(-":10160,"Ġtraffic":10161,"\\,$":10162,"VI":10163,"Observe":10164,"Ġ41":10165,"Ġstages":10166,"+{":10167,"Ġiterated":10168,");\\":10169,"bigotimes":10170,"vp":10171,"Ġexpanding":10172,"DFG":10173,"take":10174,"bell":10175,"~${\\":10176,"Ġspon":10177,"_-(":10178,"ĠarXiv":10179,"Ġlifts":10180,"coh":10181,"ĠSolution":10182,"Ġmachines":10183,"Ġ011":10184,"hase":10185,"Ġmodulation":10186,"Ġfrequently":10187,"Ġ||\\":10188,"Ass":10189,"Ġuncertain":10190,"ĠLee":10191,"imes":10192,"ĠUp":10193,"ĠMechan":10194,"Ġmodifications":10195,"010":10196,"Ġ$*":10197,"orthogonal":10198,"Ġmetab":10199,"inverse":10200,"Ġdispersion":10201,"Tra":10202,"gradient":10203,"tum":10204,"EF":10205,"yc":10206,"process":10207,"atom":10208,"Ġstrain":10209,"ĠExamples":10210,"Ġyielding":10211,"Ġplotted":10212,"{*}":10213,"ĠGH":10214,"Ġprimal":10215,",&":10216,"\\,(":10217,"Ġeigenstates":10218,"Ġdetun":10219,"Ġmemb":10220,"Ġlinked":10221,"Gen":10222,"succeq":10223,"Ġeight":10224,"Ġimpose":10225,"asser":10226,"ounce":10227,"Ġinterpret":10228,"Ġaveraging":10229,"frequency":10230,"Ġupdates":10231,"water":10232,"Ġkinds":10233,"Ka":10234,"HL":10235,"Ġdistor":10236,"Ġhosp":10237,"Ġ.$":10238,"{$^?$}}":10239,"Ġrear":10240,"ibrary":10241,"lc":10242,"Ġhierarchy":10243,"Ġ.\\":10244,"Ġswitch":10245,"Ġ({":10246,"etti":10247,"Ġasymptotics":10248,"Ġassessment":10249,"ĠBloch":10250,"Ġtetra":10251,"moment":10252,"poch":10253,"CK":10254,"ĠML":10255,"cL":10256,"Ġcompens":10257,"Ġeigenfunctions":10258,"ĠGo":10259,"pheric":10260,"tatives":10261,"Ġchart":10262,"ĠEve":10263,"Ġfractions":10264,"hole":10265,"Ġattempt":10266,"ĠCV":10267,"Ġsaddle":10268,"]},":10269,"Ġcommuting":10270,"tomic":10271,"Ġscan":10272,"rot":10273,"ĠStein":10274,"ĠMac":10275,"algebraic":10276,"reduced":10277,"Ġalone":10278,"parameters":10279,"Ġclaims":10280,"Ġsemin":10281,"Ġsqueezed":10282,"Ġcommutator":10283,"Ġobserving":10284,"Ġdesigns":10285,"Ġclassifier":10286,"ressing":10287,"Ph":10288,"dif":10289,"Ġbarrier":10290,"Ġhypersurfaces":10291,"ĠĊĊĠ":10292,"ĠLaboratory":10293,"After":10294,"ĠLevi":10295,"Ġinspired":10296,"aving":10297,"gap":10298,"dense":10299,"Ġemerg":10300,"Ġfocused":10301,"Ġcoin":10302,"Ġdie":10303,",(\\":10304,"Ġmul":10305,"direction":10306,"normalsize":10307,"Ġrev":10308,"Ġcollapse":10309,"Ġfewer":10310,"ĠProf":10311,"Ġmedia":10312,"ndard":10313,"Ġautomata":10314,"Ġneutral":10315,"ĠHadamard":10316,"$^":10317,"Ġeffort":10318,"ĠODE":10319,"]$-":10320,"ĠSun":10321,"ressive":10322,"ĠPropositions":10323,"Ġsecondary":10324,"Ġguide":10325,"coloring":10326,"@{\\":10327,"Ġconduc":10328,"ĠShow":10329,"Ġoccurring":10330,"fu":10331,"CB":10332,"}).$$":10333,"ades":10334,"Cr":10335,"arial":10336,"Ġcontinued":10337,"Ġguess":10338,"Ġmultiply":10339,"ended":10340,"ĠHessian":10341,"Ġcumula":10342,"nl":10343,"Ġreservoir":10344,"Ġfashion":10345,"ĠSI":10346,"Ġrapidly":10347,"iliar":10348,"ĠWil":10349,"cot":10350,"Results":10351,"Ġbenefit":10352,"pin":10353,"ĠUnited":10354,"Ġdiffers":10355,"Ġcellular":10356,"Ġnonlinearity":10357,"filled":10358,"Ġanimal":10359,"[(\\":10360,"nr":10361,"Ġeffectiveness":10362,"=&":10363,"Jo":10364,"{}^*\\!":10365,"150":10366,"eno":10367,"uit":10368,"Ġdipole":10369,"otropy":10370,"Ġbic":10371,"Ġenhanced":10372,"MD":10373,"{-.":10374,"atively":10375,"ĠEquival":10376,"male":10377,"[-\\":10378,"\\#":10379,"Ġupdated":10380,"Ġstars":10381,"projective":10382,"$_{":10383,"ĠMorse":10384,"Ġintroduces":10385,"^*,\\":10386,"Ġreflected":10387,"Ġacceleration":10388,"}).$":10389,"Ġdv":10390,"}$\\\\":10391,"Ġmoder":10392,"]:":10393,"herent":10394,"}],":10395,"titude":10396,"zu":10397,"Ġsimultaneous":10398,"ober":10399,"Ġassumes":10400,"Ġaut":10401,"rowth":10402,"ortun":10403,")_+":10404,"UT":10405,"Ġ49":10406,"Ġfulfill":10407,"Ġmajority":10408,"spa":10409,"ĠConference":10410,"valuation":10411,"Ġ55":10412,"ĠArticle":10413,"Ġpolyg":10414,"Ġaggre":10415,"lable":10416,"Under":10417,"\\!\\!\\":10418,"Ġrecorded":10419,"bad":10420,"Ġ\\!\\":10421,"ills":10422,"')}":10423,"forming":10424,"Ġramified":10425,"normalized":10426,"|/":10427,"learning":10428,"Ġperturbed":10429,"ĠRandom":10430,"pn":10431,"Ġprevent":10432,"Ġtheta":10433,"endi":10434,"matically":10435,"Ġaveraged":10436,"ĠAR":10437,"^*_\\":10438,"cube":10439,"Ġ}^":10440,"clusions":10441,"--------":10442,"Ġ\\%":10443,"ĠSetting":10444,"Ġdenoting":10445,"ĠKim":10446,"rink":10447,"Ġsubjects":10448,"cean":10449,"KT":10450,"mmary":10451,"Ġexhibits":10452,"onomy":10453,"imod":10454,"ien":10455,"currence":10456,"Ġquantization":10457,"Ġadvanced":10458,"Ġ44":10459,"Ġsupply":10460,"Ġsubstituting":10461,"Ġinductively":10462,"Ġprobably":10463,"Ġrequiring":10464,"Ġadditionally":10465,"Ġpolicies":10466,"iances":10467,"}\\,(":10468,"Ġspecification":10469,"EA":10470,"Ġextraction":10471,"Ġpasses":10472,"Ġiniti":10473,"Ġlogarithm":10474,"Ġanalogy":10475,"Ġcomputationally":10476,"oni":10477,"Ġ/\\":10478,"Ġexecution":10479,"dam":10480,"centerline":10481,"Ã³":10482,"''}":10483,"bered":10484,"Ġprices":10485,"ctually":10486,"Ġmanu":10487,"Ġresonant":10488,"Ġrevealed":10489,"|\\!|\\!":10490,"ĠMany":10491,"^+$.":10492,"surface":10493,"\\}^{":10494,"Ġune":10495,"graphy":10496,"Ġresponses":10497,"ondon":10498,"ĠHamilton":10499,"}\\;\\":10500,"Ġmutual":10501,"RF":10502,"conditional":10503,"Ġ2004":10504,"uro":10505,"ĠKra":10506,"Ġconfir":10507,"Sel":10508,"Ġgrowing":10509,"ontinuous":10510,")\\).":10511,"cX":10512,"1991":10513,"organ":10514,"ION":10515,"subj":10516,"'ll":10517,"}&=\\":10518,"ĠHamiltonians":10519,"Ġequilibria":10520,"evy":10521,"_-$":10522,"}}[\\":10523,"Ġdeduced":10524,"ĠEstima":10525,"Ġfuzzy":10526,"ibase":10527,"functor":10528,"regularity":10529,"1990":10530,"icular":10531,"cas":10532,"Ġbirth":10533,"Ġpercentage":10534,"Ġunita":10535,"Ġhighl":10536,"Denote":10537,"But":10538,"post":10539,"Ġdecide":10540,"Ġwinning":10541,"doibase":10542,"quet":10543,"Ġcomprehensive":10544,"Ġfreely":10545,"Ġsupercondu":10546,"ĠChris":10547,"fn":10548,"Up":10549,"ffer":10550,"Ġoperating":10551,"Ġaugmented":10552,"Ġ195":10553,"210":10554,"pseudo":10555,"ĠTri":10556,"Ġmedical":10557,"also":10558,"dn":10559,"lyeq":10560,"Ġannulus":10561,"move":10562,"ĠArtin":10563,"Ġrandomness":10564,"Ġaddressed":10565,"balanced":10566,"Ġqueue":10567,"ĠFisher":10568,"ĊĉĊĉĊ":10569,"Ġ)=":10570,"correct":10571,":=(":10572,"Ġreplacement":10573,"Ġimplied":10574,"Ġperhaps":10575,"Riemann":10576,"Ġteleportation":10577,"ez":10578,"iggs":10579,"Ġsolver":10580,"Ġrepresentatives":10581,"ĊĊĠĠĠĠĠĠĠ":10582,"Ġfitting":10583,"-{":10584,"ecker":10585,"']":10586,"ech":10587,"Ġapproximating":10588,"jump":10589,"cussion":10590,"Ġiner":10591,"Ġunchanged":10592,"ĠFano":10593,"Ġdeformations":10594,"Ġlogistic":10595,"tangular":10596,"Ġparent":10597,"HF":10598,"})}(":10599,"ulating":10600,"Ġorbif":10601,"Ġcandidates":10602,"))}{":10603,"load":10604,"ĠDia":10605,"^*$}":10606,"Ġconnect":10607,"Ġinsu":10608,"Ġcreation":10609,"caula":10610,"onomous":10611,"ssmann":10612,"^*-":10613,"univer":10614,"ione":10615,"disjoint":10616,"'re":10617,"irable":10618,"atest":10619,"Lett":10620,"^+$,":10621,"Ġsynthesis":10622,"Ġcollective":10623,"Ġmonitoring":10624,"Ġextensive":10625,"([\\":10626,"Ġsubgraphs":10627,"ened":10628,"subjclass":10629,"law":10630,"Ġexploit":10631,"Ġprescribed":10632,"xu":10633,"Jaco":10634,"},{":10635,"Ġintegrate":10636,"Ġparametrized":10637,"ono":10638,"Ġconcentrations":10639,"princip":10640,"pression":10641,")!}":10642,"Ġfurthermore":10643,"lift":10644,"Linear":10645,"Ġbridge":10646,"Ġwire":10647,"Ġdifferentiation":10648,"osp":10649,")$.}":10650,"^+(\\":10651,"ĠHel":10652,"decay":10653,"Ġ~~":10654,"jectives":10655,"Ġcounterpart":10656,"uling":10657,"none":10658,"Ġseven":10659,"Ġfault":10660,"OA":10661,"dens":10662,"structures":10663,"Ġmodelling":10664,"Ġ$(-\\":10665,"Ġer":10666,"Ġmacroscopic":10667,"Ġgradients":10668,"erring":10669,"Ġ???}{":10670,"Ġactivities":10671,"{\\,":10672,"Ġagrees":10673,"ĊĠĠĠĠĠĠĠĠĠĠĠĠĠĠ":10674,"rome":10675,"Ġsurgery":10676,"Can":10677,"Ġcareful":10678,"Ġoriginally":10679,"})}.":10680,"FGH":10681,"Ġtriples":10682,"Ġmaximize":10683,"gtrsim":10684,"cS":10685,"ĠDan":10686,"hoods":10687,"ĠEff":10688,"Ġfixes":10689,"Proper":10690,"&\\\\":10691,"Ġforecast":10692,"hedra":10693,"holomorphic":10694,"Ġlabeling":10695,"Ġanalytically":10696,"Ġattained":10697,"regation":10698,"interval":10699,"Coh":10700,"wd":10701,"ĠNor":10702,"PE":10703,"You":10704,"Ġcohom":10705,"Ġfixing":10706,"Ġ)^{":10707,"Ġemer":10708,"Ġ)$,":10709,"atum":10710,"ogenous":10711,"_{[\\":10712,"yd":10713,"RW":10714,"cb":10715,"Ġquadric":10716,";\\;\\;":10717,"ĠLand":10718,"Ġhash":10719,"^{**":10720,"Ġcooling":10721,"Ġbeta":10722,"LO":10723,"Ġoverla":10724,"(.":10725,"ĠFact":10726,"ĠSubstituting":10727,"According":10728,"dence":10729,"Ġserve":10730,"Ġthickness":10731,"stationary":10732,"ĠPOVM":10733,"ĠTor":10734,"ĠÎ±":10735,"Ġ\\\\&":10736,")[\\":10737,"filter":10738,"Ġbounding":10739,"Ġcovariant":10740,"}',":10741,"ĠSpace":10742,"dox":10743,"Schwarz":10744,"Ġrealize":10745,"Ġsaturated":10746,"ua":10747,"Ġvariability":10748,"\\,^*\\!":10749,"ĠAmong":10750,"burg":10751,"Ġimposed":10752,"Ġnamed":10753,"Ġreveals":10754,"associa":10755,"Ġmonodromy":10756,"Comparison":10757,"ĠFa":10758,"rations":10759,"Ġaccurately":10760,"Ġreplic":10761,"rat":10762,"ona":10763,"@{-}[":10764,"Ġjoining":10765,"Ġarrangement":10766,"plication":10767,"vitational":10768,"plot":10769,"Ġcocycle":10770,"analysis":10771,"[]":10772,"GC":10773,"dashed":10774,"003":10775,"caulay":10776,"Ġbacter":10777,"Ġoptimize":10778,"pendicular":10779,"Ġtoward":10780,"element":10781,"}}}^{":10782,"wang":10783,"Ġsharing":10784,")),\\":10785,"Liu":10786,"Ġlinearized":10787,"HI":10788,"js":10789,"tanh":10790,"^*}\\":10791,"hability":10792,"Ġstructured":10793,"today":10794,"idefinite":10795,"Ġwomen":10796,"Tri":10797,"Ġfilters":10798,"}{{":10799,"endieck":10800,"Ġkeeping":10801,"roman":10802,"Ġanswers":10803,"oura":10804,"Ġimproving":10805,"\\,\\,":10806,"morphism":10807,"tia":10808,"Ġinher":10809,"\\}=":10810,"GK":10811,"$^{":10812,"|)\\":10813,"Ġoutline":10814,"ĠSum":10815,"Ġflexible":10816,"ĠGener":10817,"Ġfacili":10818,"Ġintersecting":10819,"canonical":10820,"Over":10821,"Ġcertainly":10822,"Ġrefined":10823,"ĠFer":10824,"apping":10825,")}}$":10826,"varvec":10827,"thendieck":10828,"==":10829,"Ġexamined":10830,"{??}}${\\":10831,"stream":10832,"velope":10833,"^{|":10834,"abric":10835,"measurable":10836,"Trans":10837,"\\},\\{":10838,"Ġ54":10839,"dir":10840,"Ġbinding":10841,"Ġisotopy":10842,"Ġgluing":10843,"fault":10844,"sia":10845,"inj":10846,"Ġclean":10847,"Ġconic":10848,"Longleftrightarrow":10849,"topes":10850,"Ġinsight":10851,"Ġtransi":10852,"lement":10853,"))^{\\":10854,"cker":10855,"Ġrotating":10856,">$":10857,"ĠNormal":10858,"}|=":10859,"HO":10860,"'')":10861,"ĠWor":10862,"phasing":10863,"Ġnegle":10864,"cluster":10865,"ĠCayley":10866,"total":10867,"Ġtrials":10868,"Ġsingleton":10869,"Ġdiscovered":10870,"Ġhex":10871,"Ġrecurrent":10872,"Ġcontroller":10873,":$":10874,"\\(\\":10875,"tanglement":10876,"Av":10877,"ĠOut":10878,"}$};":10879,"Ġambigu":10880,"imodule":10881,"sv":10882,"Ġvaluable":10883,"Ġextensively":10884,"Ben":10885,"Ġmeets":10886,",~\\":10887,"'),":10888,"Ġmetal":10889,"Ġ|(":10890,"strict":10891,"tabularnewline":10892,"ĠDavid":10893,"ibn":10894,"Algorithm":10895,"ĠCollege":10896,"),\\,":10897,"Ġfinishes":10898,"Ġminus":10899,"admissible":10900,"Ġsk":10901,"Map":10902,",\\{":10903,"chet":10904,"Ġprivate":10905,"Spin":10906,"rences":10907,"Ġancilla":10908,"Ġnondegenerate":10909,"edges":10910,"crit":10911,"Ġreflexive":10912,"%,":10913,"Ġtransversal":10914,"Ġclassify":10915,"ĠCD":10916,"ipotent":10917,"pb":10918,"Ġconjectured":10919,"ĠEnviron":10920,"Ġcollect":10921,"tated":10922,"ĠHall":10923,"Ġconv":10924,"}}}$.":10925,"026":10926,"bile":10927,"Ġsurround":10928,"igne":10929,"Ġsoon":10930,"ĠKe":10931,")&=&\\":10932,"ĠCartesian":10933,"Ġmovement":10934,"'}$,":10935,"ĠLang":10936,"satisf":10937,"ĠIden":10938,"ĠGrant":10939,"Ġgreedy":10940,"ession":10941,"Ġflo":10942,"Ġexercise":10943,"Ġcalibration":10944,"enspace":10945,"Acknowled":10946,"1989":10947,"Ġholes":10948,"Ġtan":10949,"Ġproteins":10950,"BI":10951,"Ġsynthetic":10952,"}_+$":10953,"Ġsaf":10954,"}}}^":10955,"colog":10956,"ĠGorenstein":10957,"|{":10958,"Vdash":10959,"Ġscientific":10960,"Mathema":10961,"Ġestablishing":10962,"Rem":10963,"Ġinclusions":10964,"derivative":10965,"consistent":10966,"orementioned":10967,"Ġthing":10968,"wartz":10969,"acute":10970,"cE":10971,"ĠDifferential":10972,"[$":10973,"Ġcentre":10974,"Other":10975,"ulties":10976,"Ġteach":10977,"Ġfamiliar":10978,"nf":10979,"Ġcarries":10980,"Ġadopted":10981,"Ġchamber":10982,"cavity":10983,"isomorphism":10984,"Ġtruncation":10985,"ĠId":10986,"Ġfigures":10987,"ĊĠĉ":10988,"curl":10989,"Ġ}\\,":10990,"modular":10991,"Ġcarefully":10992,"ĠBessel":10993,"ĠVan":10994,"spe":10995,"Ġbraid":10996,"Ġsafe":10997,"ducts":10998,"oresc":10999,"Ġsubdivision":11000,"ĠLagrange":11001,"ĠJu":11002,"Da":11003,"*}{\\":11004,"Ġambient":11005,"Ġillustration":11006,"Ġradio":11007,"irk":11008,"Ġwon":11009,"witz":11010,"')^":11011,"vich":11012,"Ġsuccessive":11013,"Ġaforementioned":11014,"zi":11015,"Ġdetermination":11016,"Sci":11017,"utri":11018,"Ġadapt":11019,"xz":11020,"Function":11021,"oost":11022,"Ġnested":11023,"Ġseparating":11024,":\\\\":11025,"AF":11026,"erson":11027,"Ġperfectly":11028,"iser":11029,"ĠPM":11030,"Ġcros":11031,"Tx":11032,"Ġrigorous":11033,"{\\\"":11034,"ĠCre":11035,"target":11036,"Ġvice":11037,"bius":11038,"Ġmatched":11039,"pure":11040,"bert":11041,"rance":11042,"structed":11043,"used":11044,"~\\(":11045,"ĠRetrie":11046,"mart":11047,"ĠMinkowski":11048,"categories":11049,"expandafter":11050,"Ġsemigroups":11051,"004":11052,"nicefrac":11053,"exa":11054,"cD":11055,"BW":11056,"Ġbatch":11057,"pidal":11058,"Ġâī":11059,"jp":11060,"ensen":11061,"]_\\":11062,"ani":11063,"Ġconcentrated":11064,"toprule":11065,"=&\\":11066,"missions":11067,"Ġpolarized":11068,"ĠHer":11069,"cP":11070,"Ġsubmodule":11071,"Ġversa":11072,"Ġimper":11073,"ĠBre":11074,"Ġtour":11075,"},~\\":11076,"Full":11077,")}_\\":11078,"Ġhours":11079,"elliptic":11080,"Cent":11081,"Ġasses":11082,"!(":11083,"Ġreductive":11084,"floor":11085,"dB":11086,"yu":11087,"Ġelectrical":11088,"Ġrounds":11089,"Ġconditioned":11090,"ohns":11091,"Ġtopics":11092,"|=|":11093,"Ġdiscrepan":11094,"ĠDr":11095,"Ġhistor":11096,"ournals":11097,"Val":11098,"Ġundirected":11099,"mathpzc":11100,"Ġcuts":11101,"Ġstation":11102,"ĠMartin":11103,"Ġanalogously":11104,"Ġdyadic":11105,"ĠRam":11106,"eeq":11107,"fast":11108,"cod":11109,"Ġoffer":11110,"121":11111,"*-":11112,"ĠFrance":11113,"Ġfood":11114,"ipa":11115,"Ġdisplayed":11116,"ĠStokes":11117,"Ġtrap":11118,"Ġtomography":11119,"enstein":11120,"]{$\\":11121,"Ġoperational":11122,"via":11123,"Ġasymmetric":11124,"Ġregister":11125,"Ġcoupl":11126,"Indeed":11127,"parts":11128,"mg":11129,"Ġinfection":11130,"Ġchord":11131,"reducible":11132,"Ġabund":11133,"Ġcrypto":11134,"ĠPrincip":11135,"AV":11136,"suit":11137,"Ġtopologically":11138,"Ġperpendicular":11139,"QQ":11140,"neighbor":11141,"Ġ:---:":11142,"]^-{\\":11143,"Ġtraces":11144,"Ġregardless":11145,")~\\":11146,"Go":11147,"Ġfiltering":11148,"Ġtables":11149,"104":11150,"Ġconject":11151,"twohead":11152,"ĠTur":11153,"Ġdisturb":11154,"Ġthera":11155,"Ġaims":11156,"ĠChin":11157,"ĠMaterial":11158,"Ġhorizon":11159,"Ġorthogonality":11160,"ĠCoxeter":11161,"ltimes":11162,"vphantom":11163,"](\\":11164,"ĠComputing":11165,"Ġbenefits":11166,"dent":11167,"Lag":11168,"Ġsecure":11169,"Ġconflic":11170,"crossing":11171,"Ġelimination":11172,"because":11173,"}/{\\":11174,"}}\\,\\":11175,"Ġtrend":11176,"dit":11177,"ternatively":11178,"Ġdrive":11179,"ather":11180,"Ġhomo":11181,"ĊĉĠĠĠ":11182,"Ġadaptation":11183,"tangent":11184,"ĠÐ":11185,"iller":11186,"ats":11187,"{$^?$}}\\":11188,"ifier":11189,"}|_{\\":11190,"Ġsin":11191,"Throughout":11192,"Ġsafety":11193,"Ġdifficulties":11194,"Ġ$+":11195,"-)":11196,"Ġaccessible":11197,"intersection":11198,"Ġ}}{":11199,"Ġgeometrically":11200,"Ġsatellite":11201,"Ġevident":11202,"~$(":11203,"Ġdemonstrates":11204,"arance":11205,"Ġlists":11206,"cccccccc":11207,"Ġhim":11208,"Ġgreatest":11209,"}/{":11210,"Ġcogn":11211,"Ġ\\,{\\":11212,")^+":11213,"Ġnonsingular":11214,"ahn":11215,"Ġdecreased":11216,"tibility":11217,"fraction":11218,"GT":11219,"Ġ2003":11220,"ĠMas":11221,"Ġprojects":11222,"HA":11223,"ĠFac":11224,"init":11225,"1111":11226,"Poisson":11227,"ĠLaw":11228,"properties":11229,"pgf":11230,"ĠRiesz":11231,"phys":11232,"Ġproposal":11233,"[.":11234,"Ġmeromorphic":11235,"latex":11236,"Ġopportun":11237,"122":11238,"_{_":11239,"Cs":11240,"Ġpositively":11241,"ypes":11242,"Ġneutron":11243,"Ġportion":11244,"Ġoptimum":11245,"yan":11246,"ĠTM":11247,"lema":11248,"spectral":11249,"Ġ57":11250,"Ġjobs":11251,"tv":11252,"ĠUnfortunately":11253,"Although":11254,"Ġroom":11255,"Sum":11256,"Ġ52":11257,"BK":11258,".{\\":11259,"ĠCS":11260,"textsl":11261,"diffusion":11262,"ĠAug":11263,"Ġconservative":11264,"Ġgeneralizations":11265,"OIU":11266,"}}&":11267,"hm":11268,"Ġimplicitly":11269,"@{}}":11270,"Ġfan":11271,"Ġpare":11272,"countable":11273,"Ġsummands":11274,"Ġstrip":11275,"HK":11276,"gaard":11277,"ĠProgram":11278,"verag":11279,"column":11280,"LU":11281,"Ġration":11282,"distribution":11283,"grid":11284,"Inf":11285,"PhysRevLett":11286,"pers":11287,"102":11288,"uine":11289,"ibniz":11290,"Ġsparsity":11291,"onomic":11292,"idi":11293,"ĠLat":11294,"Ġ56":11295,"Ġinfimum":11296,"{\\{":11297,"jl":11298,"ĠGR":11299,"ras":11300,"Ġ}\\\\":11301,"comb":11302,"ĠFormula":11303,"ĠMain":11304,"ĠEnd":11305,"Yau":11306,"ishable":11307,"pop":11308,"}}),":11309,"Ġquantify":11310,"generalized":11311,"Type":11312,"Ġhierarchical":11313,"Ġoptions":11314,"Ġhydrogen":11315,")\\,,":11316,"Ġinsights":11317,"Ġdose":11318,"Ġcompetitive":11319,"coprod":11320,"ĠDa":11321,"bordis":11322,"Ġ=-\\":11323,"Ġhardware":11324,"{$^*$}":11325,"hp":11326,"inforce":11327,"standing":11328,"ĠAC":11329,"Ġ,$":11330,"Ġplayed":11331,"Ġimprovements":11332,"))\\,":11333,"fan":11334,"mspace":11335,"constrained":11336,"1987":11337,"Ġgran":11338,"QP":11339,"Ġexploration":11340,"]+\\":11341,"Ġabbre":11342,"Ġabuse":11343,"db":11344,"Combining":11345,"'$-":11346,"ĠHen":11347,"Ġclosest":11348,"Ġshorter":11349,"ĠRetrieved":11350,"ĠCI":11351,"Ġsecret":11352,"Fa":11353,"lhd":11354,"'}^":11355,"ĠBro":11356,"Ġcountably":11357,"Ġrestricts":11358,"Ġ^{(":11359,"fully":11360,"Ġrectangular":11361,"Ġ&$\\":11362,"twoheadrightarrow":11363,"}_{(\\":11364,"Ġdominating":11365,"Ġsensors":11366,"corr":11367,")\\),":11368,"Ġcooper":11369,"Ġnodal":11370,"Ġminu":11371,"Examples":11372,"Diamond":11373,"bal":11374,"ĠMet":11375,"bran":11376,"Ġservices":11377,"ciation":11378,"Ġpromising":11379,"))^{-":11380,"103":11381,"Ġcontour":11382,"cB":11383,"Ġdrawing":11384,"dean":11385,"dh":11386,"Ġvisible":11387,"ĠAnn":11388,"âĢ¦":11389,"wi":11390,"Ġfulfilled":11391,"ducibility":11392,"Ġlooks":11393,"ĠGibbs":11394,"ben":11395,"'}{\\":11396,"Ġcubes":11397,"}_{>":11398,"kp":11399,"VA":11400,"Ġredund":11401,"distribu":11402,"CW":11403,"irs":11404,"ĠAsso":11405,"ĠHaar":11406,"ĠArchi":11407,"Ġrecognition":11408,"Real":11409,"llig":11410,"HT":11411,"Integ":11412,"Ġ=-":11413,"PSL":11414,"011":11415,"Rad":11416,"{?}":11417,"Ġpeaks":11418,"}*{":11419,"Ġcategorical":11420,"/[":11421,"Ġbas":11422,"Ġsensing":11423,"isomorphic":11424,"Ġpenal":11425,"Ġxy":11426,"Ġunbiased":11427,"Ġstudent":11428,"orb":11429,"Ġsemidefinite":11430,"osen":11431,"rb":11432,"{$^?$}}$\\":11433,"Ġgeneralised":11434,"Ġbasi":11435,"ĠProceedings":11436,"bys":11437,"Ġkm":11438,"Ġserver":11439,"tl":11440,"oking":11441,"Ġmono":11442,"108":11443,"ĠLetting":11444,"ĠValu":11445,"ĠSpa":11446,"Ġbulk":11447,"Ġtechnologies":11448,"ketbra":11449,"ĠWiener":11450,"tended":11451,"ĠMal":11452,",-.":11453,"Part":11454,"ilibrium":11455,"ĠClass":11456,"Ġcoprime":11457,"Ġcumulative":11458,"Ġ*}":11459,"iling":11460,"Ġobstruction":11461,"IG":11462,"ols":11463,"Ġforget":11464,"thal":11465,"{$^?$}}}\\":11466,"|(\\":11467,"Ve":11468,"static":11469,"Ġtuning":11470,"Ġdespite":11471,"quoti":11472,"Ġgovern":11473,"Ġstop":11474,"Ġturbul":11475,"tg":11476,"ests":11477,"Ġrecipro":11478,"ĠOct":11479,"Ġsubtree":11480,"robust":11481,"lefteq":11482,"ideo":11483,"Ġdescrip":11484,"Ġconfirmed":11485,"iber":11486,"lique":11487,"Ac":11488,"rice":11489,"Normal":11490,"Ġaffects":11491,"imeter":11492,"Ġ$((":11493,"rights":11494,"linewidth":11495,"ĠSi":11496,"Ġcylind":11497,"âī":11498,"^{*}_{":11499,"ĠMil":11500,"ĠBru":11501,"Ġcreating":11502,"idity":11503,"ABC":11504,"thern":11505,"^{{":11506,"polation":11507,">,":11508,"ĠAlexander":11509,"}})=":11510,"ĠVal":11511,"Ġassertions":11512,"holm":11513,"Fr":11514,"ensus":11515,"ĠLocal":11516,"Ġbudget":11517,"cellent":11518,"}>\\":11519,"256":11520,"Ġdissipative":11521,"})},":11522,"Also":11523,"Ġshear":11524,"Ġclause":11525,"ĠĠĠĠĠĠĠĠĠĠĠĠĠĠĠĠĠĠĠĠĠĠĠĠĠĠĠĠĠĠĠĠĠĠĠĠĠĠĠĠĠĠĠĠĠĠĠĠ":11526,"Ġsoil":11527,"Ġremarkable":11528,"stat":11529,"Ġbootstrap":11530,"Ġsubmanifolds":11531,"Ġoffers":11532,"vb":11533,"Macaulay":11534,"Ġreliable":11535,"ĠThanks":11536,"Ġincome":11537,"ĠPicard":11538,"Markovian":11539,"intercal":11540,"ĠAustral":11541,"Ġepoch":11542,"vection":11543,"$}{":11544,"Ġ&{\\":11545,"Ġsend":11546,"Ġorientable":11547,"fix":11548,"Ġsubsystems":11549,"HR":11550,"impro":11551,"Ġcontexts":11552,"\\}}$":11553,"icial":11554,"|\\,\\":11555,"ĠGromov":11556,"ĠBel":11557,"Ġpacking":11558,"Ġvirtue":11559,"ĠCantor":11560,"pref":11561,"))-\\":11562,"ĠFirstly":11563,"hal":11564,"amily":11565,"xp":11566,"ĠCT":11567,"),\\]":11568,"ites":11569,"Ġamenable":11570,"ĠGlobal":11571,"ĠProcess":11572,"Ġdecou":11573,"heng":11574,"High":11575,"}))$.":11576,"bottomrule":11577,"Ġequip":11578,"Ġselecting":11579,"ĠSign":11580,"preccur":11581,"Ġtissue":11582,"Ġproducing":11583,"preccurlyeq":11584,"Ġzone":11585,"ĠLondon":11586,"ison":11587,"ĠCr":11588,"ĠNumerical":11589,"Ġrecovered":11590,"timately":11591,"Ġshapes":11592,"Ġapart":11593,"ĠAnalog":11594,"affine":11595,"{,}":11596,"Ġbigger":11597,"RNA":11598,"periments":11599,"rating":11600,"ĠEl":11601,"Ġimplementing":11602,"Ġarrival":11603,"{$^?$}}{\\":11604,"}]=":11605,"Ġrecommend":11606,"ĠRich":11607,"RA":11608,"Ġeliminate":11609,"Ġhyperplanes":11610,"mainthm":11611,"medean":11612,"~{\\":11613,"\\!\\!\\!":11614,"Ġinvest":11615,"isa":11616,"Ġdatum":11617,"ĠSep":11618,"Ġgravitational":11619,"})).":11620,"Ġ&\\\\":11621,"Ġprepare":11622,"})>":11623,"ĠLast":11624,"_-\\":11625,"ĠUK":11626,"strongly":11627,"ĠDiv":11628,"Ġattractor":11629,"scope":11630,"$}_":11631,"phen":11632,"Ġmiti":11633,"Ġlens":11634,"Hol":11635,"Ġ|_":11636,"tzmann":11637,"Ġtracking":11638,"GB":11639,"Ġdistil":11640,"Ġinstability":11641,"Claim":11642,"Ġoscillation":11643,"Ġourselves":11644,"Ġtame":11645,"encing":11646,"cid":11647,"106":11648,"physical":11649,"Ġ120":11650,"}}_{{\\":11651,"\\|$":11652,"PF":11653,"deterministic":11654,"Ġsaying":11655,"Numerical":11656,"Ġartificial":11657,"Ġ}=":11658,"Ġverifies":11659,"Ġanoma":11660,"Ġmatches":11661,"vere":11662,"kai":11663,"essel":11664,"Df":11665,"HN":11666,"swap":11667,"additive":11668,"idis":11669,"ĠFu":11670,"_{\\{\\":11671,"Ġanisotropic":11672,"Ġ???}}\\":11673,"ĠSouth":11674,"flush":11675,"ĠCat":11676,"solid":11677,"dW":11678,"noop":11679,"Ban":11680,"ĠSubject":11681,"ĠSV":11682,"Ġ|\\!":11683,"ova":11684,"ĠGrassmann":11685,"TE":11686,"Ġparametrization":11687,"bol":11688,"rinking":11689,"Estima":11690,"ĠSuper":11691,"Ġmort":11692,"Ġregret":11693,"Ġaxes":11694,"Ġmembrane":11695,"ĠSupplementary":11696,"gic":11697,"construction":11698,"fre":11699,"Ġhea":11700,"Ġheart":11701,"ĠXu":11702,"NNs":11703,"lices":11704,"rings":11705,"Ġ58":11706,"Ġ})":11707,"distingu":11708,"132":11709,"sr":11710,"Ġsentence":11711,"Ġcloud":11712,"tica":11713,"UB":11714,"ĠPan":11715,"Ġsuperconducting":11716,"cG":11717,"mixed":11718,"icon":11719,"illi":11720,"Ġ2002":11721,"Ġ300":11722,"Ġmen":11723,"Ġepim":11724,"ĠLO":11725,"sides":11726,"stu":11727,"ĠConsidering":11728,"}}.$$":11729,"}(\\{":11730,"Ġdefect":11731,"Ġpossesses":11732,"Ġcollisions":11733,"Ġcorners":11734,"Math":11735,"Ġprojected":11736,"Cur":11737,"Ġpreference":11738,"Ġreversible":11739,"Eff":11740,"}'(\\":11741,"inequality":11742,"Ġplanning":11743,"ohnson":11744,"Ġeducation":11745,"Ġexception":11746,"xiv":11747,"lfare":11748,"ĠFigures":11749,"}})}":11750,"ores":11751,")'":11752,"Ġvehicle":11753,"closure":11754,"{{{\\":11755,"Ġisometries":11756,"ĠChan":11757,"020":11758,"Ġdisorder":11759,"Ġii":11760,"Ġtax":11761,"Ġintra":11762,"ĠAf":11763,"define":11764,"ĠMeasure":11765,"Ġearth":11766,"Ġcomparisons":11767,"output":11768,"Ġsumming":11769,"Because":11770,"rov":11771,"cells":11772,"rents":11773,"ĠOptimization":11774,"kx":11775,"|~":11776,"ĠNorth":11777,"lets":11778,"chemical":11779,"115":11780,"Ġdee":11781,"\\@":11782,"pez":11783,"allowbreak":11784,"yo":11785,"ĠEM":11786,"ĠChem":11787,"eh":11788,"Ġ&-\\":11789,"Ġadjunction":11790,"icity":11791,"olmog":11792,"vu":11793,"taining":11794,")}|\\":11795,"nat":11796,"Ġhelps":11797,"Ġ72":11798,"Ġadequ":11799,"het":11800,"}$'":11801,"correlation":11802,"Ġincompressible":11803,"Ġgreatly":11804,"Ġcommit":11805,"gations":11806,"Sem":11807,"}{\\|":11808,"ĠCas":11809,"||_":11810,"Ġind":11811,"Ġ''":11812,"raft":11813,"pril":11814,"ceived":11815,"uary":11816,"cT":11817,"Ġcollabor":11818,"ominus":11819,"Ġhouseh":11820,"locally":11821,"ĠSchmidt":11822,"ĠDC":11823,"Ġdiscovery":11824,"Ġranking":11825,"Ġcapital":11826,"':":11827,"|^{-\\":11828,"alitative":11829,"gb":11830,"Ke":11831,"dinal":11832,"Ġsusp":11833,"Based":11834,"ĠProblems":11835,"abc":11836,"fit":11837,"ĠNature":11838,"ĠUS":11839,"ĠÎ²":11840,"Ġnumerous":11841,"Ġbodies":11842,"ĠMarkovian":11843,"Ġcomplem":11844,"Ġmathematic":11845,"comparison":11846,"Ġdephasing":11847,"ercises":11848,"textqu":11849,"Ġ\\!\\!":11850,"ssive":11851,"\\^":11852,"Ġcompan":11853,")\\!":11854,"@/":11855,"rowave":11856,"berger":11857,"1988":11858,"=\\!":11859,"Ġaccumula":11860,"Ġmolecule":11861,"velopment":11862,"ĠUniversi":11863,"ĠComplex":11864,"lq":11865,"Ġdots":11866,"Ġpenc":11867,"Ġgad":11868,"ĠGrothendieck":11869,"Ġfru":11870,"ĠKeywords":11871,"eto":11872,"weakly":11873,"vt":11874,"_+,":11875,"Ġtori":11876,"Ġreceive":11877,"Ġseconds":11878,"ermite":11879,"ulse":11880,"}_-":11881,"Ġworse":11882,"Ġcutoff":11883,"resolution":11884,"Conversely":11885,"design":11886,"osz":11887,"Ġfeasibility":11888,"Ġgraphical":11889,"Ġasked":11890,"men":11891,"ĠSche":11892,"Abstract":11893,"}^+(":11894,"arding":11895,"ĠBor":11896,"Ġidentifies":11897,"llar":11898,"etary":11899,"Ġ((\\":11900,"ĠKlein":11901,"Ġsex":11902,"Ġ51":11903,"}}]\\":11904,"yx":11905,"Ġdesirable":11906,"PhysRevA":11907,"lative":11908,"ĠPhysical":11909,"!}{":11910,"sych":11911,"oul":11912,"martingale":11913,"Ġintegrability":11914,"esis":11915,"Ġcompactification":11916,"Ġremoval":11917,"rp":11918,"ĠChinese":11919,"_+^":11920,"transitive":11921,"_*}":11922,"Ġwavegu":11923,"olmogorov":11924,"ĠKar":11925,"Ġgaps":11926,"vw":11927,"Ġsched":11928,"Stab":11929,"ĠĊĉĉĉ":11930,"}||":11931,"Ġorbifold":11932,"Ġgrate":11933,"Ġrepeatedly":11934,"Ġ010":11935,"Ġmerely":11936,"pected":11937,"gers":11938,"ĠÂ°":11939,"dynamics":11940,"Ġroutine":11941,"&(":11942,"essor":11943,"${":11944,"Ġdefault":11945,"supervised":11946,"Ġscope":11947,"ĠProject":11948,"ĠBoh":11949,"Ġattacks":11950,"ĠMi":11951,"Ġexcess":11952,"assump":11953,"enquote":11954,"Ġdiversity":11955,"onov":11956,"Ġdiffeomorphisms":11957,"}|_":11958,"ielsen":11959,"Ġgetting":11960,"Ġsubstitute":11961,"Ġexcluded":11962,"Clearly":11963,"ĠNatural":11964,"pments":11965,"Ġstay":11966,"Ġadjusted":11967,"tact":11968,"Ġtargets":11969,"}\\,\\,":11970,"Ġderivations":11971,".&":11972,"Ġpreferred":11973,"Ġtrapped":11974,"ĠActually":11975,"Ġchecks":11976,"]=>[":11977,"}=\\{\\":11978,"Ġexpanded":11979,"qedhere":11980,"113":11981,"Ġpredicate":11982,"ĠGHZ":11983,"ĠSal":11984,"US":11985,"124":11986,"Ġleaving":11987,"IO":11988,"WW":11989,"Ġdigits":11990,"match":11991,"Ġfat":11992,"Ġnames":11993,"paths":11994,"MB":11995,"IA":11996,"Ġunipotent":11997,"ĠIndia":11998,"Notation":11999,"Ġaccepted":12000,"Ġenvelope":12001,"ups":12002,"Ġpreval":12003,"ĠMate":12004,"minim":12005,"]}{\\":12006,"Ġreactions":12007,"Ġresponsible":12008,"Ġhomotopic":12009,"ĠTogether":12010,"wing":12011,"ĠPas":12012,"_{>":12013,"Ġstret":12014,"dk":12015,"fint":12016,"Ġreflect":12017,"Ġcop":12018,"due":12019,"Ġpuri":12020,"}((\\":12021,"pot":12022,"was":12023,"Ġsynd":12024,"ĠProc":12025,"107":12026,"Ġ2001":12027,"ĠShi":12028,"Ġsynta":12029,"Ġoptics":12030,"without":12031,"ĠCombin":12032,"Ġdeals":12033,"Ġ96":12034,"Ġindirect":12035,"Ġenter":12036,"ĠProp":12037,"213":12038,"ifert":12039,"Ġtranslations":12040,"Mi":12041,"Ġregula":12042,"Ġmultiplicities":12043,"Ġnef":12044,"ĠWhit":12045,"Ġunivers":12046,"ĠHypothesis":12047,"Ġdetuning":12048,"Ġpy":12049,"ĠSW":12050,"Ġlost":12051,"Ġchooses":12052,"022":12053,"Ġconjunction":12054,"Ġrevenue":12055,"Ġcrossed":12056,"ĊĊĠĠĠĠ":12057,"maps":12058,"Ġgenuine":12059,"127":12060,"{+}":12061,"}}}$,":12062,"ĠEquivalently":12063,"otor":12064,"Cu":12065,"Ġpermit":12066,"}}{|":12067,"mechanical":12068,"ifying":12069,"1986":12070,"ĠNSF":12071,"Ġbehaviors":12072,"Ġreliability":12073,"Ġlinearity":12074,"ĠMarch":12075,"ĠRadon":12076,"Following":12077,"Ġhal":12078,"Ġexplains":12079,"colsep":12080,"reson":12081,"cR":12082,"Ġbring":12083,"ticity":12084,"enumi":12085,"Ġdotted":12086,"ĠHee":12087,"mel":12088,"\\,{":12089,"ĠTuring":12090,"Ġprivacy":12091,"xid":12092,"Ġtunnel":12093,"quadratic":12094,"Ġlon":12095,"Ġbond":12096,"Ġstock":12097,"ĠAuto":12098,"inson":12099,"Ġslowly":12100,"sistency":12101,"012":12102,"Ġpreferences":12103,"Cov":12104,"Ġfairly":12105,"ubble":12106,"front":12107,"ĠCell":12108,"015":12109,"Ġencode":12110,"prp":12111,"Ġclon":12112,"ĠTan":12113,"Ġimplementations":12114,"}=\"":12115,"Ġshock":12116,"Ġfi":12117,"WP":12118,"four":12119,"Ġmultipartite":12120,"Kw":12121,"auer":12122,"ĠBiol":12123,"Ġmultipliers":12124,"ĠFock":12125,"ĠPA":12126,"||^":12127,"Ġaccumulation":12128,"ĠOpen":12129,"istically":12130,"matching":12131,"ĠDuring":12132,"]).":12133,"Ġspatially":12134,"Ġ$^{":12135,"hop":12136,"urent":12137,"Ġexcellent":12138,"ĨĴ":12139,"Ġfavor":12140,"Ġpropositions":12141,"Ġcapable":12142,"hes":12143,"Ġrestricting":12144,"Ġdiseases":12145,"Ġplatform":12146,"Ġqualitative":12147,"odyne":12148,"predic":12149,"ĠÂ±":12150,"ĠBr":12151,"KR":12152,"Ġparty":12153,"bach":12154,"expansion":12155,"atim":12156,"Ġ\\\\&\\":12157,"uber":12158,"vailability":12159,"Ġspontaneous":12160,"ĠRF":12161,"ĠSE":12162,"Ġsubstra":12163,"Ġfits":12164,"ĠRu":12165,"ĠAB":12166,"pectral":12167,"Ġschedule":12168,"Ġfamous":12169,"Yu":12170,"including":12171,"}&=&":12172,"ĠParis":12173,"ĠĠĠĠĠĠĠĠĠĠĠĠĠĠĠĠĠ":12174,"))}{\\":12175,"Tho":12176,"Ġinterferometer":12177,"periment":12178,"Ġvaluations":12179,"necess":12180,"monotone":12181,"ĠPD":12182,"eting":12183,"effective":12184,"vx":12185,"^{\\#":12186,";\\,":12187,"Ġsupporting":12188,"osco":12189,"ĠRL":12190,"Ġcomputers":12191,"Ġqual":12192,"Ġwrong":12193,"start":12194,"ici":12195,"Ġintervention":12196,"]\\,":12197,"Ġhypo":12198,"ĠMori":12199,"Ġnormally":12200,"Ġspirit":12201,"Ġremin":12202,"ĠStudy":12203,"hot":12204,"'))":12205,"searrow":12206,"Ġdiscontinuous":12207,"University":12208,"Ġtumor":12209,"Star":12210,"Del":12211,"ea":12212,"Ġrealizations":12213,"ialgebra":12214,"Ġinstrument":12215,"cof":12216,"135":12217,"Ġfabric":12218,"itudinal":12219,"Ġeigenfunction":12220,"cmidrule":12221,"Ġpolytopes":12222,"identity":12223,"Ġcalls":12224,"changing":12225,"Ġusage":12226,"selection":12227,"Ġobstacle":12228,"ĠDG":12229,"both":12230,"Ġsubvariety":12231,"Ġ``$":12232,"Schmidt":12233,"Ð¾":12234,")\\}\\":12235,"Ġdisconnected":12236,"Ġenjo":12237,"Ġincomplete":12238,"otedbl":12239,"enta":12240,"area":12241,"textquotedbl":12242,"Ġsubsequently":12243,"arity":12244,"}$}\\":12245,"Ġtower":12246,"ĠLater":12247,"Ġ}$.":12248,"ssec":12249,"lst":12250,"ftarrow":12251,"mrm":12252,"ria":12253,"}_{{":12254,"Ġpolyhedral":12255,"potential":12256,"\\}_":12257,"tifying":12258,")--":12259,"plays":12260,"Ġpointing":12261,"Ġexpectations":12262,"fc":12263,"ĠCu":12264,"ĊĠĠĠĠĠĠĠĠĠĠĠĠĠĠĠĠĠ":12265,"Ġinhomogeneous":12266,"Ġ\\,$":12267,"Ġexpensive":12268,")}},":12269,",...,\\":12270,"slo":12271,"Ġforming":12272,"ĠCommunications":12273,"iral":12274,"linic":12275,"Ġdoubly":12276,"Ġreductions":12277,"Ġrelates":12278,"ultural":12279,"arXiv":12280,"Ġregimes":12281,"QR":12282,"upshape":12283,"nett":12284,"})|\\":12285,"Ġchromatic":12286,"Ġ,\\\\":12287,"Ġlibrary":12288,"Ġarrays":12289,"gged":12290,"ĠWillia":12291,"ominal":12292,"ew":12293,"mptions":12294,"ĠAcademy":12295,"ĠKer":12296,"alog":12297,"})=(":12298,"knot":12299,"Sur":12300,"006":12301,"nders":12302,"Ġmeaningful":12303,"network":12304,"Ġdif":12305,"},\\]":12306,"ĠPal":12307,"flalign":12308,"Ġsees":12309,"Bre":12310,"itation":12311,"osc":12312,"MN":12313,"duate":12314,"Ġinfra":12315,"^\\#":12316,"hence":12317,"Ġpacket":12318,"Ġroles":12319,"Ġpl":12320,"&+\\":12321,";$":12322,"Ġjointly":12323,"Ġunde":12324,"=\\{(":12325,"CZ":12326,"Ġneighborhoods":12327,"ĠÃĹ":12328,"Ġ85":12329,"250":12330,"Ġasserts":12331,"Ġenumeration":12332,"Ġreformula":12333,"\\!-\\!":12334,"Applying":12335,"Ġcomment":12336,"Ġreality":12337,"Ġemploying":12338,"Ġtolerance":12339,"Ġ\"\\":12340,"labeled":12341,"ronecker":12342,"yi":12343,"ĠAssumptions":12344,"Ġmerg":12345,"Ġingredient":12346,"ĠHol":12347,"ĠFormal":12348,"Ġeverything":12349,"ĠInitial":12350,"Ġshadow":12351,"Ġprima":12352,"ĠAvailable":12353,"Fu":12354,"Ġintuitive":12355,"Ġconcatenation":12356,"luster":12357,"??}":12358,"Bell":12359,"Ġsole":12360,"Ġseek":12361,"Ġepide":12362,"Ġdecays":12363,"Ġrigidity":12364,"Ġmonths":12365,"Ġ67":12366,"stals":12367,"ategory":12368,"psline":12369,"imodular":12370,"omorph":12371,"ĠCoun":12372,"Einstein":12373,"])$.":12374,"Ġstabilization":12375,"scend":12376,"Î±":12377,"Ġlexic":12378,"dete":12379,"Fil":12380,"Ġtiling":12381,"inuity":12382,"gas":12383,"erner":12384,"Irr":12385,"Ġalgorithmic":12386,"fac":12387,"ĠFre":12388,"\\})\\":12389,"Ġmortality":12390,"}'_{":12391,")}}(":12392,"kar":12393,"$\\|":12394,"Stu":12395,"Ġ$||":12396,"cki":12397,"Biggl":12398,"ĠProv":12399,"$?":12400,"usu":12401,"}}\\|\\":12402,"Book":12403,"ĠVari":12404,"istor":12405,"contents":12406,"))+\\":12407,"}}}.":12408,")$\\\\":12409,"Exercise":12410,"enn":12411,"oretical":12412,"ĠDer":12413,"Ġrelaxed":12414,"\\}.$":12415,"ĠFloer":12416,"'m":12417,"âĢĻ":12418,"Ġsuperior":12419,"ĠNoetherian":12420,"Ġalignment":12421,"Ġreports":12422,"Ġmig":12423,"}(|\\":12424,"Tran":12425,"ĠOnly":12426,"Back":12427,"ditivity":12428,"&-\\":12429,"ĠDeter":12430,"Fun":12431,"Euler":12432,"Ġmanufact":12433,"Ġheterogeneous":12434,"Each":12435,"shaped":12436,"Acknowledgments":12437,"Ġappropriately":12438,"ĠModels":12439,"})$$":12440,"GN":12441,"Ġcontributes":12442,"Ġcl":12443,"}^*_":12444,"ette":12445,"posi":12446,"mol":12447,"oughly":12448,"ĠNonlinear":12449,"Ġcutting":12450,"HSH":12451,"Solution":12452,"olicy":12453,"MV":12454,"Ġpat":12455,"LB":12456,"Ġrectangles":12457,"Ġformat":12458,"Ġcompara":12459,"statis":12460,"lugging":12461,"universal":12462,"MW":12463,"types":12464,"109":12465,"ierstra":12466,"uitively":12467,"Ġ63":12468,"tember":12469,"Wal":12470,"$}\\\\":12471,"Ġgenerically":12472,"bou":12473,"Ġdiscrepancy":12474,"Ġtranspose":12475,"TD":12476,"ĠBon":12477,"\\{-":12478,"SN":12479,"Ġdevelopments":12480,"vD":12481,"mbb":12482,"_{\\!":12483,"~}":12484,"{??}}}{\\":12485,"fining":12486,"Ġmoderate":12487,"classes":12488,"ĠMer":12489,"=|\\":12490,"{\\,\\":12491,"Ġraw":12492,"multiput":12493,"ĠTru":12494,"}'$.":12495,"Ġtransmitted":12496,"irect":12497,"ĠâĢĶ":12498,"}^{*}\\":12499,"source":12500,"bM":12501,"gar":12502,"Ġsoliton":12503,"hilosophy":12504,"Ġenzy":12505,"Ġgala":12506,"Ġobserver":12507,"Ġcognitive":12508,"ĠEis":12509,"cx":12510,"Ġchance":12511,"ĠSA":12512,"Ġdistortion":12513,"^{(-":12514,"folds":12515,"Ġautomorphic":12516,"oro":12517,"Ġadversarial":12518,"Ġexit":12519,"oshi":12520,"Ġsemistable":12521,"Ġminimizes":12522,"rq":12523,"Ġoccurrences":12524,"Ġchaotic":12525,"Ġrefere":12526,"HJ":12527,"}=[":12528,"ĠSeries":12529,"Ġsimplifies":12530,"Name":12531,"Mac":12532,"tie":12533,"triz":12534,"areto":12535,"Ġimmu":12536,"Ġcontrolling":12537,"rally":12538,"ĠAndre":12539,"^*}$":12540,"*(":12541,"ĠPure":12542,"]-\\":12543,"Ġgenome":12544,"tone":12545,"160":12546,"Ġcoset":12547,"driven":12548,"Ġurban":12549,"Ġteam":12550,"Ċĉĉĉĉĉĉĉ":12551,"ĠRabi":12552,"hyperbolic":12553,"Ru":12554,"separable":12555,"say":12556,"Ġpolyhedron":12557,"Ġconfusion":12558,"erkin":12559,"PV":12560,"Ġ76":12561,"Ġclassic":12562,"ĠKing":12563,"Ġsuitably":12564,"Ġensu":12565,"Ġce":12566,"Ġsubscheme":12567,"colation":12568,"relative":12569,"ĠLeibniz":12570,"Dav":12571,"Ġinherent":12572,"Ġfer":12573,"Ġdaily":12574,"Ġ}_{\\":12575,"sz":12576,"ĠLiouville":12577,"vanced":12578,"Ġsubstantially":12579,"hai":12580,"}}).":12581,"ĠSeveral":12582,"px":12583,"examples":12584,"144":12585,"Ġplants":12586,"})/\\":12587,"Ġincoming":12588,"PGL":12589,"cN":12590,"ĠCe":12591,"Ġ-{\\":12592,"ĠErd":12593,"Ġtook":12594,"Ġending":12595,"Ġtransient":12596,"Ġhistorical":12597,"Ġutilized":12598,"Ġbroken":12599,"rids":12600,"Meth":12601,")*{":12602,"ĠGene":12603,"Ġresonator":12604,"Ġconjectures":12605,"varGamma":12606,")]^":12607,"ĠMI":12608,"Ġcylindrical":12609,"ĠEPR":12610,"Ġweek":12611,"Ġiterate":12612,"tivated":12613,"Ġconsiderable":12614,"Ġances":12615,"FO":12616,"Ġminimality":12617,"ĠCalabi":12618,"compare":12619,"_{<":12620,"ĠCanada":12621,"near":12622,"dar":12623,"Ġcofib":12624,"007":12625,"Ġutilize":12626,"}|}":12627,"Ġreaders":12628,"sparse":12629,"cember":12630,"Ġborder":12631,"Ġserves":12632,"ĠAbelian":12633,"LD":12634,"Ġhost":12635,"Ġaccordingly":12636,"Ġbehaves":12637,"Ġever":12638,"Ġanne":12639,"ĠSD":12640,"ĠApproxima":12641,"ĠNot":12642,"Ġdiffu":12643,"Ġ68":12644,"ittlewood":12645,"Ġholonomy":12646,"Ġmultiplied":12647,"'>":12648,"Ġsaw":12649,"ratio":12650,"Ġcobordis":12651,"Ġcongruent":12652,"\\\\&\\":12653,"public":12654,"/.":12655,"Ġneurons":12656,"ĠĠĠĠĠĠĠĠĠĠĠĠĠĠĠĠĠĠĠ":12657,"ductor":12658,"Ġbrackets":12659,"byshev":12660,"modu":12661,"uning":12662,")|_":12663,"ĠSk":12664,"Ġ94":12665,"Ġ}=\\":12666,"Ġrecords":12667,"Ġreflects":12668,"riched":12669,"Ġmini":12670,"Ġamplification":12671,"prelim":12672,"$''":12673,"Ġcontinues":12674,"\\}$$":12675,"Ġneces":12676,"}}$$":12677,"probability":12678,"Ġmillion":12679,"roma":12680,"Ġ$|{\\":12681,"âĢĭ":12682,"Ġhaz":12683,"Ġmonic":12684,"Gener":12685,"Ġleak":12686,"}),$":12687,"ĠĠĠĠĠĠĠĠĠĠĠĠĠĠĠĠĠĠĠĠĠĠĠĠĠĠĠĠĠĠĠĠĠĠĠĠĠĠĠĠĠĠĠĠĠĠĠĠĠĠĠĠĠĠĠĠĠĠĠĠĠĠĠĠĠĠĠĠĠĠĠĠĠĠĠĠĠĠĠĠĠĠĠĠĠĠĠĠĠĠĠĠĠĠĠĠĠĠĠĠĠĠĠĠĠĠĠĠĠĠĠĠĠĠĠĠĠĠĠĠĠĠĠĠĠĠĠĠ":12688,"ĠMichael":12689,"025":12690,"ĠRay":12691,"dad":12692,"Ġintegrand":12693,"'d":12694,"ĠPower":12695,"UE":12696,"pacity":12697,"Ġputting":12698,"Ġrelativistic":12699,"Ġtranslate":12700,"planar":12701,"Ġ???}){\\":12702,"Pet":12703,"fm":12704,"ornia":12705,"}}}}\\":12706,"Ġinnov":12707,"mons":12708,"Ġfibres":12709,"asible":12710,"ĊĠĠĠĠĠĠĠĠĠĠĠĠĠĠĠĠĠĠĠĠĠĠĠ":12711,"TW":12712,"Biggr":12713,"Ġrelating":12714,"choice":12715,"SG":12716,"xford":12717,"eld":12718,"View":12719,"ĠLind":12720,"curv":12721,"oszul":12722,"ivalent":12723,"Ġaware":12724,"select":12725,"ĠReal":12726,"ĠHuang":12727,"lability":12728,"lateral":12729,"unitary":12730,"Ann":12731,"Proj":12732,"Ġstratum":12733,"&$\\":12734,"Ġpartitioned":12735,"Ġdominates":12736,"Fs":12737,"Ġhexag":12738,"Ġswe":12739,"exponential":12740,"twisted":12741,"Ġscat":12742,"ĠKore":12743,"ĠQKD":12744,"respondence":12745,"Ġsubscript":12746,"ena":12747,"plying":12748,"difference":12749,"Ġsuscep":12750,"fd":12751,"}.{\\":12752,"Ġprecondition":12753,"'ve":12754,"gebro":12755,"]}$.":12756,"Ġ03":12757,"std":12758,"Ġneuro":12759,"ĠFunctions":12760,"ĠMark":12761,"itons":12762,"...\\":12763,"inomial":12764,"Ġpipe":12765,"ska":12766,"Ġdifferentials":12767,"ĠBou":12768,"recur":12769,"Ġtuples":12770,"symbol":12771,"Ġbehave":12772,"hara":12773,"Ġ59":12774,"cket":12775,"resol":12776,"Ġlargely":12777,"naps":12778,"Ret":12779,"Ġ66":12780,"levance":12781,"Ġevaluations":12782,"ĠDesign":12783,"ODE":12784,"definite":12785,"}{}{":12786,"Ġmotions":12787,"dxdt":12788,"mento":12789,"ĊĠĠĊ":12790,"covering":12791,"obj":12792,"ifornia":12793,"ĠChang":12794,"BN":12795,"ĠClo":12796,"Lp":12797,"forth":12798,"Ġbranched":12799,"liers":12800,"xygen":12801,"PDF":12802,"ĠItaly":12803,"1985":12804,"Ġtangential":12805,"given":12806,"ĠIma":12807,"rose":12808,"_+}":12809,"pring":12810,"Ġ|)\\":12811,"degener":12812,"Ġaverages":12813,"Stru":12814,"alph":12815,"Ġmicrowave":12816,"acci":12817,"SQ":12818,"ĠCentral":12819,"univ":12820,"ĠStatistical":12821,"[->]":12822,"harma":12823,"&{\\":12824,"Not":12825,"plain":12826,"ĠSR":12827,"ĠAdditional":12828,"phant":12829,"inten":12830,"Ġswap":12831,"]}}":12832,"ĠComput":12833,"Ġdecades":12834,">>>":12835,"Ġhighlight":12836,"Existence":12837,"Ġpin":12838,"ĠChow":12839,"LG":12840,"Ġ62":12841,"ĠCompute":12842,"Ġcred":12843,"Ġchose":12844,"})\\)":12845,"Ġtransvers":12846,"Ġtransf":12847,"onometric":12848,"Ġconsiderably":12849,"Search":12850,"\\}=\\":12851,"IJ":12852,"Ġfluoresc":12853,"ĠDR":12854,"Ġlands":12855,"torus":12856,"Ġwaste":12857,"Ġtouch":12858,"114":12859,"average":12860,"orbits":12861,"ĠHiggs":12862,"Ġcoincidence":12863,"Ġmaximizing":12864,"ĠInterest":12865,"hf":12866,")|$.":12867,"Ġtube":12868,"Ġstacks":12869,"Ġgeometrical":12870,"rated":12871,"Ġdoubling":12872,"ade":12873,"ĠSie":12874,"vf":12875,"Kim":12876,"bP":12877,"Ġsuffix":12878,"ĠDM":12879,"Ġsectional":12880,"formulation":12881,"journals":12882,"tos":12883,"trib":12884,"Ġtranscri":12885,"Ġisotopic":12886,"Ġrelease":12887,")}:":12888,"Ġpreimage":12889,"vability":12890,"Ðµ":12891,".).":12892,"^*}(":12893,"ĠCW":12894,"Ġmasses":12895,"ĠSect":12896,"ĠHyper":12897,"Ġwavelet":12898,"Ġ98":12899,"140":12900,"ĠBerlin":12901,"Group":12902,"ĠpH":12903,"Ġdetecting":12904,"}^*(\\":12905,"126":12906,"Eqn":12907,"Ġindustry":12908,"Ġformulations":12909,"tig":12910,"mospheric":12911,"Ġabbrevi":12912,"zzo":12913,"Ġcontractible":12914,"approximate":12915,"Free":12916,"Ġ74":12917,"Ġ]$":12918,"iley":12919,"Ġobjectives":12920,"Ġregularized":12921,"bset":12922,"conformal":12923,"elt":12924,"ĠAP":12925,"Ġwelfare":12926,"Ġ????":12927,"awa":12928,"Ġorientations":12929,"That":12930,"ditary":12931,"Ġranging":12932,"Ġintended":12933,"ternal":12934,"Ġdg":12935,"ĠWhite":12936,"Ġcompounds":12937,"folio":12938,"1984":12939,"iet":12940,"ĠAstron":12941,"Ġorbital":12942,"Ġtrying":12943,"ĠPeter":12944,"Tu":12945,"ĠSmith":12946,"ĠSM":12947,"ĠLikewise":12948,"Ġirrational":12949,"Ġfilling":12950,"ĠWorld":12951,"Ġstatistically":12952,"ĠRNA":12953,"Ġspi":12954,"oured":12955,"})),":12956,"gradation":12957,"Ġtableau":12958,"]_-":12959,"ĠText":12960,"ĠWeil":12961,"ĠBernstein":12962,"rv":12963,"Journal":12964,"Ġcompany":12965,"restricted":12966,"\\|(":12967,"Plan":12968,"ollaries":12969,"ĠFigs":12970,"220":12971,"Ġaggregation":12972,"Redu":12973,"tegy":12974,"Ġ$*$-":12975,"ĠTR":12976,"Ġpredicting":12977,"ĠJune":12978,"mosphere":12979,"Ġ93":12980,"Ġlaboratory":12981,"meas":12982,"ĠWol":12983,"Ġfitted":12984,"Jacobi":12985,"Ġeth":12986,"ĠPick":12987,"Ġcaptured":12988,"heim":12989,"enm":12990,"Ġbor":12991,"Ġdamage":12992,"ĠBri":12993,"008":12994,"ĠSerre":12995,"Ġsubtrac":12996,"ips":12997,"ĠRamsey":12998,"Ġcountry":12999,"Ġcompositions":13000,"Ġsymbolic":13001,"Bern":13002,"parent":13003,"Ġinstan":13004,"avg":13005,")}$$":13006,"Ġconcurrence":13007,"Ġcontract":13008,"Ġresolvent":13009,"ĠSeifert":13010,"asymptotic":13011,"Ġtraveling":13012,"rack":13013,"ĠJul":13014,"Ġflexibility":13015,"ĠPost":13016,"setup":13017,"perfect":13018,"riers":13019,"zil":13020,"ship":13021,"]^{-":13022,"Span":13023,"Ġmatchings":13024,"rer":13025,"rip":13026,"Ġcurrents":13027,"Ġbreaking":13028,"Lee":13029,"\\,,\\":13030,"Ġoutlined":13031,"ĠdB":13032,"}]_{":13033,"_*,":13034,"resi":13035,"ĠWhere":13036,")}.$$":13037,"Rob":13038,"Ġlongest":13039,"osa":13040,"clock":13041,"oustic":13042,"Â·":13043,"Ġachieving":13044,"ierstrass":13045,"Ġphotonic":13046,"Ġcas":13047,"Ġinstant":13048,"Hor":13049,"1983":13050,"yg":13051,"particles":13052,"}})^{":13053,"0002":13054,"ĠISS":13055,"nikov":13056,"ĠSil":13057,"strut":13058,"qc":13059,"Ġ$-$":13060,"Ġ81":13061,"bour":13062,"Ġdimensionality":13063,"Ġforth":13064,"Ġtheoretic":13065,"Ġconvert":13066,"Ġappearance":13067,"Ġdeleting":13068,"Ġrenormal":13069,"Ġproton":13070,"PY":13071,"ĠMS":13072,"Ġreceives":13073,"ipher":13074,"physics":13075,"Ġassigns":13076,"Ġcommutation":13077,"Ġmodal":13078,"Ġrepresentable":13079,"Ġconductor":13080,"ochromatic":13081,"Î¼":13082,"ardo":13083,"}$(":13084,"Neu":13085,"Wu":13086,"Ġconstitute":13087,"Ġpointer":13088,"doteq":13089,"117":13090,"^{-(\\":13091,"Ġfocusing":13092,"Ġsmoothly":13093,"Ġcharged":13094,"\\{|":13095,"Ġ128":13096,"Ġcreates":13097,"Ġminimizers":13098,"Ġ101":13099,"CY":13100,"Ġcyclo":13101,"Convergence":13102,"tarity":13103,"|\\;":13104,"ife":13105,"sti":13106,"EV":13107,"Ġ\\,\\,\\":13108,"ortant":13109,"Ġneighbour":13110,"ĠBoltzmann":13111,"Ġpredictor":13112,"Ġphysically":13113,"ilding":13114,"ĠRus":13115,"ĠSem":13116,"Ġdep":13117,"vents":13118,"Ġhisto":13119,"jmath":13120,"method":13121,"Ġoutperforms":13122,"Ġ}$,":13123,"Ġ77":13124,"Ġsurjection":13125,"sqsubseteq":13126,"Ġcentury":13127,"1982":13128,"+}\\":13129,"Ġsubtle":13130,"rality":13131,"orpdf":13132,"Ġalle":13133,"Ġproximal":13134,"Ġchaos":13135,"Ġmonotonically":13136,"Ġsemicon":13137,"Ġpolymer":13138,"bfseries":13139,"orpdfstring":13140,"Ġvariances":13141,"ĠAccordingly":13142,"symmetry":13143,"ĠParame":13144,"Ġpersonal":13145,"Ġstrata":13146,"Ġprimarily":13147,"Ġarticles":13148,"Ġjunction":13149,"ĠCalifornia":13150,"Ġramification":13151,"ĠTre":13152,"Label":13153,"game":13154,"compatible":13155,"ĠStan":13156,"Ġbiased":13157,"Ġnaive":13158,"gmail":13159,"texorpdfstring":13160,"Ġproceeds":13161,"Ġforced":13162,"Ġmutation":13163,"enko":13164,"next":13165,"titut":13166,"Ġtaut":13167,"lick":13168,"join":13169,"ĠID":13170,"Wr":13171,"116":13172,"observation":13173,"lecular":13174,"Ġdecla":13175,"ĠMP":13176,"ĠCNOT":13177,"aq":13178,"radius":13179,"Ġdeeper":13180,"duality":13181,"]=[":13182,"mically":13183,"hk":13184,"heaf":13185,"Ġfibrations":13186,"ccccc":13187,"cern":13188,"aratus":13189,"yal":13190,"Ġvacc":13191,"ĠGar":13192,"^{|\\":13193,"vertices":13194,"ĠMy":13195,"+\\,":13196,"otes":13197,"Ġattributes":13198,"ĠGeometry":13199,"ranged":13200,"lead":13201,"Ġadds":13202,"lisher":13203,")^{|":13204,"ĠJanuary":13205,"Ġrescaling":13206,"matrices":13207,"Green":13208,"ĠAlternatively":13209,"ounced":13210,"yes":13211,"Ġtranslates":13212,"'-\\":13213,"Ġwild":13214,"'}_{":13215,"ĠAugust":13216,"Ġbegins":13217,"}})^":13218,"ĠMaxwell":13219,"ĠMatrix":13220,"Ġlongitudinal":13221,"Ġcuspidal":13222,"Ġsaturation":13223,"curves":13224,"<+\\":13225,"atorial":13226,"Weak":13227,"subgroup":13228,"Ġbatter":13229,"Ġ73":13230,"Ġroad":13231,"ĠAfric":13232,"ug":13233,"Ġcommunic":13234,"update":13235,"ĠNove":13236,"ĠHas":13237,"ĠLogic":13238,"uller":13239,")\\}$,":13240,"ĠPC":13241,"ih":13242,"Ġ``$\\":13243,"thy":13244,"Ġcaptures":13245,"finitions":13246,"Mil":13247,"arr":13248,"Ġgoverned":13249,"Ġfuel":13250,"vk":13251,"Ġannual":13252,"Ġiterates":13253,"Ġefforts":13254,"ĠPaul":13255,"kal":13256,"Ġranks":13257,"Ġresemb":13258,"cipi":13259,")],":13260,"Ġ97":13261,"Ġposed":13262,"}&=&\\":13263,"^*=\\":13264,"Ġtangle":13265,"Ġ61":13266,"bidden":13267,"Stra":13268,"oriented":13269,"|+|\\":13270,"roid":13271,"ctured":13272,"ĠBlack":13273,"Ġsuggesting":13274,"ĠĠĠĠĠĠĠĠĠĠĠĠĠĠĠĠĠĠ":13275,"Color":13276,"sensitive":13277,"terms":13278,"rgb":13279,"_+(\\":13280,"Ġroute":13281,"Ġrequest":13282,"Space":13283,"iq":13284,"stration":13285,"AK":13286,"Ġdiamond":13287,"don":13288,"hotom":13289,"likelihood":13290,"otype":13291,"Ġ$}":13292,"Ġ84":13293,")=|":13294,"Char":13295,"ĠCl":13296,"iterion":13297,"score":13298,"Ġiteratively":13299,":$\\":13300,"Ġfric":13301,"Ġ.\\]":13302,"bg":13303,"Ġ78":13304,"Spe":13305,"\";\"":13306,"Ġenhancement":13307,"Xu":13308,"Ġrem":13309,"ĠJe":13310,"presentation":13311,"^-_{":13312,"elastic":13313,"Intro":13314,"pk":13315,"NM":13316,"ĠMAT":13317,"Ġoptimis":13318,"'+\\":13319,"Ja":13320,"|,\\":13321,"014":13322,"Ġpurity":13323,"Condition":13324,"bbon":13325,"rint":13326,"ĠPT":13327,"ĠRecalling":13328,"formatics":13329,"uffle":13330,")]$.":13331,"Path":13332,"}}})":13333,"Ġminima":13334,"bigsqcup":13335,"}')":13336,"same":13337,"ĠAM":13338,"Ġtheoretically":13339,"blow":13340,"Ġansatz":13341,"Ġcommunities":13342,"Ġreconstructed":13343,"Physi":13344,"Additional":13345,"ples":13346,"support":13347,"care":13348,"AI":13349,"Ġencoun":13350,"Ġpiv":13351,"'}^{":13352,"Ġsmo":13353,"quotient":13354,"Ġshell":13355,"ĠApril":13356,"ijing":13357,"ige":13358,"Ġexposed":13359,"}*":13360,"^{\\,":13361,"ĠCirc":13362,"ï¿":13363,"Ġapparatus":13364,"subs":13365,"ĠHis":13366,"ĠDar":13367,"Ġtranscend":13368,"@{=":13369,"Ġturned":13370,"ĠBC":13371,"Ġsup":13372,"Ġ},\\":13373,"Ġmetabol":13374,"ami":13375,"ĠDyn":13376,"Ġsal":13377,"Ġexploiting":13378,"Ġjustified":13379,"cil":13380,"')=\\":13381,"ĠThomas":13382,"Ġvisit":13383,"118":13384,"Ġnominal":13385,"}\\,{\\":13386,"Ġrain":13387,"Ġsequentially":13388,"ĠME":13389,"^-,":13390,"tight":13391,"simplex":13392,"Ġmassive":13393,"Ġrotational":13394,"channel":13395,"wis":13396,"Ġbands":13397,"Ġkept":13398,"ĠBelow":13399,"Ġphon":13400,"projection":13401,"Ġprotot":13402,"PB":13403,"products":13404,"Ġstating":13405,"@\\":13406,"ĠEm":13407,"Ġcovariate":13408,"}$.\\\\":13409,"ï¿½":13410,"}^+\\":13411,"ĠCPU":13412,"Ġmask":13413,"ĠThree":13414,"matter":13415,"ibon":13416,"Ġhypergeometric":13417,"asserstein":13418,"Ġsurve":13419,"istration":13420,"erature":13421,"sss":13422,"compu":13423,"Ġ],":13424,"ĠZhou":13425,"[{":13426,"Ġarchitectures":13427,"}/(":13428,"\\,|\\,":13429,")].":13430,"Ġalternatives":13431,"Ġprofit":13432,"Ġmeeting":13433,")}),":13434,"ĠRun":13435,"Ġpartitioning":13436,"}]}":13437,"Ġcouplings":13438,"dio":13439,"}_+^":13440,"ĠScha":13441,"ĠKilling":13442,"Ġconserved":13443,"Ġautomatic":13444,"Ġtreatments":13445,"})}^":13446,"dek":13447,"malga":13448,"Ġoxygen":13449,"Ġlimitation":13450,"aster":13451,"ĠTer":13452,")$.\\\\":13453,"($\\":13454,"beck":13455,"growth":13456,"ĠHur":13457,"verti":13458,"embedding":13459,"Wil":13460,"atomic":13461,"Ġcompleting":13462,"Ġfiniteness":13463,"Ġanten":13464,"unk":13465,"Ġcompetition":13466,"Ġdiscrimination":13467,"havi":13468,"Ġcanonically":13469,"Ġcorrectness":13470,"Ġdet":13471,"016":13472,"Ġ150":13473,"irch":13474,"Ġconductivity":13475,"Ġquartic":13476,"aded":13477,"semis":13478,"goth":13479,"Ġasc":13480,"PW":13481,"Ġdoc":13482,"Tok":13483,"School":13484,"},(":13485,"tty":13486,",|\\":13487,"ĠJuly":13488,"Ġpencil":13489,"Ġlinking":13490,"Jac":13491,"Ġdiscord":13492,"Iso":13493,"Ġneighboring":13494,"dev":13495,"Sz":13496,"olute":13497,"ĠScientific":13498,"Ġrare":13499,"Ġrenew":13500,"unif":13501,"+(-":13502,"Inv":13503,"correlated":13504,"attern":13505,"Ġrele":13506,"Ġdiagon":13507,"Yang":13508,"ĠPL":13509,"Ġdistinction":13510,"lance":13511,"istory":13512,"nh":13513,"argmin":13514,"redholm":13515,"Ġfunctorial":13516,"Ġcharacterizes":13517,"Ġcold":13518,"olumes":13519,"Ġdistributional":13520,"Ġger":13521,"bC":13522,"}}.$":13523,"ĠEducation":13524,"Ġvideo":13525,"ĠSC":13526,".}.":13527,"Sto":13528,"means":13529,"cht":13530,"Ġsupposed":13531,"ĠShan":13532,"Ġmagne":13533,"Ġspectroscopy":13534,"}].":13535,"Ġnumerator":13536,"ĠOpt":13537,"Ġrouting":13538,"imura":13539,"600":13540,"qp":13541,"''_{":13542,"Ġ69":13543,"ĠComparing":13544,"Ġaccord":13545,"^{+\\":13546,"Ġtrick":13547,"\\>":13548,"Ġ=\\{":13549,"techn":13550,"_{\\,":13551,"Ġencoura":13552,"Ġviolated":13553,"Ġoccurred":13554,"Ġexhaus":13555,"circuit":13556,"Ġvola":13557,"013":13558,"Ġfocuses":13559,"aya":13560,"References":13561,"Ġscheduling":13562,"together":13563,"Ġpercolation":13564,"ubini":13565,"Ġadmitting":13566,"Ġneutrin":13567,"Ġbusiness":13568,"Ġbelief":13569,"ĠDynamics":13570,"%.":13571,"ĠInequality":13572,"sif":13573,"ĠSecondary":13574,"RTY":13575,"Ġ92":13576,"schetz":13577,"IFAR":13578,"Ġease":13579,"Opt":13580,"ĠIC":13581,"dents":13582,"ĠUnlike":13583,"Ġdescend":13584,"Ġreaching":13585,"Bl":13586,"cies":13587,"}+\\|":13588,"{=":13589,"Ġbubble":13590,"Ġconsum":13591,"ifth":13592,"ĠStandard":13593,"gree":13594,"isition":13595,")})$.":13596,"stochastic":13597,"ĠVolume":13598,"Ġscalars":13599,"Ġdifferently":13600,"ĠPark":13601,"Ġbuffer":13602,"'}_":13603,"Line":13604,"dium":13605,"Ġallo":13606,"Ġabst":13607,"****":13608,"Ġ>\\":13609,"Ġrescaled":13610,"jn":13611,"mL":13612,"Ġcorrections":13613,"Ġrestrictive":13614,"ishi":13615,"ulo":13616,"âĢ²":13617,"_*^":13618,"Ġ\\\\[-":13619,"Ġ05":13620,"........":13621,"130":13622,"ĠComparison":13623,"Ġmarking":13624,"Ġcommand":13625,"alp":13626,"Ġreinforce":13627,"ĠNuc":13628,"Cond":13629,"plitz":13630,"uniformly":13631,"Nat":13632,"coupling":13633,"divisor":13634,"Ġhitting":13635,"Ġavailability":13636,"}}(-":13637,"Ġdegeneracy":13638,"Ġimpacts":13639,"Ġregis":13640,"}'$,":13641,"Take":13642,"Ġtack":13643,"017":13644,"Ġconverted":13645,"pu":13646,"Ġincorporate":13647,"\\!+\\!":13648,"Ġtriangulated":13649,"Conclusions":13650,"Ġepimorphism":13651,"Ġfacet":13652,"\":":13653,"tuples":13654,"ĠSpe":13655,"Ġ1999":13656,"ands":13657,"Ġ&&+\\":13658,"Ġfilled":13659,"Ġvisibility":13660,"mplete":13661,"]]$":13662,"injective":13663,"CrossRefGoogle":13664,"}}}\\,\\":13665,"ĠQuestion":13666,"El":13667,"|)$":13668,"ĠCy":13669,"Ġ87":13670,"integrable":13671,"Ġdependency":13672,"DFGDF":13673,"Ġconnects":13674,"priori":13675,"Ġambiguity":13676,"mx":13677,"ĠZhao":13678,"sph":13679,"ibrations":13680,"pow":13681,"ĠBV":13682,"Ġthor":13683,"Ġirregular":13684,"ĠHeegaard":13685,"baum":13686,"Ġensembles":13687,"Ġquantile":13688,"Ġvelo":13689,"ĠTest":13690,"Ġrelevance":13691,"Ġvehicles":13692,"NIST":13693,"Ġ{-":13694,"Ġphra":13695,"turn":13696,"Ġnutri":13697,"$$|":13698,"estern":13699,"Ġmonoids":13700,"!$":13701,"Basic":13702,"Ġ89":13703,"mv":13704,"arxiv":13705,"ĠAda":13706,"Hermitian":13707,"bas":13708,"-\\{":13709,"varOmega":13710,"Ġneighbours":13711,"Ġconsensus":13712,"Ġcub":13713,"Ġunified":13714,"Ġheterogeneity":13715,"Ġ=:":13716,"ĠFinite":13717,"Ġcustomer":13718,"Ġpolygons":13719,"Ġnine":13720,"far":13721,"Ġassignments":13722,"dS":13723,"ĠOxford":13724,"145":13725,")};":13726,"cry":13727,"tants":13728,"iger":13729,"Ġdisapp":13730,"sheaf":13731,"Ġreflections":13732,"Ġpassage":13733,"bZ":13734,"GO":13735,"dra":13736,"ĠKronecker":13737,"ĠFL":13738,"ĠOctober":13739,"mers":13740,"),{\\":13741,"concave":13742,"Han":13743,"ĠSDE":13744,"reff":13745,"FE":13746,"bw":13747,"ĠStudies":13748,"ĠInc":13749,"018":13750,"Ġdesigning":13751,"Ġanything":13752,"ĠPareto":13753,"definable":13754,"ĠLaurent":13755,"Ġcommer":13756,"defeq":13757,"ĠNetworks":13758,"ĠHong":13759,"pare":13760,"tron":13761,"Ġsplitter":13762,"ĠOper":13763,"'|\\":13764,"ĠZhu":13765,"onym":13766,"134":13767,"Ġepis":13768,"Ġrearrange":13769,"ĠImage":13770,"heat":13771,"IX":13772,"Ġ71":13773,"introduction":13774,"chimedean":13775,"ĠCC":13776,"uracy":13777,"))_":13778,"Ġ={\\":13779,"$}}\\":13780,"ilo":13781,"cin":13782,"$$\\|":13783,"dder":13784,"Order":13785,"Ġcustomers":13786,"Keywords":13787,"zier":13788,"234":13789,"hphantom":13790,"},\\,\\":13791,"negthinspace":13792,"Ġminutes":13793,"Ġlinearization":13794,"AX":13795,"equential":13796,"beds":13797,"Ġevolve":13798,"Ġcam":13799,"ĠSeptember":13800,"yama":13801,"ĠLegendre":13802,"sulta":13803,"eplitz":13804,"|-\\":13805,"ticing":13806,"Ġavoids":13807,"ĠDespite":13808,"uma":13809,"zhang":13810,"Ġcoal":13811,"Ġopposed":13812,"bigtriangle":13813,"Sy":13814,"dxdy":13815,"Ġoil":13816,"]{}":13817,"rhd":13818,"esting":13819,"Mh":13820,"Ġculture":13821,"Ġpt":13822,"phantine":13823,"}_+\\":13824,"licate":13825,"ĠKal":13826,"Ġseparates":13827,"ĠKolmogorov":13828,"itrogen":13829,"Ġalloc":13830,"Ġcollections":13831,"Ġinsertion":13832,"Ġpollu":13833,"Ġfacets":13834,"Ġunitaries":13835,"ĠBerg":13836,"}{@{}":13837,"Ġ91":13838,"Ġaugmentation":13839,"Ġocean":13840,"Riemannian":13841,"$,}":13842,"ordon":13843,"ĠDevelopment":13844,"topology":13845,"wu":13846,"{???}":13847,"},\\;":13848,"interpre":13849,"Sk":13850,"images":13851,"Ġ$^":13852,"ĠPen":13853,"anov":13854,"Ġignore":13855,"Ġ|_{":13856,"240":13857,")$),":13858,"Ġdiverse":13859,"Ġunivariate":13860,"itter":13861,"Ġvot":13862,"idal":13863,"arctan":13864,"cous":13865,"pg":13866,"Ġtile":13867,"sized":13868,"eth":13869,"=\\;":13870,"Ġcharacterizing":13871,"|}{|":13872,"colored":13873,"Ġinitialization":13874,"ĠNS":13875,"fschetz":13876,"trization":13877,"zzi":13878,"Ġfri":13879,"relliptic":13880,"Ġlate":13881,"lig":13882,"vDash":13883,"ĠOF":13884,"Conv":13885,"otents":13886,"varying":13887,">-":13888,"sfrac":13889,"ĠSecondly":13890,"ĠPoly":13891,"pie":13892,"Ġevolves":13893,"Ġsustain":13894,"ĠRed":13895,"Ġdecor":13896,"dq":13897,"Ġmobile":13898,"param":13899,"principal":13900,"Ġ$$(\\":13901,"OF":13902,"ĠComputational":13903,"many":13904,"IE":13905,"mbigu":13906,")=[":13907,"Ġscreening":13908,"Ġdescriptions":13909,"|}$":13910,"Ġingredients":13911,"Ġuncountable":13912,"elf":13913,"019":13914,"Ġcontributed":13915,"}}}^{\\":13916,"]^-{":13917,"bz":13918,"$\\,\\":13919,"Ġlive":13920,"oseph":13921,"Ġ$=":13922,"VID":13923,"Ġexposition":13924,"Ent":13925,"bruary":13926,"Ġ83":13927,"}\\\\[":13928,"Ġparadig":13929,"olo":13930,"Ġensuring":13931,"Ġ79":13932,"ĠHermite":13933,"ĠDecember":13934,"Input":13935,"Ġice":13936,"mcal":13937,"]}(\\":13938,"Ġemissions":13939,"Ġatmosphere":13940,"Ġsuffice":13941,"}\\},":13942,"Ġexc":13943,"Dom":13944,"Ġnewly":13945,"ordering":13946,"Ġconsistently":13947,"Ġtrends":13948,"SAT":13949,"orption":13950,"Ġcompressible":13951,"Ġpercent":13952,"ĠVor":13953,"Taking":13954,"Ġmaintaining":13955,"}\\;\\;":13956,"Ġcommutativity":13957,"Ġinterven":13958,"Ġincen":13959,"eref":13960,"eda":13961,"~~\\":13962,"nump":13963,"every":13964,"Ġlogics":13965,"Ġclauses":13966,"Ġclient":13967,"came":13968,"Ġheating":13969,"essing":13970,"onicity":13971,"Ġoutgoing":13972,"cio":13973,"Ġorganic":13974,"Ġprevalence":13975,"Ġattempts":13976,"TF":13977,"bX":13978,"Ġattractive":13979,"ĠSel":13980,"Ġverifying":13981,"Ġimmersed":13982,"ĠĊĠĠĠĠĠĠ":13983,"mutation":13984,"Ġdisplays":13985,"Ġadmin":13986,"Ġpatch":13987,"ĠCamp":13988,"Ġgrateful":13989,"STM":13990,"{$(":13991,"ĠJones":13992,"Est":13993,"inn":13994,"hydro":13995,"Ġanalyse":13996,"best":13997,"}}^*":13998,"ĠMechanics":13999,"Ġslopes":14000,"Ġindistingu":14001,"Ġmicroscopic":14002,"Ġ\\>":14003,"nderson":14004,"Ġ\\{-":14005,"lectric":14006,"Fourier":14007,"ĠĊĠĠĠĠĠĠĠĠĠĠĠ":14008,"Random":14009,"soft":14010,"ĠFlu":14011,"Ġcounted":14012,"Clo":14013,"Ġthresholds":14014,"Ġspacetime":14015,"Ġvelocities":14016,"Ġsurrounding":14017,"Ġoptimizing":14018,"Ġoscillators":14019,"$-$\\":14020,"Ġelsewhere":14021,"ĠChebyshev":14022,"vr":14023,"SY":14024,"Hopf":14025,"exam":14026,"frown":14027,"Sche":14028,"grading":14029,"Ġtranslated":14030,"Ġpricing":14031,"equilibrium":14032,"formative":14033,"ago":14034,"</":14035,"Ġinvestment":14036,"Ġreals":14037,"ĠIN":14038,"Ġblowup":14039,"Ġresolved":14040,"Sect":14041,"Ġcommercial":14042,"^+_{\\":14043,"iry":14044,"vectors":14045,"Ġresulted":14046,"metry":14047,"}]{":14048,"Ġexceeds":14049,"Ġportfolio":14050,"dating":14051,"geo":14052,"Ġhomogen":14053,"eds":14054,"ĠGamma":14055,"}^*$.":14056,"Tate":14057,"^*+":14058,"Ġsubalgebras":14059,"Ag":14060,"umford":14061,"ĠAdvanced":14062,"Ġfacility":14063,"ĠPhase":14064,"Ġpixel":14065,"irreducible":14066,"222":14067,"jectively":14068,"press":14069,"ĠNone":14070,"\\|=":14071,"1038":14072,"scalar":14073,"Ġmus":14074,"Ġweighting":14075,"ĠĠĊĠĠĠ":14076,"Ġsyndrome":14077,"_+$,":14078,"Ġthermodynamic":14079,"Ġcle":14080,"Ġnotes":14081,"jm":14082,"Ġmedic":14083,"Ġclassifying":14084,"''(\\":14085,"Ġ1998":14086,"Ġremote":14087,"Ġavoiding":14088,"Ġweather":14089,"typ":14090,"Ed":14091,"Ġbise":14092,"extre":14093,"ĠAcc":14094,"Ġ400":14095,"Ġemb":14096,"Ġindetermin":14097,"Ps":14098,"Ġtrigonometric":14099,"ĠTu":14100,"Ġconstructive":14101,"Ġvirtually":14102,"Ġnormed":14103,"_-,":14104,"EW":14105,"Ġ|$\\":14106,"bio":14107,"Ġglass":14108,"/{":14109,"Ġmonochromatic":14110,"Ġelabor":14111,"Ġ-(\\":14112,"Ð°":14113,"Ġ88":14114,"holder":14115,"ĠĠĠĠĠĠĠĠĠĠĠĠĠĠĠĠĠĠĠĠ":14116,"ĠSchwarz":14117,"ĠVis":14118,"Ġacknowled":14119,"splitting":14120,"Ġmaximization":14121,"explicit":14122,"Ġdegradation":14123,"Ġinvestigations":14124,"??????":14125,"ibonacci":14126,"Ġattains":14127,"ogenic":14128,"ENT":14129,"ĠPath":14130,"BMO":14131,"Ġ_{{\\":14132,"Newton":14133,"ichartz":14134,"checkmark":14135,"Ġconditioning":14136,"Ġdom":14137,"transform":14138,"Em":14139,"Ġdecoding":14140,"009":14141,"Ġgot":14142,"Ġoverhead":14143,"iophantine":14144,"generated":14145,"Ġattach":14146,"Ġquaternion":14147,"Am":14148,"\\|{\\":14149,"Ġunimodular":14150,"UV":14151,"Ġattenu":14152,"Ġconduct":14153,"ĠPDEs":14154,"Ġbars":14155,"Ġmg":14156,"~~~~~~~~~~~~~~~~":14157,"Ġhot":14158,"Estimate":14159,"Ġnoncommutative":14160,"skii":14161,"Number":14162,"pur":14163,"citation":14164,"rling":14165,"Ġderiving":14166,"}'}":14167,"cI":14168,"ĠMol":14169,"ubert":14170,"].$$":14171,"ĠYama":14172,"cking":14173,"linebreak":14174,")}[":14175,"mund":14176,"essential":14177,"rability":14178,"Ly":14179,"Ġaccounts":14180,"tists":14181,"\\{-\\":14182,"ĠGer":14183,"ĠAra":14184,"}}},\\":14185,"Ġstratified":14186,"charge":14187,"]{#":14188,"Ġsuspension":14189,"shi":14190,"ĠPres":14191,"Ġquantifier":14192,"))|":14193,"]}$,":14194,"science":14195,"Sm":14196,"Ġmessages":14197,"tangled":14198,"through":14199,"Ġgeometries":14200,"itors":14201,"Matrix":14202,"rrr":14203,"ĠProperties":14204,"Ġads":14205,"Ġstratification":14206,"[-]":14207,"ora":14208,"Ġdirectional":14209,"Lower":14210,"}}&\\":14211,"Ġ???},{\\":14212,"ĠDP":14213,"rote":14214,"anchor":14215,"}',\\":14216,"adaptive":14217,"suc":14218,"Ġnonclassical":14219,"Ġprox":14220,"ĠEr":14221,"paper":14222,"ĠDifferent":14223,"Ġstays":14224,"ĠWater":14225,"Î²":14226,"ĠRepe":14227,"Ġhandled":14228,"{????????":14229,"Pf":14230,"Sobolev":14231,"<|":14232,"Ġultimately":14233,"Ġcurved":14234,"ĠBal":14235,"Ġutilizing":14236,"Ġattributed":14237,"Ġassessed":14238,"Ġheld":14239,"Ġuncertainties":14240,"Ġannihilation":14241,"Ġpredictors":14242,"west":14243,"adjac":14244,"ĠISSN":14245,"ĠSz":14246,"Ġfragment":14247,"Optimal":14248,"iki":14249,"Ġincreasingly":14250,"tious":14251,"Ran":14252,"Ġ82":14253,"Ġdrugs":14254,"Regular":14255,"ullback":14256,"ĠThm":14257,"119":14258,"Gy":14259,"Ġaccordance":14260,"von":14261,"varieties":14262,"Ġruntime":14263,"Ġquantified":14264,"izability":14265,"Ġgradu":14266,"kins":14267,"Ġwaveguide":14268,"norms":14269,"Ġhomological":14270,"Ġsemicontinuous":14271,"leman":14272,"Ġperfor":14273,"^{+}":14274,"Ã¨":14275,"nonlinear":14276,"Ġdedic":14277,"ĠRepublic":14278,"Ġbosonic":14279,"PRA":14280,"mura":14281,"graphic":14282,"ĠâĢ¦":14283,"ĠGold":14284,"Ġconceptual":14285,"ĊĠĠĠĠĠĠĠĠĠĠĠĠĠĠĠĠĠĠĠĠ":14286,"TN":14287,"Ġlifetime":14288,"}\\|^{":14289,"ĠAnalogously":14290,"idable":14291,"175":14292,"1980":14293,"136":14294,"1981":14295,"Ġordin":14296,"Ġdela":14297,"Ġfoot":14298,"LI":14299,"ĠSchrÃ¶":14300,"Properties":14301,"Ġbecame":14302,"user":14303,"ĠPolish":14304,"liography":14305,"Ġsea":14306,"ĠPS":14307,"Ġphy":14308,")|_{\\":14309,"grade":14310,"lefteqn":14311,"HV":14312,"Ġtransferred":14313,"Ġreversed":14314,"tat":14315,"Ġinfluenced":14316,"ĠSDP":14317,"nack":14318,"Rel":14319,"Ġadequate":14320,"Ġinfected":14321,"OU":14322,"Mean":14323,"Ġworkers":14324,"ĠDy":14325,"ĠĊĠĠĠĠĠĠĠĠ":14326,"Ġinstantaneous":14327,"Ġcorrected":14328,"'}=":14329,"$&$\\":14330,"Ġtiles":14331,"Ġclients":14332,"ighting":14333,"Ġ$\\$":14334,"functional":14335,"Ġvaried":14336,"ĠRen":14337,"Hamiltonian":14338,"Global":14339,"Ġpriority":14340,"search":14341,"varPhi":14342,"Ġ194":14343,"propa":14344,"Ġgerm":14345,"ubin":14346,"mpler":14347,"Ġ)=\\":14348,"231":14349,"rought":14350,"ĊĠĠĠĠĠĠĠĠĠĠĠĠĠĠĠĠĠĠ":14351,"ĠLong":14352,"ĠChoosing":14353,"ticular":14354,"Ġcombines":14355,"oly":14356,"Ġreachable":14357,"alancing":14358,"Ġvolumes":14359,"titution":14360,"Ġmorph":14361,"$-\\":14362,"Construction":14363,")}\\|":14364,"kra":14365,"ĠZe":14366,"ĠApply":14367,"Ġloading":14368,"Ġsolely":14369,"sivity":14370,"^+}\\":14371,"Energy":14372,"Ð¸":14373,"Bur":14374,"uw":14375,"ĠFried":14376,"Ġdead":14377,"Error":14378,"Ġcopula":14379,"ĠError":14380,"Ġopin":14381,"ĠVI":14382,"Ġbiology":14383,"tick":14384,"Ġdiffeomorphic":14385,"ĠPrinciple":14386,
[...]
