#version: 0.2
t h
Ġ \
i n
Ġ a
o n
Ġ $
Ġ th
t i
r e
Ġth e
m a
e r
e n
a l
Ġ s
Ġ o
l e
_ {
i s
o r
t e
Ġ c
ti on
t a
Ġ Ġ
Ġ f
Ġ w
r a
Ġo f
{ \
n d
b e
a r
r o
e s
i g
Ġ p
ma th
Ġ in
Ġ$ \
Ġ t
d e
l a
Ġa nd
a t
Ġ is
in g
} \
e q
m e
s i
s e
^ {
( \
i c
Ġ e
Ġ d
h a
v e
} $
o l
i t
Ġt o
Ġ b
h e
c e
Ġ n
Ġ T
Ġth at
a n
} }
s u
en d
) $
c al
Ġ (
Ġf or
m p
Ġ re
t s
a tion
l y
Ġw e
g in
ra c
ĠĠ ĠĠ
l o
v er
ig h
be gin
f t
Ġc on
eq u
re f
l l
Ġ g
m b
s t
, \
Ġ &
math b
e d
Ġ be
c h
o u
Ġ u
_{ \
en t
i te
f rac
i th
Ġ m
Ġ on
c t
math cal
Ġp ro
g a
r igh
c tion
Ġ i
} {
r i
h o
$ .
Ġs u
e t
Ġ =
} )
Ġ S
o t
} (
$ ,
m ma
Ġa n
Ġc o
p h
q u
Ġw ith
Ġa s
Ġ I
mathb b
Ġ de
Ġ A
Ġb y
righ t
) \
} ,
le ft
} ^
equ ation
Ġ 1
ĠT he
d a
Ġ L
o re
in e
Ġ ma
g e
p p
Ġe x
i m
p ha
Ġ C
} _
te d
Ġ ha
al pha
p si
t er
b le
be l
Ġ F
te x
Ġa re
p er
la bel
e ta
u l
r m
Ġ v
t o
u r
l on
i r
re s
mb da
i l
m es
Ġ 0
= \
Ċ Ġ
e c
- \
Ġ W
m u
lo w
Ġ B
Ġw h
it y
Ġ M
l ine
o me
c ite
in t
p a
Ġ P
d o
} ^{
i v
a d
i f
u s
Ġ H
Ġ 2
Ġ h
} .
ra n
d u
| \
Ġa l
a s
ti mes
tex t
l ta
ti c
Ġ +
ig n
ĠT h
} _{
^ {\
Ġ {\
la mbda
u n
ph i
ti al
psi lon
ti ve
le q
Ġ -
u m
p ro
_ \
Ġ it
ĠĠ Ġ
o m
ig ma
Ġ R
Ġco mp
Ġth is
Ġc an
d s
g le
n a
Ġs e
b f
he re
o f
Ġp o
* }
ro m
ta r
u p
Ġ me
u t
Ġo r
ti l
ic h
en ce
d i
i z
ĠĠĠĠ ĠĠĠĠ
Ġ N
Ġ E
t r
Ġ l
do ts
a re
v ar
Ġ {
+ \
Ġha ve
Ġ\ \
p ar
su m
i de
ft y
in fty
Ġ D
n t
til de
Ġf rom
~ \
x i
tion s
o d
al ign
mathb f
f in
) ,
i d
si on
u re
Ġ le
Ġwh ich
be ta
Ġs ta
s igma
} (\
Ġi f
ro w
ore m
a se
b ig
ĠW e
t ri
Ġf ol
) .
Ġ (\
Ġ G
a te
r ho
Ġs a
Ġ x
0 0
p i
Ġfol low
) }
f or
b se
Ġa t
^{ -
c o
d ot
o w
$ -
h at
ga mma
math rm
^ \
p o
Ġ Ċ
i e
d er
Ġp a
ĠI n
y s
th er
}$ .
en er
Ġsu ch
eq ref
c es
Ġa ll
Ġd is
Ġm o
th eta
Ġ$ $
ta u
de lta
un ction
o ver
Ġw here
s s
m s
n e
c a
Ġ$ (
m ent
Ġ k
t y
ite m
Ġthe n
e ll
)$ .
mp le
ra y
i es
ta in
v are
vare psilon
qu ad
c k
} {\
a ch
p e
}$ ,
c dot
pa ce
Ġf unction
Ċ ĠĠĠ
i a
s o
f f
par tial
su bse
ou nd
Ġo b
Ġu n
ma l
at or
ome ga
ar ray
en ts
ho w
mb er
B ig
Ċ ĉ
Ġa pp
T he
Ġn ot
0 1
Ġs et
me ga
O mega
o te
) =
a ct
su re
Ġ qu
s f
e re
b ar
ĠL et
u mber
Ġn e
s ta
} }\
D e
\ \
Ġ |
ul ar
se d
^ *
f ra
an t
m in
g eq
tar row
r u
p l
Ġp ar
Ġthe re
o times
w ide
w o
Ġ y
)$ ,
i al
Ġ [
Ġon e
fra k
ol u
Ġha s
ou s
Ġg ener
l d
i ll
Ġ O
ic al
var phi
o x
o g
pro of
i b
Ġ K
l u
s ing
su l
t ing
al u
c on
Ġan y
si tion
math frak
Ġ }
per ator
$ \
if f
ar y
re e
Ġ 3
Ġs how
righ tarrow
G a
Ġre sul
ol ds
Ġde fin
Ġt wo
a b
Ġ U
n u
in ce
Ġ$ {\
Ġf in
Ġn o
p ec
Ġ ra
De lta
Ġ X
h i
nd er
ran gle
ro up
Ġ lo
ta tion
Ga mma
Ġsu b
over line
la n
\ |
Ġ r
Ġsta te
k e
ĠF or
re d
d ing
e x
Ġn on
Ġ V
Ġg iv
c c
} _{\
Ġi mp
ĠTh en
m o
Ġ ver
Ġcon t
se t
Ġb ound
Ġe ach
eq n
e psilon
b la
ĠTh is
$ $
n ce
ca p
}^ {\
Ġc ase
? ?
de l
r t
s q
Ġd iff
Ġa b
Ġ J
Ġfollow ing
Ġw ill
Ġs ome
â Ģ
le m
Ġs t
s c
na me
ra ph
Ġal so
Ġre s
th e
a pp
Ġd o
e mp
Ġd en
ir st
Ġ equ
it s
Ġp er
l dots
ys te
Ġc la
Ġin ter
n o
tr ic
Ġn umber
Ġon ly
ir c
} ,\
Ġex is
sq rt
[ \
tri x
i an
es s
na bla
Ġa d
Ġs o
Ġa r
Ġ en
e m
p t
p res
f ig
p on
ct or
Ġ z
Ċ ĠĠĠĠ
1 0
b ra
Ġc or
or ph
) )
en sion
Ġ\ ,
ti me
al l
Ġ la
Ġc ha
^{ (
te g
a st
ĠL e
l im
o se
ĠThe orem
i x
w e
di tion
Ġv ar
ti es
} =
il ity
o p
g or
Ġob tain
g es
\ ,
Ġs yste
Ġ j
1 2
Ġmo del
eqn array
s er
Ġgiv en
v es
Ġ 4
Ġfollow s
s pace
la tion
s si
ar d
i p
] {
al ly
ation s
de f
Ġ\ [
Ġdiff ere
lan gle
ĠI f
ou r
is e
o th
po sition
si der
2 01
Ġcomp le
y mb
Ġ es
b u
Ġt ran
ymb ol
p la
ver y
) ^
Ġf irst
le d
du ce
Ġ ta
a mple
olu tion
} )$
Ġv alu
Ġo ver
l ic
ti cal
or k
g h
wide tilde
Ġ\ ]
Ġ time
a m
i tion
al ity
Ġme a
L a
Ġs pace
Ġas su
p end
lo g
Ġo ther
Ġbe t
ti sf
) =\
c re
iz e
ff ic
' s
Ġs tr
Ġo p
& \
Ġpro of
or m
Ġle t
ve d
Ġsa tisf
ti ma
a k
Ġd es
p s
Ġg roup
Ġpro ble
on t
a u
er s
emp h
Ġe v
Ġ equation
Ġ line
ra me
v i
Ġd a
Ġ Z
app a
Ġ Q
P hi
c lu
Ġe very
ch i
k appa
ĠLe mma
Ġo ur
c irc
ti t
j e
mb ox
I n
b olds
Ġp re
. ,
Ġu sing
ma r
Ġwh en
le s
bolds ymbol
Ġ Y
o perator
Ġu se
Ġ te
lon g
ge bra
} }$
ĠP ro
p ri
en sure
ensure math
Ġ :
\ {
Ġit s
c ol
Ġapp ro
} [
Ġex t
operator name
im ension
1 1
ĠĠĠĠĠĠĠĠ ĠĠĠĠĠĠĠĠ
we en
La mbda
se ction
igh t
W e
ma n
Ġf act
er n
Ġin teg
ma in
Ġbet ween
Ġor der
le mma
orph is
Ġt er
Ġpro per
} -
Ġw as
ĠI t
ul ti
Ġpo int
tri bu
ol d
Ġre g
st ru
Ġdefin ed
c i
ro u
um er
th m
Ġthe se
in d
i on
Ċ Ċ
1 9
Ġg raph
i re
ou t
te s
c ri
subse t
b ib
) ^{
Ġfin ite
for ma
ffic i
Ġ <
Ġcon sider
} +
Ġda ta
2 0
ol og
Ġsa me
Ġgener al
c up
u st
a ted
Ġes tima
Ġp ol
ou ld
Ġse e
S igma
a ble
Ġ& \
Ġ\ {
equ ence
' '
si m
a nd
Ġan al
pe ct
l i
de d
gor ith
as es
ĠB y
Ġpar tic
res pon
Ġsyste m
| ^
Ġ 5
Ġfor m
iz ation
d is
) }\
n ow
o ve
Ġu nder
ĉ ĉ
ĠA s
Ġp res
er t
Ġmea sure
c dots
ma ll
a y
Ġm ore
ar ge
Ġden ote
ct ure
Ġ ve
d en
Ġresul ts
Ġexis ts
Ġme th
ant um
in u
text bf
f ine
z eta
Ġc al
ie ld
a c
on d
ver t
Ġ ,
}) .
Ġre pres
wide hat
Ġcor respon
Ġre la
Ġth an
Ġo ut
n on
ĠS ince
in ts
}} (
Ġresul t
}) \
Ġtran s
} =\
ref ore
Ġ$ (\
or s
Ġproble m
Ġs i
Ġo perator
}} {
pri me
b m
s h
Ġb ut
. }
Ġab ove
) -
Ġc ur
p m
c or
ĠS e
Ġs im
si tive
in f
on g
) (
Ġma n
Ġst u
Ġin de
; \
Ġcon tain
Ġu sed
Ġs h
Ġ q
Ġ .
or mal
r ic
Ġma y
i qu
] $
ces s
er o
or y
t en
se c
r al
Ġu s
co mp
a si
f ont
\ !
m m
tive ly
mar k
sc r
Ġin to
ĠR e
orphis m
l ies
ma trix
Ġcomp u
ho m
n ot
Ġ ro
y n
iv al
Ġcon sta
Ġt y
Ġc ol
Ġ& =
iz ed
Ġc ho
the orem
Ġs ince
Ġs olution
Ġm ulti
c y
r y
Ġc lo
t on
ta b
Ġex ample
subse ction
Ġ _{
il ar
Ġma p
s tar
{ {\
}^ \
j ec
y m
Ċ ĠĠ
e ver
Ġ\ |
ve c
c ent
Ġ >
c he
Ġve ctor
Ġal gebra
s la
te q
Ġpa rame
Ġqu antum
} |
- -
math scr
2 00
c ha
gorith m
Ġcon dition
v ing
d y
n eq
Ġe d
}) ,
Ġline ar
Ġm in
Ġdis tribu
] \
t t
si ty
math sf
ase d
b ab
/ \
Ġse ction
Ġ he
Ġpro ve
Ġfunction s
en tial
pro p
mu la
u nder
b it
Ġassu me
Ġ\ (
Ġh y
Ġe le
Ġcla ss
Ġcon stru
ia ble
s k
duce d
Ġma trix
m id
. .
Ġlo cal
Ġstr u
}_ \
g ra
Ġdiffere nt
k et
' $
i i
Ġs equence
k ern
Ġde fine
ra tion
Ġthe orem
Ġs ec
Ġp la
Ġcont inu
ĠTh us
u e
. \
ta ble
L et
h en
Ġb oth
Ġwe ll
subse teq
p ut
Ġsu r
i ed
i o
u la
Ġpo sitive
Ġme an
Ġcon s
Ġpro bab
Ġ 6
P ro
Ġpartic ular
ĠS u
f a
h space
non umber
q quad
umer ate
{ (
Ġk now
i ver
Ġparame ter
fig ure
\ }$
pl it
om ial
min us
Ġa c
1 3
al s
or d
Ġsu pp
en umerate
Ġt ri
Ġh igh
Ġi den
< \
Ġequ ival
i j
Ġs ing
ic ation
Ġpo ints
t ro
or t
a me
) :
Ġa u
is h
ma x
set minus
Ġconsta nt
Ġd ire
) |
Ġimp lies
ti f
n g
Ġpro du
ĠC on
Ġw ork
) ]
} +\
m ic
1 5
Ġ$\ {
is t
Ġthe ir
b ox
Ġpro cess
Ġob ser
Ġre al
Ġpro v
Ġin equ
forma tion
th or
Ġn ow
ol l
ffici ent
Ġpa per
a ck
be d
c us
se e
ve l
Ġt ra
g er
V ert
Ġh olds
Ġcon ver
ind ent
Ġrepres en
rac ter
Ġdes cri
Ġs pec
at ure
Ġvalu e
} :
R e
Ġvar iable
( {\
âĢ ĵ
\| _{
P si
}\ ,
d ic
) }{
Ġcomple x
Ġs mall
pl us
ĠF ig
fin ition
o v
Ġp ri
Ġg et
e ar
) +
en g
su p
e l
i ve
Ġsec ond
lim its
} ]
ur ther
Ġop ti
^ +
Ġf ix
}} {\
}\ \
Ġ `
Ġd er
Ġc ou
}} ,
ta n
Ġs ign
b i
nd om
) ,\
Ġ$ |
~ $
le t
Ġde g
du ction
ti v
pend ent
ĠSe ction
xi ma
Ġpa ir
Ġd imension
ĠPro position
w ed
Ġmeth od
no indent
Ġ1 0
1 4
T h
olog y
Ġbe en
Ġstate s
ĊĠĠĠĠ ĠĠĠ
a ge
Ġs te
Ġde ter
Ġfor mula
Ġcorrespon ding
pla y
Ġdo es
big g
Ġcha racter
Ġ ??
Ġa cc
Ġwe re
Ġmo st
Ġ }\
ym me
Ġf ield
yn omial
1 6
Ġexis t
Ġre f
Ġal gorithm
{ $
{ -
Ġ -\
o plus
Ġs p
oll ary
u se
Ġcla ssi
iqu e
h y
o k
in c
Ġw r
Ġbound ed
um ent
Ġres pec
u nd
Ġl im
b ility
Ġe ff
ĠM ore
} -\
su b
}^{ (
rou gh
Ġra ndom
Ġe lem
ic e
ĠH ence
Ġty pe
er r
inf o
Ġprobab ility
ĠThe refore
Ġd ia
Ġpo ssi
ou gh
Ġ low
Ġvalu es
Ġdefin ition
on e
Ġsu bse
di tions
Ċĉ ĉ
ĠD e
bib info
Ġ )
g roup
i ant
st ra
Ġu p
w ork
m ents
u b
Ġre qu
ate s
tic es
Ġstru cture
at ing
Ġsim ilar
Ġter ms
}} _
Ġpol ynomial
under line
n ess
Ġsatisf y
2 2
Ġl arge
sla nt
ur al
i ties
Ġcomp on
Ġ hom
Ġs ol
p re
a g
is tic
align ed
en s
i le
Ġm od
ĠT o
Ġf e
Ġin tro
Ġobtain ed
vi ous
Ġcha n
Ġ$ [
Ġde pend
Ġz ero
equ iv
Ġdistribu tion
Ġas so
Ġstu dy
om orphism
l f
Ġ 7
Ġ ran
le ss
F or
Ġ?? ?
Ġthe y
Ċ ĠĠĠĠĠĠĠĠ
w ise
Ġcon ditions
o s
Ġne ed
Ġinequ ality
i ly
Ġw ho
o b
dis play
c m
wed ge
v alu
name font
ĠN ote
i tial
item ize
c ted
Ġ |\
Ġ âĢ
mo oth
u ll
Ġin clu
Ġs pa
tex tit
n ec
ie l
) }$
| _{
Ġrespec tively
Ġi de
h line
ction s
Ġcontinu ous
u res
eng th
Ġappro xima
ft er
n ing
n al
\ }
2 1
c ia
s te
fin ite
ys is
g y
Ġth ree
Ġ 8
jec tive
Ġvar i
Ġpa th
for m
ex p
Ġ "
au thor
an g
to m
Ġin cre
n er
Ġsatisf ies
Ġthe ory
P i
d imension
pp ose
pro d
Ġma in
ĊĠĠĠĠ Ġ
Ġ how
Ġg e
col on
^{ -\
ne w
ta tions
le ar
v en
Ġ$$ \
Ġc a
ĠH ow
ti ce
st o
Ġsta nd
s plit
ig en
si de
ma p
z e
ch n
$ }
) ^{\
m on
olu tions
rac t
ĠâĢ ¢
im um
Ġassu mp
v al
Ġelem ents
e ct
cal l
} '
Ġres pect
ro l
ĠM a
ical ly
en e
Ġg o
Ġm on
2 5
Ġappro ach
if ic
Ġco m
Ġst ra
k ing
Ġfin d
}$ -
Ġ right
Ġproper ties
n orm
pa ra
Ġin itial
ĠA l
Ġver tices
Ġre st
math op
ca use
y na
Ġele ment
on al
w er
Ġequival ent
m i
_ *
Ġn ormal
st y
ne l
Ġw ould
) _{
Ġne w
mp l
Ġto p
Ġcal led
u al
Ġ` `
rou nd
Ġver tex
iel ds
Ġsi mple
Ġse ts
ta nce
( -
tion al
Ġshow n
he d
Ġ2 01
sty le
mb in
Ġasso cia
L e
Ġev en
Ġ end
s in
Ġex act
Ġpar t
9 9
1 8
ĠHow ever
2 3
Ġ err
Ġar g
Ġfix ed
Ġbe cause
Ġha nd
pl ic
Ġdeter min
ĠU n
Ġm ust
per im
x t
}} }
w a
Ġprodu ct
ly ing
tic s
for all
b b
Ġbound ary
fa ce
if orm
}^ *
Ġ+ \
Ġun ique
. ~
Ġc y
Ġcal c
u lation
ate gor
Ġle ast
Ġs mooth
ener gy
ĠMore over
Ġproper ty
Ġs ymme
Ġex pres
Ġdeg ree
Ġl i
' \
1 7
The ta
Ġcomple te
}} _{
ĠC o
& =
Ġe igen
nec ted
Ġ= \
Ġman y
tr y
b ul
o ds
Ġth rough
, -
as is
o int
v ial
Ġb i
Ġcor re
ing s
to p
g raph
emp ty
Ġpossi ble
Ġshow s
~ ~
Ġinde pendent
Ġcon clu
cap tion
Ġth us
d x
Ġi ma
ul t
dimension al
Ġcont rol
Ġf am
Ġ 9
âĢ ī
Ġclo sed
ra w
Ġ: =
Ġgiv es
Ġf a
m is
an ce
Ġcomp act
Ġs olutions
' _
Ġh ence
Ġdiffere n
) ;
Ġassocia ted
C on
var iant
ith er
Ġb ased
Ġequation s
Ġed ge
Ġanal ysis
Ġwe ak
Ġ left
Ġg ra
Ġcom mu
Ġs er
Ġd iv
l in
r on
ĠS o
Ġcont ra
Ġter m
co s
Ġdis cus
id es
= (
Ġreg ular
o sition
}} (\
}^{ -
en cy
ar row
Ġw ay
) }(
orph ic
Ġsing le
_ +
ie w
n s
da g
Ġop en
Ġsyste ms
line ar
Ġestima te
ve x
Ġn at
k s
de finition
Ġw a
Ġs ize
_{ (
Ġhy per
display style
text up
. $
,\ ,
Ġc irc
Ġc h
bul let
ig in
Ġs tar
es t
Ġco e
Ġstand ard
)$ -
ar ch
Ġlim it
Ġapp lic
h box
g ence
Ġad dition
tex ts
Ġl ength
ĠSu ppose
Ġprov ide
pro position
Ġal low
w here
Ġle mma
$ )
re mark
Ġequ al
The orem
Ġle vel
' (
: \
je ct
ro ss
Ġe t
Ġab out
om orphic
2 4
me d
ver se
en ted
Ġin formation
a tive
Ġex p
Ġ energy
} )$.
d es
Ġs cal
Ġwh ile
map sto
Ġ\ (\
Ġstr ong
Ġex perim
p r
0 5
et work
) )\
d d
i red
tar y
Ġc ases
Ġcontain s
' ,
Ġ /
Ġla t
bi bf
cha n
t or
lo ck
ro p
Ġspa ces
t in
Ġs che
gra m
Ġ _
f ul
qu are
# #
en ces
Ġma x
^ -
Ġb asis
man n
ve lo
* {
c ases
] ,
ga tive
leq slant
Ġmodel s
du le
Ġrest ric
ĠS ch
Ġvariable s
Ġe m
Ġte chn
tiv ity
Ġknow n
Ġo per
es e
{ ??
tan gle
ga in
Ġdire ct
Ġpro po
con g
cent er
Ġre main
b ack
Ġgener ated
Ġdo main
Ġpre vious
Ġcy c
0 3
} ;
re st
Ġd yna
Ġun iform
_{ {\
Ġclassi cal
) ^{-
ĠN ow
ti s
Ġopti mal
Ġme tric
Ġparameter s
)\ ,
Ġsa y
Ġl in
Ġin te
d im
c ur
t al
Ġe ither
)\ \
\ ,\
pp er
Ġanal y
Ġs pect
Ġin v
) )$
Ġwr ite
Ġs en
Ġsub s
}} ^
is ts
si ve
Ġsu m
\ )
Ġg ive
Ġt ru
p le
Ġeff ec
an gle
Ġt re
ti ty
Ġsubse t
Ġcon nected
s on
lo b
Ġc ent
c l
Ġlow er
Ġde comp
w ard
ta nt
it u
Ġmeth ods
as ing
xi mal
od es
\ {\
ĠA n
Ġerr or
Ġli ke
Ġn ote
d t
ru le
) -\
) /
i mal
hy si
Ġgroup s
Ġed ges
Ġimp or
Ġco mbin
Ġinteg ral
Ġ ent
Ġ\ ;
s p
Ġ here
red ic
Ġder iv
}} }\
Ġw or
Ġin f
text rm
Ġrepresen tation
bit ra
)} {\
c ise
Ġsu fficient
Ġsa mple
Ġin sta
st er
Ġs c
du c
) +\
Ġin finite
Ġmean s
b ound
Ġlo g
a p
st ract
p matrix
} |\
Ġman if
Ġnat ural
Ġn etwork
Ġc ategor
ĠE x
Ġwho se
k es
Ġoperator s
ord in
b or
p ts
. ~\
d iv
Ġfact or
it er
A s
y mp
i od
Ġc he
Ġle ad
Ġthe m
[ (
do w
c om
ĠAs su
Ġar bitra
Ġa m
ĠThe re
ex t
Ġ ĊĠ
] .
ĠE q
Ġste p
um n
Ġinteg er
is ion
e e
Ġpres ent
Ġp r
Ġp ha
}} ^{
{ $\
c la
Ġa g
Ġext ension
je ction
de g
Ġiden tif
Ġra te
if ied
Ġa fter
Ġbe low
Ġor igin
lo or
sc ri
res s
n ote
\ '
tit le
ĠFig ure
c s
t ur
mo st
sion s
_{ -
en tation
velo p
Ġla st
Ġin dic
o o
Ġver y
Ġcur ve
Ġsub group
o ted
in ally
Ġd ue
Ġa ction
s mall
Ġnumber s
0 4
Ċ ĊĠ
ĠUn iver
3 4
inc ip
th es
Ġe mp
Ġfam ily
olog ical
Ġn ec
Ġsur face
le ction
Ġma ps
ve e
ic s
: =
ĠO n
Ġassump tion
Ġta ke
Ġset ting
p or
Ġre lation
ĠH ere
Ġf ree
e y
Ġf re
ĠA pp
mma nd
n ormal
sk ip
col or
pla ce
, $
| ^{
Ġpro ved
sta ck
al le
\ }$.
Ġcon vex
ere nce
Ġp redic
ot ential
0 2
long rightarrow
Ġqu an
Ġsi mp
empty set
} )$,
Ġwith out
Ġmea su
ab s
er g
it en
} /
big l
Ġre ad
Ġconstru ction
at er
Ġthe refore
Ġsu per
cre te
Ġcompu tation
Ġsatisfy ing
j oint
$ ;
re l
t ra
\ "
d raw
ct ing
= {
Ġcalc ula
Ġth ose
es tion
s en
Ġproble ms
v a
or ding
x y
Ġbe ha
Ġpo wer
~ $\
Ġge ome
Ġf urther
I f
p tion
ho ton
big r
a ti
Ġf ound
Ġbe ing
tical ly
Ġma ximal
m ore
or ollary
Ġto tal
Ġma r
Ġdis tance
s es
Ġne igh
Ġden sity
a ction
Ġstu di
al gebra
Ċĉ ĉĉ
f ore
c ument
Ġtru e
o ot
\ |\
Ġs ide
Ġte st
Ġo cc
iv en
dag ger
E x
Ġgraph s
] $.
Pro of
Ġde ta
) _
ĠĠĠĠĠĠĠĠĠĠĠĠĠĠĠĠ ĠĠĠĠĠĠĠĠĠĠĠĠĠĠĠĠ
si an
Ġnec ess
lob al
Ġi r
ĠF urther
ĠI nd
re g
Ġco mm
Ġsh ould
tab ular
li ed
9 8
Ġ& &
Ġobser v
Ġ ^{
T o
C o
if y
ent ly
Ġpro ce
o ther
Ġcompon ent
pp ing
Ġc lear
Ġimpor tant
3 3
less sim
Ġ$ |\
,\ \
9 7
ĠTh ese
Ġ ho
Ġp otential
Ġde velop
Ġ2 00
Ġpha se
il s
a us
Ġa long
Ġa gain
Ġem bed
do cument
Ġf ib
Ġde te
Ġc ell
ĠĠ Ċ
}( {\
Ġne xt
Ġno tation
r r
Ġinde x
la t
ic k
Ġdyna mic
I I
Ġf low
Ġexist ence
ol ic
ce pt
l er
ĠF rom
Ġconver gence
ou nt
Ġty p
Ġapp ly
Ġc ould
0 6
alle l
Ġcontra dic
ymp to
Ġsymme tric
in s
\! \!
i er
app ro
1 00
Ġsing ular
ta g
er tain
Ġcompon ents
: =\
O S
Ġno de
la p
at ter
c iten
Ġ long
Ġv ia
2 7
Ġu pper
ffici ents
Ġrela tions
lo c
Ġarg ument
ame font
bib namefont
Ġmin imal
s tic
citen amefont
Ġco ver
Ġcon stra
t ure
side red
Ġpr incip
n ts
Ġen tangle
Ġis omorphism
Ġun it
Ġra di
ĠĠĠĠ ĠĠĠ
Ġex pon
Ġco ordin
Th is
re nt
Ġser ies
ian ce
] $,
tric es
Ġestima tes
Ġarbitra ry
Ġcon sidered
tit u
ĠU sing
Ġeigen valu
Ġse para
}) =
Ġimp ro
b in
ti tion
Ġn umer
o id
k er
) {\
Ġbeha vi
e ma
me di
Ġs equ
Ġa ver
0 7
Ġreg ion
Ġb und
si ze
^* $
x space
z ero
Ġit er
ĠĠĠĠ Ġ
l n
- (
d frac
Ġcoe fficients
Ġ( $
bibf namefont
Ġele ct
Ġle ar
Ġspec ial
Ġfre qu
3 5
Ġs ti
Ġran k
} }$.
ab stract
ĠC h
ation al
2 8
Ġcho ice
Ġima ge
Ġdescri bed
2 6
Ġex pec
il ton
ĠUniver sity
Ġinte rest
plic it
ar k
Ġchan ge
\ }\
9 5
Ġext en
Ġdenote s
ri d
ĠAssu me
wa ys
ra ble
Ġ( -
0 8
Ġper iod
oot note
Ġma t
u ch
ar t
io ta
orphis ms
ta tive
dow n
Ġ quad
ĠN e
Ġy ields
Ġl ar
Ġen ough
Ġf our
. $$
et y
Ġa ff
Ġconclu de
Ġche ck
Ġin variant
) },
' }
9 6
forma nce
Ġexperim ent
ar is
Ġma ke
ty le
Le mma
Ġma trices
Ġmeasure ment
tab l
Ġ times
} <
Ġmax imum
ment al
du al
Ġocc ur
Ġg re
Ġtri vial
Ġdes ign
Ġwe igh
( (
Ġs ha
Ġcan not
Ġlo ss
Ġt ree
ge ther
{ }
Ġwe ight
ci ble
^{ *
i k
\ }$,
Ġev alu
Ġ&= &
g n
f ootnote
co mmand
Ġcho ose
|\ !
Ġcla im
og ene
Ġor th
Ġh old
olu me
i or
le v
du cible
Ġinter val
r ing
}} ,\
Ġsen se
Ġes tabl
as y
Ġ??? }
3 0
p ic
Ġrela ted
D E
Ġiden tity
}\ |
Ġ- -
Ġinv ol
po thes
Ġopti m
Ġpropo sed
ĠH am
ch ing
Ġide al
ĊĊ Ċ
7 5
S T
e ed
b olic
' )
re ad
Ġe asi
Ġas s
Ġwh at
Ġstra teg
Ġte mp
or der
Ġn orm
Ġpar tial
Ġapproxima tion
Ġf rame
Ġb lock
Ġpre cise
Ġt ur
w ith
im ilar
Ġdifferen tial
medi ate
N ow
Ġcou n
Ġcomp are
Ġdecomp osition
var rho
y er
Ġhigh er
u ra
Ġc ertain
id th
Ġext end
Ġj ust
j u
M a
as on
Ġin put
Ġ$ -
in ter
Ġcon ne
je cture
Ġsche me
Ġd x
Ġme chan
Ġin duced
g u
si ble
ĠN o
b re
per p
\ ]
co mes
3 2
m od
Ġc ar
ĠCon sider
ur ing
la ted
ver al
re m
Ġal ways
s al
g et
\ [
4 5
a f
Ġab s
Ġb u
t frac
Ġsign ific
] }
Ġir re
om in
Ġclass es
Ġex plicit
b its
{ {
Ġp hysi
tric t
Ġin ves
S u
Ġi mple
the ma
Ġper formance
cor ollary
b s
in ary
c ing
Ġ$ .
Ġwa ve
Ġy ou
ĠS ci
ga te
un ctor
v an
,\ ,\
Ġexact ly
ilton ian
} [\
Ġg a
3 6
u ally
ch ie
$ ).
Ġcharacter istic
m it
Ġal most
b old
w h
Ġp hoton
Ġcompu te
sla sh
Ġas ympto
, {\
Ġf il
Ġcategor y
g en
/ /
it ten
e p
ut ing
}) }
par t
our nal
ter s
Ġe asy
Ġde c
ĠW hen
Ġt or
no de
F ig
er nel
iz ing
& &
Ġa chie
Ġeff ect
I t
^* (
Ġ1 2
Ġ[ \
Ġ2 0
Ġs to
Ġmanif old
} }$,
our ce
ĠC orollary
Ġapp ear
asi c
Ġbe long
Ġdescri be
Ġinsta nce
c ome
Ġapp lied
du ces
Ċĉ Ċ
) }}
}{ |
Ġr ing
ex ample
b y
ĠF inally
Ġden oted
sta nd
Ġb ack
Ġre call
Ġi m
5 0
ste ad
Ġsti ll
s ch
Ġle ss
{?? }}
Ġpri me
Ġdia g
gorith ms
Ġse veral
Ġs trict
Ġm om
: //
_ -
Ġbe fore
bra ce
Ġ$ ,
Ġdiffere nce
Ġto gether
Ġclassi f
Ġbound s
Ġexten ded
Ġg u
B y
Ġconstru ct
ens or
ĠF irst
Ġanal og
Ġg lobal
m ul
Ġintro duced
Ġintro duce
Ġhy pothes
in ing
p en
) >
Ġo dd
Ġc all
ĠR es
Ġs he
Ġmo du
i la
ĠL ie
Ġdia gram
n ces
Ġlocal ly
ho od
v ir
si tions
ĠFurther more
}{ (
$ $\
Ġwith in
Ġcur ves
ol ar
Ġk ernel
Ġcomm on
Ġstate ment
Ġf o
Ġsupp ose
c ial
appro x
Ġv an
Ġr un
on ical
ĠMa thema
is hed
end ix
le c
ogene ous
ĠP o
big cup
bin om
il b
Ġequival ence
Ġb ase
=\ {
it z
Ġexample s
Ġre ason
Ġexpres sion
ct ures
mo dule
^* \
) })
S S
Ġm ix
or g
i ved
a v
Ġf ull
Ġu su
il d
Ġw he
A B
ĠO ne
Ġ$\ {\
ĠCo mp
) ^\
ri es
Ġs quare
ĠĠĠĠ ĠĠ
ĠInd eed
Ġsignific ant
new command
m c
im its
Ġan other
in ed
Ġcontain ed
ite d
back slash
de t
ĠHam iltonian
Ġqu asi
} &
}} _{\
Ġaver age
Ġeasi ly
Ġv al
Ġref er
Ġco st
Ġde cre
ĠO ur
A l
tic le
Ġinves ti
Ġdynamic s
o ti
c r
g ing
te ly
L arge
\ %
n ol
Ġver sion
jec ts
ĠG iven
A T
Ġdiv is
9 4
Ġdetermin ed
ĠB ut
Ġad j
da te
Ġc lu
) }_{
Ġrequ ire
ar p
3 8
Ġno ise
Ġa ct
+ (
Ġal gorithms
Ġf lu
Ġrela tive
sim eq
Ġc ri
il i
Ġran ge
ĠW ith
}} )
Ġirre ducible
$ :
B bb
Ġ row
und a
Ġacc ording
{ |
00 0
Ġsta ble
Ġd ual
lu e
Ġn ame
le ct
Ġapplic ations
Ġclo se
Ġpol y
Ġf unctor
Ġsupp or
Ġv iew
Ġalgebra ic
Ġ$ {
ri er
Ġvector s
Ġ\ |\
Ġbund le
z ed
ma t
lo cal
Ġg en
al g
Ġf ields
Ġwhe ther
b o
al f
ha n
b matrix
Ġdire ction
Ġpair s
Ġs plit
E OS
c ref
Ġc ross
Ġpar tition
as s
v iew
Ġrequ ired
var theta
Ġne gative
r f
Ġm orphism
4 0
ĠM o
h skip
Ġproce du
Ġallow s
| |
Ġsh all
Ġembed ding
con t
3 7
Ġre duced
cy c
vir on
b il
nol imits
Ġpro jection
Ġm uch
Ġ label
s pec
Ġcontradic tion
Ġg row
aris on
ĠG aus
Ġincre asing
for med
ot op
Ġ ess
Ġdis crete
tic ol
Ġgeneral ized
is m
ll ip
ĠL a
3 9
Ġre place
ĠS imilar
Ġqu estion
Ġsufficient ly
Ġis omorphic
Ġquad ra
rac tion
di ent
) (\
text tt
Ġsta tis
Ġcur rent
Ġpolynomial s
Ġsupp ort
.. .,
Ġta king
I nt
Ġuniform ly
Ġdis tin
mul ticol
ou n
Ġ ,\
Ġneigh bor
Ġnecess ary
Ġcon ven
en tary
Ġre se
m ult
k en
Ġnumer ical
m ical
at ures
Ġk ey
en tion
Ġinter section
Ġcho sen
Ġequ ality
Ġwor ds
w ar
Ġvari ous
multicol umn
ĠĊ ĠĠĠ
Ġfor mal
Ġi ll
geq slant
Ġpres ented
) |\
Ġmin im
s cal
Ġpo p
Ġmulti ple
og onal
Ġcon f
ĠĊ ĉ
E E
Ġorigin al
unda mental
\ }.
Ġmin imum
tri vial
Ġpo sition
e ps
Ġ math
Ġad d
Ġlear ning
}} .
Ġbehavi or
M S
Ġv is
S e
if ication
Ġpres er
Ġre cent
Ġpa ra
â Ī
rop y
Ġra tional
Ġfor ms
ne gative
Ġal ter
low er
= -
no tag
Ġim mediate
Ġcon tribu
Ġcorrespon ds
in de
i tary
Ġper mu
Ġcri tical
al e
r lap
t u
ti k
f ree
ch o
b ased
( [
fa ces
bla ck
s ma
Ġcan onical
}$ $
k now
Ġin verse
Ġmeasu res
Ġobser ve
Ġentangle ment
Ġ *
texts c
Ġassump tions
Ġstudi ed
bib item
S ince
9 0
Ġo ri
Ġ1 6
bel ian
ilb ert
Ġvan ish
d f
Ġess ential
la nd
C C
Ġfrequ ency
Ġlin es
cha stic
st r
Ġprovide d
Ġ1 5
Ġalgebra s
a ra
Ġ _{\
Ġobser ved
4 8
Ġdepend s
Ġ ^
G L
3 1
read y
| $
Ġwr itten
iz es
! \
not in
Ġcontain ing
}} ^{\
Ġrepres ent
Ġnon linear
co mple
h ys
d iff
\| _
Ġro ot
' _{
Ġse lf
Ġexpon ential
Ġpla ne
scri pts
ran s
M R
res p
f unction
Ġin duction
ce il
Ġgo od
m ine
en ess
Ġcons equence
Ġcorrespon d
ro duction
Ġaddition al
va ila
Ġsimp ly
Ġsequ ences
Ġse en
Ġinteg ers
Ġcon text
Ġdistin ct
se u
Ġun iver
c er
Ġgener ator
li ke
Ċ ĠĠĠĠĠĠĠĠĠĠĠĠĠĠĠĠ
ĠH e
> \
in k
m er
Ġal ready
Ġ\ [\
Ġof f
P S
Ġinter pre
) }.
ou ble
) }_
po on
.} ~\
po int
y ing
ĠQ u
re n
A R
Ġout put
ar poon
N o
Ġrese arch
ti o
Ġne ar
Ġlat tice
ir d
Ġ\ ,\
ta te
Ġp lan
Ġn odes
Ġprocess es
Ġfact ors
is ed
19 8
. ;
Ġcyc le
Ġapplic ation
mo del
Ġpro jective
Ġchan nel
Ġsub space
Ġin stead
Ġcons ists
Ġuse ful
g ener
Ġd uring
Ġsim ula
6 5
al ities
ie mann
hi ft
ma ke
ic es
Ġs itu
i me
Ġdirect ly
ĠRe call
ĠE qu
Ġev olution
Ġdo i
Â ł
Ġspec ific
Ġc re
ii i
Ġlar ger
N ote
D F
Ġval id
Ġmath ema
on s
| _
/ (
ĠS te
\| ^
mathb in
| =
Ġcur v
Ġoptim ization
2 9
Ġbe comes
) {
Ġma pping
H om
ĊĠĠĠĠĠĠĠĠ ĠĠĠ
Ġstrateg y
know n
Ġ }{
la tions
res sion
Ġtyp es
4 4
Ġimple m
Ġqu oti
ce p
Ġexp an
Ġsu g
\ ;
Ġprocedu re
tion ary
Ġse mi
Ġfunction al
Ġmulti pl
Ġs pe
Ġb asic
s quare
Ġsp in
Ġsatisf ied
Ġf undamental
ĠT able
Ġmo de
ma tic
cite p
Ġt ensor
ges t
ĠM e
}) ^
( -\
0 9
da p
a ran
Ġremain s
h bar
equ ently
l p
tik z
l arge
Ġprecise ly
Ġde mon
Ġcha in
Ġe llip
g o
ĠC ar
Ġa to
Pro position
E q
u sion
Ġdiag onal
pre c
Ġco here
Ġdes ired
Ġhypothes is
Ġsu c
Ġapp lying
Ġam ong
u c
^{ (\
Ġconsta nts
f ect
Ġconver ges
Ġdeta ils
th ough
ty pe
: }
Ġtrans formation
Ġprov ides
Ġmom ent
Ġin div
Ġexpec ted
Ġre co
Ġsi mpl
A n
Ġcon ju
Ġtre at
Ġde v
m ulti
Ġen viron
Ġeffec ts
Ġdis joint
Ġmeasure ments
ĠH ilbert
ĠAl so
Ġt w
Ġ tar
Ġre duction
5 5
Ġunder stand
def n
}\ ,\
u ration
che ck
lo t
l ight
ĠO b
th ing
Ġtrans form
id ence
Ġla w
[ -
g ne
201 7
tt ps
Ġass ign
il ib
6 7
Ġindiv i
Ġsu mma
se lf
ĠDe finition
mult line
v ity
ad d
igh tarrow
Ġcommu n
Ġacc u
or i
Ġtran sition
b erg
Ġ ~
to col
c f
Ġma ss
seu do
- $
ĠGaus sian
vaila ble
Ġp ur
Ġse m
Ġm ention
Ġtemp er
Ġtri angle
Ġquan ti
Ġ\ {\
Ġfinite ly
Ġfin al
)= (
Ġresul ting
Ġorth ogonal
Ġhow ever
Ġill ust
c lo
Ġeigenvalu es
\ },
math it
Ġst re
Ġp ure
;\ ;\
Ġestabl ish
Ġdeter mine
Ġste ps
r um
R ightarrow
Ġbet ter
Ġp atter
Ġvari ety
of f
ve ctor
pp ed
n tom
Ġde duce
bre ak
Ġ$\ |
\| _{\
Ġrestric tion
Ġno tion
Ġp rac
ar mon
Ġh ol
Ġstru ctures
Ġ1 8
i res
Ġother wise
Ġsh ort
201 8
da sh
Ġex pla
Ġcon jecture
e v
Ġau thor
Ġsuppor ted
Ġd one
o si
text normal
Ġ1 1
Ġs ymbol
pl ing
ilib ri
hi p
Ġspect ral
Ġco inc
ĠL i
Ġ '
stack rel
ĠSimilar ly
201 6
Ġ1 4
lf loor
c d
$ (
Ġcirc u
Ġsu ffic
Ġha ving
Ġv olume
] =
Ġres pon
6 4
Ġimpro ve
Ġbe st
\ }_{
Ġqu bit
Ġb all
iqu es
Ġma de
Ġcurv ature
}) =\
Ġdemon stra
Ġquadra tic
ĉĉ ĉĉ
ste in
Ġcirc le
wh ich
.. .
ow n
* $
Ġinclu ding
rf loor
' $.
}} =
Ġstrict ly
te red
Ġcoordin ates
Ġasympto tic
ul i
}) ^{
Ġre cur
Ġ rule
ce ll
Ġ ti
Ġstar t
Ġta sk
ark ov
Ġexp lo
ble m
Ġframe work
ta ge
Ġt r
mp tion
Ġun ion
ic ro
ha nd
Ġre mo
Ġlat ter
s a
Ġcon c
& =\
s ts
A C
su r
tri angle
Ġsign al
X i
E R
201 9
Ġin ver
Ġcon fig
ou rier
oo gle
Ġre mark
Ġ Î
Ġy ear
Ġtop ological
le cted
Ġoper ation
pha ntom
Ġderiv ative
Ġcompare d
Ġlead s
Ġmulti plic
Ġconstru cted
Ġsmall er
Ġdistribu tions
re es
. }\
Ġsu i
Ġan gle
T r
u ts
p th
Ġau tom
ĠA r
w ay
) |^
se ts
Ġcomplex ity
Ġpro tocol
Ġc r
| }
Ġe fficient
Ġpar ts
Ġan s
Ġe ar
a ves
ĠR iemann
201 5
Ġa round
u mp
Ġinter action
Ġsto chastic
Ġoper ations
l ing
) }(\
Ġ( {\
S h
Ġd ri
Ġper form
Ġphysi cal
20 20
7 8
Ġpro position
}\ )
, ...,
Ġdiff ic
Ġare a
Ġb ran
Ġcoe fficient
ĠRe mark
Ġl ight
ul ly
Ġun itary
Ġtop ology
$ ),
}^ +
| _{\
it ing
Ġder ived
Ġ begin
g g
th ors
con d
c ts
mar gin
Ġpla ce
201 4
ĠA d
{ (\
tur b
+ |
sta te
Ġh is
math tt
6 0
Ġro le
Ġd omin
par allel
je ctor
lic e
Ġtechn iques
i tions
Ġcent ral
b ot
) }$.
Ġ\ }
Ġfo cus
Ġob jects
par ti
Ġau to
Ġpath s
ter ial
g ation
Ġprincip le
Ġob ject
mu lation
Ġprobab il
ĠSch olar
sub stack
Ġlo ok
Ġclu ster
Ġgeome tric
Ġof ten
Ġsimp lic
Ġde ca
}) }\
fin ed
Ġinequ alities
Ġcomp arison
b ly
). $$
Ġs ource
a th
. \\
ri e
$ }}
var iance
Ġquoti ent
Ġ\ !
f ill
ul us
math ds
g an
^{ +
Ġsta bility
Ġeffec tive
armon ic
p ol
otop y
u ph
Ġexperim ents
ĠA t
um ents
n ed
P R
Ġsuffic es
ĠT e
p y
Ġsubse ts
Ġstra ight
A S
Ġcol lection
. )
au se
uph arpoon
Ġmon ot
Ġ\| _{
rac y
sma sh
Ġgra dient
led ge
Ġre pe
m its
Ġdiscus sed
Ġstrong ly
7 6
Ġperiod ic
Ġm ight
m y
b rac
Ġqu bits
o h
Ġdepend ing
Ġp e
ran ge
Ġinteg ra
a h
e ded
201 3
Ġev ent
Ġra tio
Ġh alf
valu ed
\! \
be s
Ġinterest ing
or iz
Ġre si
Ġa vailable
] ^
Ġdimension al
upharpoon right
9 3
for ward
Ġpol ar
ĠTh at
Ġillust ra
Ġhom ogeneous
w r
8 8
hi le
Ġaff ine
Ġsp an
w or
itu de
Ġta kes
Ġpro f
ab ility
is ting
gne tic
Ġth ird
in variant
P T
ip sch
er ing
Ġ( $\
Ġse g
ĠC la
ous ly
Ġn or
Ġla ter
var i
Ġname ly
Ġsol ve
od y
res h
Ġcompu ted
} >
Ġau thors
p ter
) _{\
ipsch itz
) )$.
ul er
Ġco de
Ġd ouble
in a
Ġ ]
hom ology
sk i
Ġpla y
}_ +
( |
ĠMathema tics
Ġtar get
Ġta ken
en c
sub subsection
Ġon to
p ort
Ġequ ilibri
~~ ~~
man if
_{ [
Ġexpan sion
O n
Int roduction
Ġpar allel
for ms
ĠS et
k a
w idth
T hen
Ġconstra ints
ome tric
Ġtra ining
Ġellip tic
bu st
Ġto ol
): =\
sta ble
^* _
Ġa belian
201 0
sc il
al th
Ġdiscus s
cc cc
Ġf ar
x is
Ġd own
Ġta ng
Ġdescri ption
Ġanaly tic
Ġtemper ature
Ġcons ist
pri ate
aran te
Ġl iter
L S
Ġ1 00
Ġabs olu
Ġma terial
{$ *$
Ġcr iter
Ġrequ ires
7 7
Ġcol or
U n
{$*$ }}}\
al k
ti ble
Ġusu al
iz er
down arrow
N N
Ġa mpl
Ġsui table
ha ng
ak ing
' )$
ar io
z z
Ġob vious
Ġincre ase
ĠS ec
Ġ ;
ĠE u
v dots
le f
Ġide a
Ġra ther
scal e
Ġor bit
Ġsample s
i ds
che d
mpl ing
ĠD en
B ox
ĠPro of
Ġca pa
Ġpartic le
ta ne
Ġrepresen ted
Ġs qu
Ġfe atures
8 5
om orphisms
Ġacc ount
Ġsa id
Ġneighbor hood
Ġspect rum
}) _{
Ġchan ges
bold math
Ġalter na
Ġhyper bolic
ine ar
Ġrepres ents
$ &
mis sion
d le
Ġse arch
Ġrepresen tations
scri pt
ĠDe fine
Ġconne ction
| -
i mp
Ġlo op
lan gu
)\ |_{
se l
f act
' $,
ĠF ourier
r d
Ġgu arante
201 2
g re
is ing
S ch
I C
ĠS ta
Ġsur faces
c oun
reg ular
l ie
bibf ield
Ġweigh ts
Ġshow ed
Ġappro priate
Ġent ropy
Ġext re
ting u
ga ther
Ġcol umn
c u
Ġdevelop ed
Ġp seudo
pa th
P P
ĊĠĠĠĠ ĠĠ
ver s
is k
ex ists
part ment
Ġ1 3
Ġspa tial
Ġta ble
Ġsymme try
' t
de red
ĠEx ample
| |\
ĠA ll
parti te
Ġd t
Ġin ner
Ġmo dule
pa rame
Ġcomp osition
S L
Ġ& =\
M C
inu ous
Ġre tur
ne g
su pp
Ġcou pling
ĠB e
Ġus es
Ġestima tion
en ario
Ġcou nt
i ble
Ġcon cent
do i
Ġa ble
lim in
sum ing
Ġs y
Ġder ive
end s
Ġ$ [\
Ġinclu de
o sing
Ġstudi es
6 6
id ing
Ġlin k
ĠE n
Ġma kes
Ġgrow th
C h
ser v
): =
Ġ }}
Ġmo tion
Ġcell s
{ *
Ġstar ting
Ġhom omorphism
4 7
mathbb m
ener ate
c ation
j ournal
Ġper formed
) <
Big g
ph er
Ġg round
Ġnetwork s
Ġad mits
ar ily
ar ies
texts f
Ġimp ly
}} )$
S A
Ġit self
S p
Ġwork s
titu te
Ġne eded
Ġp ul
ran k
Ġuniver sal
}. $$
Ġa dap
z ation
Ġden se
x x
og raph
Ġtur n
}. $
Ġdifferen ti
9 2
di ag
al ance
ffici ency
Ġm icro
lo y
gin e
Ġpop ulation
war ds
Ġsitu ation
ĠB an
c at
Ġscal e
201 1
Ġaccu racy
sh arp
ĠThe y
is son
). $
y l
Ġdefin itions
Ġeigenvalu e
v als
A pp
Ġexperiment al
) )=
Ġb inary
Ġarg uments
h ib
lev ant
Ġtra ce
c tic
Ġo scil
du les
Ġge odes
Ġu til
Ġme di
Ġconc ern
Ġbelong s
Ġas ser
yste m
a ctions
Ġsug ges
Ġgener ic
ĠM arkov
Ġin c
4 6
o sed
Ġ ^{\
Ġcon e
4 3
A M
Ġ langu
) }$,
Ġimp lic
ard in
ĠP a
Ġsim ulation
Ġgeome try
Ġg ame
Ġ }$
}\ |_{
&= &
Ã ©
Ġclassif ication
L P
Ġma ch
Ġter min
pa ces
om en
] ^{
Ġradi us
ut ure
under set
$. }
D P
Ġcomplete ly
osi te
Ġhe lp
Ġscal ar
B ib
_{ +
our ces
Ġw ant
Ġthe ore
u d
Ġcorre lation
Ġadj ac
ear ch
Ġc u
âĪ Ĵ
ian ts
Ġac ts
le y
Ġassume d
Ġm is
Ġf rac
Ġimmediate ly
an o
Ġha d
Ġcorre ct
over set
Ġneigh b
Ġdivis or
Ġver ify
Ġp ref
o ts
Ġcent er
ĠSci ence
ymme tric
Ġd u
pic ture
ot ent
ore d
Ġgener ality
Ġin duces
stru ction
\ }}
Ġfe w
tin y
Ġmeasure d
ig roup
Ġ ru
lear ly
Ġfin ding
Ġidentif y
Ġapproxima te
Ġh oriz
5 6
}\ }$
_{ -\
Ġd i
Ġfib er
s is
Ġconsider ing
Ġ\ )
4 2
Ġcon cept
Ġcoordin ate
|\! |
ĠNe w
ati ves
Bib item
k i
cla ss
is ted
t le
Ġb o
M o
Ġf ac
Ġelect ron
ar ing
ĊĠ Ċ
n i
our se
sf er
Ġvar iance
8 0
) }^
row n
Ġspe ed
al ty
Q u
b a
Ġsc enario
Ġremain ing
C ref
Ġweigh ted
on ic
Ġcomputation al
Ġpro ves
Ġregular ity
Ġth ough
Ġs yn
00 00
Ġwhen ever
Ġweak ly
}( -
ĠD is
}} =\
Ġliter ature
Ġdefin es
Ġd raw
Ġan ti
Ġ1 7
Ġin ten
f e
c ase
iqu eness
A P
as h
Ġco homology
te st
display math
le vel
for mal
Ġpur po
S P
Ġf ast
9 1
ing er
Ġobserv ation
Ġequilibri um
bound ed
Ġin s
j or
h ol
Ġhe ight
Ġf lat
Ġcomp uting
P r
= (\
ĠMa th
Ġp ut
n tial
200 9
Ġc ut
* }\
I N
Ġy ield
w w
ser ve
B C
Ġen ti
Ġw idth
Ġdiscus sion
t ors
] {\
Ġper fect
Ġ1 99
Ġproof s
pa nd
Ġfa ce
is es
Ġper turb
forma tions
ĠC ha
Ġcombin ation
Ġpartic les
Ġinclu sion
Ġnecess arily
Ġerr ors
ar g
s l
a ff
l or
duc ing
E M
Se ction
| }{
cc ording
] (
}$ }
inde x
Su ppose
Ġw ord
Ġmo ve
) !
Ġref erence
Ġt rac
Ġapproach es
se mb
x rightarrow
Ġlevel s
ti ves
Ġent ries
Ġdis tingu
Ġmention ed
)} =
Ġre ce
a ta
}_{ {\
Ġcommu tative
S te
ĠP hysi
Ġat ta
a co
Big l
mis sible
Ġf ig
Ġmanif olds
gra ms
Ġad van
{$ ^
i led
Ġprodu cts
Ġconven i
Ġpermu tation
b lue
Ġon es
ĠSe e
qu e
q ed
v skip
Ġtra jector
)$ $
$ '
Ġp as
Ġp ub
C P
Ġclear ly
Ġdeca y
Ġgener ating
1 01
ide d
Ġa v
Co mp
Ġ1 9
Ġgre ater
la ck
Ġor d
si tivity
Ġmix ed
}= (
Ġexpres sed
Ġtreat ment
Ġ }{\
Ġde pth
8 6
Ġd iver
Ġl ies
s ol
4 1
iz ations
Ġra tes
ĠH a
k in
it al
Ġpri or
Ġl ist
ĠG al
), (
] _{
Ġcircu it
Ġs light
con dition
ran t
} /\
ere nces
" ,
ces sing
Ġ& &\
ĠE ach
I m
t wo
S O
}, {\
us h
Ġhol omorphic
big oplus
Ġar ticle
ĠA nal
Ġdete ction
;\ ;
Ġh ttps
Ġd s
ĠBan ach
Ġenviron ment
s equently
N e
M M
Ġgo al
Ġc ru
Big r
Ġtang ent
Ġincre ases
L i
Ġstraight forward
Ġsta bil
Ġformula s
Ġis o
}) (
Ġs hift
Ġnon zero
Ġc ardin
Ġtechn ique
e ff
Ġindivi dual
Th m
Ġestima ted
F inally
Ġconstra int
ĠAl gorithm
Ġcohere nt
, $$
F rom
Ġc ourse
Ġdimension s
Ġsimilar ly
s co
ng th
ĠM ar
b er
' }\
fin ity
_{ |
Ġre c
Ġans wer
b r
ch es
Ġdec ision
H S
Ġwho le
ke y
Ġa im
' (\
ĠC a
Ġhom otopy
{$^ ?
ĠNo tice
8 7
Ġo pp
g s
ste p
Ġf uture
R es
loc ity
( {
Ġpro te
Ġ\ }$
ĠL ipschitz
ti an
ĠF ix
= {\
Ġderiv atives
ed u
Ġc li
ĠA nd
Ġex cept
Ġre duce
Ġcalcula te
Ġsection s
ont al
Ġfe ature
w it
Ġiter ation
Ġunder lying
, (
Ġde al
Ġcalcula ted
ch y
Ġre view
Ġcomp ati
Ġh ard
Ġth resh
id ent
Ċ ĊĠĠĠ
Ġenti re
Ġb re
A D
Ġre levant
u ter
Ġmultipl ication
Ġd y
}) -
ec ause
' }$
C D
Ġis su
ĠC ont
Ġp ric
cl ide
ĠB ob
Ġro bust
5 7
z ing
20 21
' =
Ġconfig uration
Ġcondition al
}) )
pa ration
Ġe fficiency
-- -
l m
A N
Ġtre es
Ġg ate
Ġinde ed
O R
mo dules
Ġde vi
t rac
h u
ĠE uler
Ġyear s
c ity
Ġprincip al
Ġve locity
i ma
Ġidentif ied
Ġp hen
C M
w t
Ġpa ti
}$ \
ĠI I
b lock
}. \
clide an
Ġconclu sion
B S
yste ms
Ġ )\
Ġact ually
le st
y ear
a a
Ġinter vals
Ġknow ledge
f ield
Ġex ter
xi om
w are
m kern
Ġgener ally
}{ {\
Ġmat ching
' )\
make title
re nce
ĠApp endix
Ġob jective
ĠA lice
ĠG e
Ġro tation
Ġro ots
Ġsol ving
a ve
) &
) ),
Ġemp ty
Ġ )$
E S
xy matrix
d r
Ġclo sure
se ct
ho ok
dis t
j k
Ġsa mpling
Ġop tical
Ġd ig
ide l
Ġla yer
ĠN ext
ĠIn ter
Ġinf lu
7 0
ere d
Ġv ir
Ġstre ngth
}, $
Ġin side
te mp
ĠDen ote
Ġme m
du ct
Ġproce ed
Ġor gan
ar i
b l
Ġpro por
Ġvari ation
Ġtran sfer
ĠC learly
mal lest
Ġauto ma
ga ted
v olution
Ġ2 5
g r
cla im
Ġcontinu ity
Ġen c
Ġac ross
Ġpo st
Ġho me
Ġgener ate
Ġmo tiv
Ġ }(
Ġbu il
200 8
qu bit
Ġmodu les
Ġto o
Ġcalc ulation
Ġf it
Ġj oint
Ġexplicit ly
Ġw ater
N ext
ve red
f erence
A d
O ur
} &\
N A
int y
ore l
al gorithm
mple ctic
ar ith
k ed
Ġestabl ished
Ġdistribu ted
A ut
cri pts
I nd
4 9
Ġin jective
^{ [
ran g
di am
Ġprobabil ities
Ġcons isting
de fined
ri ly
Ġsha pe
Ġdata set
Ġelem entary
] ^{\
C S
Ġread er
chan ge
Ġreg ression
au chy
Ġre por
Ġfor ce
Ġentangle d
Ġs ite
Ġl if
Ġsp here
Ġcyc lic
~ (\
Con sider
g l
ad ic
ĠT a
ĠG oogle
Ġappear s
ĠR o
Ġres on
cite t
Ġver tical
Ġam ount
] [
Ġr isk
Ġres olution
ĠA fter
] _
Ġ{ $
}$ )
} ]\
Ġs mallest
Ġon ce
ar iant
ta inty
up arrow
Ġpol ic
Ġf ore
Ġgenerator s
}\ |\
6 8
ĠCon sequently
Ġ{ {\
er mi
},\ \
Ġ ?
@ {
if ically
ca ted
Ġpa ck
Ġmathema tical
ĠIn s
in i
Ġtri ang
Ġrestric ted
ll ing
er m
Ġma gnetic
Ġcontra st
para graph
Ġf ully
Ġcomple tes
qu estion
M P
lef tarrow
Ġpro gram
G H
cripts tyle
Ġsub graph
scripts criptstyle
f il
la y
Ġlangu age
Ġmod es
}^{ +
Ġsta ted
ĠC ase
er y
Ġw in
ĠRe v
Ġb low
Ġinter ior
for d
p uts
et er
Ġor dered
R R
ĠL ag
t rans
Ġre ach
Ġfrac tional
S et
ĠP hys
| ^{\
Ġgeodes ic
Ġha pp
d ro
ĠPo isson
ĠU nder
con vex
p es
Ġadjac ent
Ġh u
o is
Ġobserv ations
tima te
is ation
Ġw ide
Ġb ox
}} }\,
Ġdiffic ult
) [
Ġsche mes
le an
pa ge
c ategor
in teg
= [
Ġgeneral ization
}} +
ĠĠĠĠĠĠĠĠ Ġ
Ġre con
_{ {
Ġoccur s
k o
200 7
Ġmeasu rable
Ġcru cial
Ġcon ta
Ġsta tionary
Ġregion s
cho ose
L L
} ~
we ak
Ġsem igroup
ĠRes earch
an ts
Ġautom orphism
Ġinteg ration
Ġima ges
^{ *}
Ġr ig
\ ).
Ġalterna tive
\ ),
i ta
Ġdefin ing
ome try
Ġp lot
Ġun iqueness
Ġru les
Ġshow ing
Ġu ser
s ha
Ġch all
O ne
Ġrespon se
5 8
hook rightarrow
Ġlar gest
ie ties
Ġb and
Ġ3 0
Ġin finity
b d
Ġconsist ent
.\ ]
S E
Ġreplace d
Ġca us
su mption
t w
I T
) )$,
n m
il ies
ĠEqu ation
Ġachie ve
] }\
pi es
subse c
cri pt
Ġat ten
Ġse lection
ĠSu ch
di tive
manif old
Ġma jor
enc ies
Ġgen us
Ġma king
C A
}} +\
pla ne
Ġfor mulation
Ġsignificant ly
Ġre wr
S ec
th in
ra m
) ).
ow er
Ġsc ore
tif ic
ĠC ho
ay es
Ex ample
Ġinte res
U psilon
gener al
ch ar
h ref
a sure
f i
}} )\
Ġtheore tical
C T
cer tainty
Ġmem ory
g round
o c
Ġbe come
ĠC om
P hys
Th us
}} }$
Ġpatter n
or th
Ġc ry
.~ (\
d z
' ,\
ial ly
pm od
p led
Ġsuc ces
ur ally
Ġhe at
5 4
\ /
" .
T here
Ġpres ence
sc he
ve ct
_{ (\
r is
Ġcommun ication
Ġabsolu te
Ġdepend ence
Ġrela tively
I D
De finition
L E
Ġanalog ous
Ġre d
$} ;
` `
* *
| .
lem entary
au to
Ġfe asi
Ġato ms
eq q
ĠO ther
Ġachie ved
B e
g m
Ġcategor ies
$ \\
Ġlead ing
Ġmo lec
cyc le
Ġs ides
Ġequ als
Ġhoriz ontal
Ġasso ci
Ġemp loy
}_{ (
Ġar c
C H
M e
Ġno tice
Ġh armonic
Ġcyc les
^* (\
Ġmax im
ssi cal
= -\
ĠTe chn
con nected
ul tane
model s
^ *}
Ġessential ly
ir ich
ĠR a
di re
end ing
h s
ri ed
om ic
up le
\ -
new line
} |^
pen alty
Ġwhere as
&= &\
g ue
er cise
8 4
}) ^{\
Ġunderstand ing
E xt
C or
S pec
)\ ,\
ti mal
k l
an s
Ġdecre asing
Ġinvesti gate
Ġpro ving
idel ity
C ase
ĠC al
ĊĠĠĠĠĠĠĠĠ Ġ
. },
irich let
mm ing
F irst
ĠEu clidean
y pe
Ġcoun ter
} ]$
Ġif f
in v
5 3
v dash
ĠRiemann ian
Ġnon negative
Ġmach ine
a res
Ġde f
o lev
Ġu l
| }\
7 3
mar y
ĠC auchy
Ġdomain s
rid ge
Pro p
C O
Ġsubgroup s
ĠM on
ĠA ccording
mi tive
)\ )
the o
Ġdevelop ment
m n
b ut
B M
{* }}}\,
Ġb ig
6 3
Ġ round
Ġout come
Ġag ent
f r
Ġs par
able s
r ceil
in es
Ġa tom
stru cture
gh t
Ġscal ing
Ġs ci
Ġdeg rees
Ġstatis tical
Ġthresh old
ema il
Ġsub ject
su res
Ġ5 0
Ġgra ded
H ere
con v
a fter
b ase
t ree
ĠB ecause
or al
I S
' }(
Ġexpec tation
wor ds
l ceil
[ {\
Ġphoton s
Ġ @
Ġma gn
Ġimplem entation
A r
Ġslight ly
duc tive
{ |\
t z
Ġusu ally
se p
ĠC he
5 2
200 6
li er
tr u
ĠOb serve
ration al
Ġrelations hip
Ġblock s
sive ly
R S
Ġreg ar
}\ ;
\' {
ce ed
C ha
Ġca vity
Ġli ft
7 9
Ġcriter ion
v olume
] \\
f l
un g
Ġen sure
7 2
P o
Ġg ene
Ġ$\ |\
5 1
ĠB orel
og en
Ġpredic tion
pa ges
^+ $
Ġb it
Ġphen omen
Ġ\\ [
po ints
pla cing
Ġmean ing
ĠI nt
var iants
Ġcontribu tion
}}\ \
Ġsplit ting
la te
Ġfam ilies
Ġpro pa
comp act
Ġlinear ly
Ġcover ing
Ġk ee
N S
add ress
Ġ ~\
* \
Ġtor us
Ġhom ology
t un
Ġdyna mical
dition al
a cc
Ġk ind
rop ic
7 4
s y
big cap
Ġdete ctor
Fig ure
}} -
Ġpara bolic
Ġmodu lo
ĠM an
circ le
ĠS h
Ġar ri
ĠS pec
C orollary
Ġmechan ism
1 10
Ġad missible
ĠĊ ĠĠ
cal led
}: =\
Ġcharacter ization
Ġqu ite
script size
Ġagain st
Ġneed s
Ġn ull
ist ence
c an
Ġato mic
ma nd
var pi
Ġun til
Ġv ary
\" {
su cc
Ġsy mplectic
\ _
ol low
Ġindic es
lim sup
bigg l
Ġinver tible
Ġex hib
{$^? $
ĠB ell
8 9
) /\
tif ication
Ġevalu ation
Ġembed ded
co here
ĠRe f
a ges
int ro
u tation
Ġquan tity
Ġout side
) )}
Ġfil ter
u te
Ġdis cre
rie f
w ers
Ġ$ -\
ermi tian
Ġdiff usion
l ength
D S
ac y
ĠSte p
Ġpro duce
um ns
Ġy our
E nd
no ther
Ġme mber
al se
ro b
cor re
Ġb ar
}}\ ,
Ġun certainty
Ġsur jective
Ġsim ultane
M ore
Ġdifferen ces
hy per
200 5
Ġb ra
G iven
Ġpropo se
tikz picture
Re call
Ġinteres ted
I d
Ġ2 4
od ing
Ġev ents
Ġn uc
), $
mbin ing
Ġtrans formations
t ran
y a
co de
colon eqq
{ }\
Ġcorre lations
po sed
Ġhe alth
Ġad ding
Ġs ke
Ġextend s
Ġco mes
Ġb lack
Ġinter po
^{ {\
Ġre duces
^* ,
it tle
algebra s
S tate
Ġd id
}$ ;
Ġb ro
circ led
' -
I P
bo ok
ĠQu antum
ob olev
Ġj ump
Ġb ot
)} =\
Ġse lected
Ġsepara ble
Ġcombin ator
Ġfig ure
Ġsimplic ity
bigg r
Ġvir t
margin par
d or
Ġinterpre tation
Ġg ates
| {\
u k
or n
gine ering
L o
ter m
mo de
Ġacc ura
ĠW hile
Ġav oid
ph y
Ġpurpo se
Ġinter actions
le x
b ing
da y
C R
ver gence
Ġdiff e
Ġas suming
U sing
l brace
Ġtheorem s
Ġp ie
Ġrela x
ĠĠĠĠĠĠĠĠ ĠĠĠ
M A
} '$
Ġnormal ized
Ġlim its
ere ntial
Ġextension s
( (\
Ġmod ified
) <\
w n
do m
Ġestima tor
Ġrecent ly
Ġg rid
Ġb alance
or igin
Ġw alk
Ġdire cted
Ġhu man
Ġp ic
Ġcor ollary
or ies
Ġinclu ded
Ġcoun table
Ġlog ic
Ġcompati ble
ul ts
in al
il p
}) ,\
l ar
Ġext ra
com mu
}{ }
Ġinter nal
Ġv ol
Ġsimula tions
|\! |\!|
] )
ĠPhysi cs
B B
ter min
ub ic
Ġbe am
),\ \
Ġp p
u v
_{\ {
Ġ text
ĠNe u
je ctions
Ġre cor
i da
)} ,\
Ġinflu ence
Ġg ap
v ol
es tions
le xi
Ġmar gin
Ġa xis
Ġshe af
}\ !
Ġsubse ction
ĠĊ ĉĉ
Ġsee ms
su per
Ġconju gate
Ġqu ality
Ġv io
6 9
ĠY ou
Ġmoment um
D is
v ent
Ġdeta iled
ĠO r
comple te
)$ ;
Ġcol umns
Ġnat urally
Ġelect ro
ith me
ĠCh ina
r in
ve y
& -
li hood
p f
Ġ âĢĵ
Ġthe r
Ġm orphisms
C F
Ġnon trivial
Ġimp act
ĠN a
Ġs lo
Ġgener ation
Ġl ie
Ġther mal
O T
de pendent
Ġcha ng
V ar
l s
serv ation
De f
8 3
Ġb in
ĠB i
th an
n et
ĠC ol
Ġcomple ment
z y
Ġpres sure
g ent
Ġu nd
}^{ *
Ġa ctions
Ġvanish es
Ġdetermin istic
7 1
Ġbehavi our
}^{ (\
c ian
Re f
Ġequ i
su me
}: \
Ġsta ge
Ġbund les
Ġcoinc ides
T able
cri min
Ġinvol ving
Ġcompu ter
)) ^
Ġori entation
g ular
Ġfa il
Ġtechn ical
P re
Ġsubs equence
he ad
S o
Ġunique ly
or ing
Ġp en
ĊĠĠĠĠĠĠĠĠ ĠĠĠĠĠĠĠ
ll i
Ġinvol ved
Ġtrans lation
Ġiden tical
Ġevalu ate
Ġresi du
v able
ĠĠĠĠĠĠĠĠ ĠĠ
Ġvar ieties
Ġseg ment
coun ter
Ġca pt
Ġla ser
ĠP ar
left rightarrow
Ġtur ns
Ġ{ {
}} _\
ha m
at ch
be led
ĠD irichlet
200 0
6 2
M od
scripts tyle
W hen
op f
Ġsu ms
Ġ{ $\
ma il
r brace
Ġstrateg ies
}) +
Ġanaly ze
Ġatten tion
Ġstr ing
G S
{ [
G r
ĠB rown
E N
Ġlog arith
$- -
per iod
p q
Ġb rief
Ġexpla in
ener al
for mula
| +
Ġh ist
Ġag ree
|\ ,
Ġimpro ved
| $.
ĠJ aco
Ġfe ed
Ġsh or
200 4
Ġmod uli
Ġmon oid
Ġpie ce
deg enerate
Ġbi partite
Ġla y
al y
^+ (
F T
6 1
Ġkee p
Ġconta ct
Ġ Â
Ġcorrespond ence
Ġ[ {\
D u
ot ing
Ġcont rac
Ġad ded
rang ian
Ġpolic y
pro b
t ration
Ġle aves
Ġtor sion
F S
su s
re ly
. -
Ġmechan ics
Ġp ull
Ġch ild
Ġo mit
ĠG ra
un c
n or
A L
Ġf ive
m f
Ġs wit
Ġapp lies
Ġ$( {\
equ ival
cre asing
ĠL o
Ġasser tion
Ġ&= &\
T M
N P
L em
ĠMo del
footnote size
thin space
Ġwa ys
] }$
Ġcalcula tions
Ġb lue
Ġj o
ĠM at
ck now
Ġdis k
O pen
}) ^{-
E T
il inear
ĠSec ond
Ġsol ved
pher ical
Ġor bits
Ġindic ates
ti tions
Ġre ac
+ }
Ġover all
Ġstatis tics
Ġar row
ĠApp lying
center ing
Ġm id
mid dle
Ġdemonstra te
Ġextre me
Ġori ented
Ġm es
8 1
Ġphysi cs
ĠA u
l vert
ck s
Ġpri mitive
Ġprevious ly
Ġre ve
tab ility
pa ir
Ġreg ime
brac ket
Ġinfinite ly
Ġpati ents
Ġn ature
re t
z a
Ġpatter ns
Ġcho osing
f lat
tri es
ĠIns titute
Ġrepor ted
pol y
c ar
p mb
Ġcho ices
Ġretur n
Ġide als
Ġa cting
lin es
Ġmetric s
Ġgo es
Ġsingular ities
Ġgo ing
ta ng
s mooth
Ġtri ple
Ġadvan tage
Ġstate ments
Ġmonot one
question down
text questiondown
clu sion
re al
ster ior
od ic
s or
}} }{
p id
Ġinclu des
Ġ\ #
Ġadd ress
Ċ ĠĠĠĠĠĠĠĠĠĠĠĠĠĠĠĠĠĠĠĠĠĠĠĠĠĠĠĠĠĠĠĠ
ĠH u
Ġun known
Ġcombin ed
origin al
Ġmon omial
Ġwh y
yna mic
ula tions
Ġfeasi ble
tri ang
Ġexpres sions
ir ical
Ġout comes
small matrix
Ġex per
ĠR ec
me ter
cri ption
pro blem
] _{\
Ġal though
er man
ot ropic
Ġun its
si mple
Ġqu estions
Ġprac tice
our s
ĠB ayes
Ġa xiom
Ġc and
{ .
Ġu pon
Ġex pand
ha nce
bes gue
Ġexis ting
Ġ\ :
st al
un iform
5 9
Ġincre ased
Ġ[ ?
C L
A A
Re v
Ġre placing
Ġsol id
Ġsc atter
pro j
Ġampl itude
}=\ {
Ġto wards
ce pts
ge ts
o ch
Ġdu ality
math rel
en berg
Ġrow s
Ġsumma ri
ĠG re
Ġquan tif
Ġcou pled
t ot
Ġmat ter
Ġinvol ves
EE E
ollow ing
Ġprodu ction
P a
{ }^*
Ġag ents
lic ations
o pt
} <\
)^{ -\
Ġbe lie
str ong
texts tyle
Ġad ditive
Ġh er
Ġdis e
c ision
Ġindic ate
ĠĊ Ċ
ie wed
pla cian
Ġmod ular
b c
$ }\
Ġde pendent
Ġm y
Ġe p
s m
Ġf la
Ġmultiplic ity
Ġexpon ent
i ti
f er
Ġimplem ented
Ġar ithme
Ġfor ward
ĠC ent
ce ler
Ġin variants
Ġprac tical
Ġmulti p
Ġ. .
f ication
Ġdifferenti able
Ġpri mes
Ġk not
id den
Ġco pies
Ġf idelity
Le ft
$& $
ator s
g ru
Ġpro cessing
verse ly
Ġdata sets
Ġa do
r s
Ġlim ited
. [
}. }
en tations
Ġexter nal
over rightarrow
p an
Ġp ass
i rm
Ġco variance
Ġintro duction
Ġr ise
Ġabs or
Ġbi jection
)- -(
E qu
| ,
r vert
l us
Ġco re
Ġdis crimin
L ong
comple x
tt p
in eq
dor ff
ti m
Ġpro ject
ator y
tab ly
sq cup
ĠD iff
)} }\
ĠP er
Ġac tive
## #
Ġear lier
Ġso ft
Ġintegral s
Re mark
8 2
Ġconver ge
Ġf ra
mm er
ix ed
Ste p
Ġ. ..
}} }}
S D
categor y
ĠG u
H ow
valu e
Ġto t
200 3
Ġhigh est
ed ge
ĠO p
ĠJ ournal
Ġcapa city
Ġen semb
, .
Ġlong er
ĠAl though
R T
Ġ }_{
st ers
Ġf raction
Ġcharacteristic s
ma tion
cep tional
Ġvanish ing
ĠD i
ree k
ĊĊĠ Ċ
Ġne ver
Ġinsta nces
ib ra
Ġequivalent ly
Ġbran ch
Ġhyper sur
v ance
De partment
)} _{\
) ]{
cont inuous
ĠS obolev
Ġperturb ation
th at
}} ^\
I M
multi row
Ġad joint
de comp
ĠF e
) _\
Ġde mand
su be
w ell
re la
Ġpro g
under brace
Ġdeta il
Ġ2 3
Ġpric e
Ġcompu tations
in ted
c ro
)\ |
Ġstu d
! }
Ġe limin
- {\
Ġfin ally
The refore
~ (
}} |
a min
Ġpul se
O N
Ġhigh ly
}} }(
}: =
ĠTheorem s
j o
ish ing
ili ation
^* $.
O p
R E
( |\
ĠI s
Ġst ress
aus dorff
Ġiter ations
Ġdevi ation
Ġ{ }
E u
ĠS ystems
Ġcon gru
}}{ (
s ymmetric
Ġpreser ves
200 2
Ġp ho
Ġ â
}\ {
ct u
Ġsuc cess
Ġ= &
Ġon line
igh ts
ia bility
ilp otent
ĠAssu mption
Ġcon formal
Ġs ources
, }
f old
cc c
Ġimple ment
ct ural
pro duct
Ġb ody
d ical
Ġlo c
W ith
pend ence
mu n
)} ]
Ġpair wise
pro per
Ġderiv ation
Ġno tations
n es
ĠLe besgue
D D
Ġm er
Ġ1 98
Ġex pect
Ġde formation
Ġother s
pec ially
Ġquanti ties
V M
Ġth ick
ĠR ic
d v
Ġgiv ing
ten cy
ĠM or
re sul
Ġt un
E s
s ign
ĠCla im
S ub
function s
) }^{
ĠS er
Ġa way
O b
m ing
Ġs ix
Ġup date
e ts
Ġne ut
S C
Ġtrans mission
? }
Ġspec ies
Ġdire ctions
ĠS ome
G al
Ġarbitra rily
Ġpe ak
Ġ2 1
Ġinvesti gated
f irst
Ġco py
sing ular
Ġne ural
Ġlo cation
, "
Ġtest ing
ar c
i us
Ġbot tom
Ġsubs paces
Ġpartial ly
ĠLag rangian
Ġinten sity
Ġconcent ration
Ġorder ing
Ġconcent ra
O P
Ġcontrol led
Ċĉĉĉ ĉ
Ġcon du
ĠC or
ene f
Ma in
h t
il le
v o
en tered
res sed
i mple
x ili
Ġstrong er
ĠM ed
j i
Ġfil tration
Ġlike ly
Ġth ink
ĠB es
Ġdefin ite
S U
| <
u psilon
on es
h ar
Ġzero s
Ġr ings
n n
Ġspec ified
Ġp i
ĠBrown ian
?? ??
ten ess
Ġdescribe s
Ġ??? }\
Ġet c
l ished
Ġre ver
parame ter
r k
Ġde ep
co ver
Ġpla yer
Ġallow ed
a da
Ġcharacter ized
ĠB ra
}) }{
la tor
sta nt
xili ary
ĠThe ory
Ġequi pped
ĠH y
Ġapp e
Ġrepe ated
gra mming
Ġexpla ined
qu ations
ĠGal ois
k y
Ġad mit
O r
Ġeigen vector
)- (
l r
v c
a i
c le
_* \
} ;\
ob s
ent al
the less
in ner
on ormal
Ġprov en
da ta
b on
Ġindependent ly
Ġc ubic
Ġlabel s
ul ty
be t
Ġimpor tance
b ic
'' $
Ġplan ar
Ġ }^{
ĠP ol
a x
H e
op le
)) =\
Ġ& +
ĠW hat
ĠM ulti
00 1
vari ate
erg odic
AT E
ĠMathema tical
* }{
As sume
is ms
] ;
o ids
)}\ \
Ġbo ok
Ã ¶
Ġchall en
sube quations
lim inf
v v
200 1
appro xima
S top
' +
Ġpa y
Ġpre pa
op timal
Ġpo sterior
ĠN ational
in stein
in clu
Ġex clu
_* (
Ġgre at
Ġo wn
i date
Ġrun ning
}_{ -
Ġes pecially
mu m
po sitive
ĠW ang
Ġtask s
Ġtool s
Ġprof ile
E C
ĠA c
'' (
Ġsqu ee
Ġtot ally
period ic
ĠOther wise
n um
Ġinteg rable
Ġapproxima tely
Ġsetting s
ir r
Ġcoinc ide
Ġdia grams
Ġopp osite
Ġb io
Ġte sts
ot o
), $$
gra d
^* _{
ĠNeu mann
bil ities
n ational
def i
L T
Ġ- --
Ġ item
Ġ3 5
Ġcardin ality
clo sed
Ġarithme tic
Ġinc ident
l if
\!\! \!\!
o ssi
con j
Ġflu x
A G
ĠS tu
,\ ;
k ov
s ym
Ġord inary
Ġelect ric
Ġpar titions
C la
o per
Ġcombinator ial
- |
ol der
si t
Ġ2 2
Ġco me
r ig
Ġma na
ab ly
f g
Ġset up
39 34
}} }{\
I F
H ence
l ip
Ġaff ect
| (
cha ng
Ġse mis
}} ^{(
Ġindivi du
v is
> >
ay lor
Ġlo ad
Ġe con
if ies
C ar
igh ted
l se
+ {\
od ot
c line
)$ }
ch ite
Ġrepresent ing
P er
r times
ĠPro blem
ura tions
^{- (
Ġmodel ing
Ġfollow ed
p ed
Ġpolar ization
rm k
ĠT aking
Ġscatter ing
Ġare as
Ġthrough out
Ġev idence
p lan
Ġchannel s
no break
Ġy et
Ġdetermin es
Ġ[ -
Ġb enef
Ġbi as
om y
Ġco des
Ġiso lated
ur ity
ĠC an
Ġevalu ated
prec eq
h ttps
I R
ĠSch r
}) \\
Ġsh arp
Ġflu id
ĠB er
Ġle af
I V
\ },\
p hoton
Ġ3 2
u ri
Ġti ght
equ ences
Ġpossi bly
Ġme ta
L ie
Ġ< \
si c
tain ed
ĠD o
S B
T T
loc ation
Ġhy dro
Ġres ol
Bibitem Open
Ġen hance
Ġtrans port
ĠCo mbining
diam ond
}( [
Ġidentif ication
olog ies
a o
aff iliation
H H
Ġwa ves
s eq
ĠA gain
Ġsqu ares
^* )
ĠMe th
Ġwor ld
ting ale
Ġissu e
rest ric
Ġnon empty
\, .
ĠDe partment
Ġsymbol s
}) :
Ġs low
ĠE very
h ou
Ġent ry
Ġlo cus
Ġpro duced
ĠAn y
E D
Ġcohere nce
Ġide as
ac u
Sh ut
Ġpres entation
cla ssical
Ġemp irical
Ġs izes
clo se
f low
Ġtyp ical
Ġac tivity
ĠT wo
Ġde le
No Stop
Ġm ut
Ġrun s
Ġin ser
Ġtyp ically
no thing
Bibitem Shut
Ġcomp lic
ĠD es
ĠĠĠĠĠĠĠĠĠĠĠĠĠĠĠĠĠĠĠĠĠĠĠĠĠĠĠĠĠĠĠĠ ĠĠĠĠĠĠĠĠĠĠĠĠĠĠĠĠĠĠĠĠĠĠĠĠĠĠĠĠĠĠĠĠ
ĠP re
)= -
auto ref
Ġfac ts
ĠT rans
an y
M at
text color
Ġvari ational
Ġparticular ly
Ġdev ices
re pres
Ġtrajector y
Ġno vel
Ġ$( -
Ġrec tangle
oo lean
S t
Ġinf er
ĠSci ences
Ġ4 0
la stic
). \
S F
R o
Ġorth onormal
di a
d c
Ġga in
Ġparame tri
-- --
Ġmes h
Ġcre ate
Ġact ual
Ġrig id
Ġconveni ent
{- }
^* $,
Ġo uter
Ġpermu tations
tan ces
Ġ6 0
ĠW r
$. \\
ti zation
ĠTa ke
Ġman ner
Ġflu ctu
P D
mid rule
op en
ograph y
Ġsa ys
Ġdetermin ant
to kes
ier arch
Ġfrequ encies
cyc lic
Ġex ec
Ġb ases
Ġ201 5
Ġimplic it
G reek
g on
la s
Ġcontradic ts
Ġaccura te
G oogle
& &\
] ,\
Ġpo sitions
+ |\
}( (
Ġsimultane ously
Ġwork ing
, +\
Ġpub lic
Ġre l
Ġlike lihood
h l
var nothing
are nt
Ġpossi bility
nd s
ad y
make box
a z
a ms
Ġdis c
Ġmultiplic ative
Ġback ground
L M
Ġcont ent
Ġsimplic ial
os able
h ard
\, ,
Ġillustra te
p c
i les
Ġsh if
u le
Greek math
ec ted
hom ogeneous
Ġreg ard
h d
Ġdev ice
si ties
ti ties
] =\
)} +\
Ġmar ked
S ym
}$ :
'' ,
ĠAnal ysis
Ġbro ad
der iv
}}{ {\
Ġ( (
| ^{-
ion s
Ġex ceptional
Ġmo ving
Ġc us
Ġass ess
tit uting
o ma
ĠĠĠĠĠĠĠĠ ĠĠĠĠ
ĠSu b
Ġcalc ulus
i ers
v ice
B o
}} [
Ġin tu
ĠB o
Ġre pro
Ġsimpl ify
)=\ {
po s
g al
Ġsubs titu
b an
ĠS a
}- -\
B F
Ġac cess
Ġref erences
}}( {\
Ġcon volution
Ġlay ers
Ġmagn itude
ĠC hen
Ġac celer
I s
Ġpro jections
Ġan n
D R
Ġreco gn
Ġclu sters
ĠH ausdorff
Ġsingular ity
Ġdecre ase
Ġga mes
ou rho
Ġsign als
en ing
Ġac cep
H z
ĠP r
cri tical
Ġau xiliary
me an
Ġsucces sf
Ġinterpo lation
## ##
Ġpas sing
sk y
& $
Ġend s
\| _\
Ġtran sitive
Ġimp ossi
Ġ| |
Ġ201 6
Ġcombin ing
} ~\
}\ ]
n umber
at ural
th ick
B P
Ġpre cision
Ġcomplex es
Ġguarante e
ĠH opf
Ġla beled
}, $$
Ġthan k
Ġmaterial s
Ġ( -\
ĠN on
limin aries
: :
Ġtrajector ies
is o
Ġsu mmand
Ġmonot onic
app endix
Ġpic ture
Ġdistingu ish
Ġt ry
des cription
Ġske w
ec k
c n
Ġtr un
* {\
Ġso cial
Ġhe ter
Ġ201 4
ver tex
Ġse mic
)} +
Ġs ent
ot t
Ġrandom ly
Ġslo pe
Ġ rough
}} -\
Ġar chite
ate ly
Ġa ge
qu antum
Ġtre ated
M ar
Ġ ergodic
b ur
lin der
ĠW h
.. ..
l Vert
B ound
Left rightarrow
Ġt ends
Ġun bounded
t us
Ġmom ents
Ġc entered
F F
en ch
pro v
Ġcorre ction
ib ility
Ġrespec tive
Ġab stract
Ġvis ual
L R
II I
Ġmo ves
Ġcol l
Ġdesign ed
Ġsen sitivity
ow ski
Ġb its
Ġinf erence
Ġpaper s
al a
ord an
ĠC P
}_{ +
ad joint
Ġtran sitions
(\ {
Ġul tra
Ġcar ried
Ġen sures
Ġde lay
i ence
Ġp or
Ġn ilpotent
A t
bu nd
Ġlif e
s pect
Ġhypothes es
ĠH om
ĠBayes ian
Ġflow s
Ġorder s
tribu tion
, +
Ġv iewed
Ġspar se
Ġexplo re
Ġdis si
t ract
Ġme et
deg ree
f rom
ĠD ata
au x
C N
g ed
D M
Ġsha re
^* $-
ĠB oth
}}$ -
Ġrefer red
Ġs pherical
th is
Ġcon cepts
ĠTechn ology
C l
Ġcapt ure
S ee
) &=
ens ors
Ġdemonstra ted
ĠH ar
Ġge ts
Ġco dimension
dis cre
Ġres ource
co sh
20 22
i ra
Ġ201 7
r Vert
r un
}^ -
Ġl ittle
Ġmore over
Ġb rac
sup set
] )$
, ~
me asure
Ġpropor tional
Ġ2 8
tikz cd
Ċĉĉ Ċĉ
Ġpla ys
Ġpe ople
oh n
than ks
pa ren
Ġasympto tically
r ical
O I
Ġrestric t
Ġcon nec
ca de
\ [\
t x
C E
o sitions
o od
re qu
Ġar cs
y ond
Ġar ray
}) _
Ġ201 3
sto od
Ġi on
Ġpri ori
Ġno ted
ge l
ĠLa placian
A u
Ġal pha
ĠWith out
Ġ2 6
Ġdia meter
Ġpro gramming
}^{ -\
Ġconcern ing
bm od
thes is
, [
Ġmar ket
Ġcomp osite
Ġthe ories
Ġ\ }$.
dition ally
Ġgener ates
Ġtemp oral
con tro
Ġref lection
rob en
as hi
Ġapproxima tions
Ġcross ing
Ġmat ch
Ġinter mediate
ed om
Ġensemb le
Ġconfig urations
Ġf ul
inc ar
Ġun less
f am
go od
ir ing
}) +\
_+ $
Ġno tions
ĠZ hang
Ġmechan ical
' _{\
Ġfactor ization
th en
Ġfunctor s
Ġcriter ia
b rid
Ġimprove ment
Ġbegin ning
Ġ\ &
Ġj us
| $,
f ib
Ġ2 7
Ġco sts
Ġi mmer
are d
com m
Ġsugges ts
Ġdeg enerate
Ġ Ï
Ġne ither
ll er
More over
Ġfor med
rough out
Ġcircu its
l t
Ġspect ra
min i
g lobal
}^* $
ar ds
E n
ĠP e
ĠM R
ite ms
M T
Ġbuil ding
Ġ$\ ,
Ġlog ical
ST ATE
)\ }$
la ting
F urther
cohere nce
)} -
u zz
C G
}) }{\
h armonic
Ġpri mary
Ġemp ha
Ġg as
Ġh ierarch
}) )$
roben ius
fact or
Ġhapp ens
la b
_{ |\
}| ^{
ĠI ts
ĠA mer
ĠB ern
ith ful
Ġsub sta
var sigma
Ġend ow
Ġdecre ases
ĠL y
Ġ },
tri but
Ġp an
Ġcomplic ated
Ġth in
Ġlemma s
)}{ (
Ġcont ro
Ġextre mal
O M
Ġanalog ue
}$ ).
E P
ĠH ermitian
ĠSpec ifically
Ġpreser ving
la tes
pro te
Ġassign ment
brac k
C ol
a ma
hed ron
Ġstru ctural
Ġrewr ite
B ar
ec ts
s ystem
S I
^ +\
ĠU SA
Ġde pic
de fin
cont inu
hed ral
Ġfib ers
ch er
ĠD ue
Ġdise ase
Phys Rev
Ġa mb
Ġlin ks
ĠS t
Ġequ iv
od ge
Ġfeed back
Ġconver se
ĠCon jecture
Ġbu ild
la yer
ĠLet t
u i
sec u
D G
Ġin puts
Ġneighb ourho
ra d
Ġsta ck
e le
)+ (
Ġfor ces
sp here
ish er
Ġshe aves
Ġbre ak
Ġ ^{-
Ġs at
Ġimpossi ble
ce l
Ġch arge
Ġre action
Ġev ol
lo ts
umer ical
Ġpo wers
us sian
}= {\
Ġcont raction
Ġsub algebra
h alf
g cd
Ġv acu
Ġbe yond
)= -\
su ch
Ġcount ing
Ġb ilinear
se m
sin h
F ix
Ġnor ms
Ġf alse
ĠA m
Ġmargin al
Ġm u
Ġfa ces
tif ied
Ġfin ish
Ġsepara ted
Ġex change
Ġpoint wise
Ġco mb
Ġmathema tics
lec tive
Ġs tri
ra di
at o
ĠV er
Ġinter sect
Ġconveni ence
Ġ items
Ġremain der
Ġar ise
^+ _
di es
new block
i ous
Ġdis place
Ġcommu ta
Ġscenario s
Ġup da
Ġ201 8
ĠO f
equ ent
Ġiden tities
ula ted
ĠNew ton
ou nts
P ar
Ġg lu
Ġin tr
u pper
S imilar
Ġres ources
}^{ *}
i um
Ġmember s
k k
p df
jec ted
Ġear ly
Ġd on
ch ron
ĠCha pter
Ġunder stood
Ġaver ag
ctor s
a xis
Ġre port
Ġpre ce
D B
vi er
al low
_{ *
Ġcontrol s
spec ial
sp an
ga cy
ig u
Ġ& $
Ġab ility
}) -\
Ġp ick
Ġguarante es
c ut
Ġver ified
Ġhand le
ĠĊ ĠĠĠĠĠĠĠ
Ġcluster ing
re newcommand
Ġsequ ential
Ġclose ly
}[ (
Ã Ĺ
equiv ariant
con s
Ġc are
)| ^{
Ġchang ing
Ġconne cting
Ġprodu ces
cor por
ad j
T H
Ġbrief ly
E Q
A b
Ġvary ing
Ġc f
l b
Ġs ho
pres er
)$ :
Ġfre edom
\ ;\
ĠM in
Ġexponential ly
qu es
e k
Ġcharacter ize
n ating
Ġc at
Ġ201 0
ad s
19 99
Ġqu ery
Ġassign ed
l en
s ince
Ġradi al
spec tive
Ġg over
Ġreve al
Ġ\ ;\
Ġlimit ing
Ġread s
se para
dire ct
ĠS im
Ġw it
le cting
equ ality
Ġreco ver
Ġpartic ip
res pec
ĠB ar
ĠT aylor
Ġdis play
Ġima gin
diag onal
it ting
G e
Ġsur vey
Ġcomp e
black square
ou se
ĊĊ ĠĠ
ĠLemma s
c en
g f
C a
Ġf ill
N on
)= {\
Ġn a
Ġis omorphisms
Ġ201 2
bse ction
tribut or
math ring
il la
ĠC O
Ġmain tain
tr ically
h er
Ġpa ge
Ġste ady
\\ \
vi ties
Ġcommu tes
N R
Ġdis tances
manif olds
ian g
math ord
Ġinv olution
Ġ1 97
Ġanaly zed
Ġat temp
do main
Ġ til
re p
12 3
Ġutil ity
dots c
Ġabsolu tely
iz able
Ġfor mation
Ġillustra ted
h n
f for
)$ )
Ġform er
ĠT r
Ġdivis ors
inde pendent
Ġte ll
Ġ[ (
ca st
es timate
Ġmedi um
}\ }_{
Ġpa st
101 6
sel ves
ĠCho ose
Ġindividu als
@ {-
Ġwor th
$ {\
Ġindic ated
dy na
Ġ{ };
d dots
Ġd ate
Ġp ump
H u
{ }{\
Ġi d
Ġprobabil istic
Ġfa ir
). \]
D iff
h igh
ol er
g ments
at z
ra ndom
Ġgeneral ize
Ġse paration
) &\
ide al
) ^*
w p
Ġseg ments
Ġtriangle s
Ġvalu ation
sco pic
O m
in o
Ġrequire ment
b x
D A
lo v
) }}{
Ġpo inted
S M
Ġcharacter s
Ġ\ ,\,
ou th
Ġfol i
no v
Ġsepara te
. }(
ra te
iz ers
com ment
T e
big wedge
Ġmis sing
i med
19 98
ĠD u
Ġradi ation
Ġreal ized
ĠF ollowing
Ġinter ference
m ond
S a
Ġnormal ization
al es
Ġresi dual
ĠYou ng
Ġcon secu
Ġpiece wise
Su pp
C om
to pe
Z Z
Ġexpres s
s he
od d
ĠA ss
ĠM c
g ment
\ `
Ġ }}\
an k
Ġinterpre ted
ĠSta tis
DE s
Ġvirt ual
F P
s ted
Ġpredic tions
D ia
Ġthan ks
the ore
f ull
Ġcha ins
ic ations
other wise
ic o
Ġk ine
Ġdis per
N et
Ġcontinuous ly
Ġangle s
Ġinter sec
as sumption
ĠN ame
Ġcontribu tions
Ġconne ctions
Ġpho to
ĠGre en
b ody
Ġpredic ted
Ġfa ils
$ |
}{ (\
Ġsite s
~~~~ ~~~~
c ross
R ic
Ġsome times
ench mark
Ġstud ents
ww w
c p
Ġin corpor
for ce
al i
Ġex amin
Ġa ir
Ġprote in
Ġgen es
| >
ula te
}} ]
ĠS ol
er ies
Ġcomple tion
Ġrepresen tative
Ġas k
Ġfast er
Ġplay ers
ĠMa x
Ġcover s
Ġun stable
Ġpropa gation
de termin
Ġcoll ision
Ġadap ted
Ġext rac
Ġmix ing
Ġsimula ted
w ord
, -\
$ _
id en
}) (\
Ġmain ly
Ġvar iant
Ġcand idate
V er
Ġcy linder
Con tributor
m r
Ġscal es
Ġm ess
new theorem
In ter
graph s
ah ler
p d
Ġra m
err or
Ġ201 1
Ġsol ves
C ont
Ġw al
u les
ĠS P
lin k
}. \]
Ġconf idence
Ġca ref
ro matic
Ġcha pter
ĠR ob
sta tes
Ġcontinu e
un ov
Ġex ci
lim it
' =\
Ġprov iding
T S
Ġregar ding
Ġconver gent
e ven
K er
od al
is ter
Ġper s
Ġhyper plane
a rable
Ġremo ved
Ġad vance
/ {\
l der
Ġsepara tely
}) _{\
* {-
ust om
Ġenc oding
X iv
Ġremo ve
Ġdiv ided
ĠF unction
Ġat tribu
and om
Ġdiver gence
Ġvacu um
}^{ {\
Ġcar ry
Ġac tiv
Ġappear ing
Ġfa ithful
Ġp ush
) &=\
Ġtrivial ly
Ġcomp aring
ĠEx ercise
Ġball s
po sitions
Ġis ometry
Ġevery where
Ġlogarith mic
Ġsug gest
,\,\ ,\,\
Ġefficient ly
Ġexec u
os es
Ġfib ration
}) )\
an ti
v ised
te sian
vious ly
}} ]{
= }
Ġch ar
Ġe mission
discre tionary
b ian
Ġexp lan
$ }.
H a
ssi fication
re c
me tric
Ġsimpl er
pr inger
Ġsitu ations
i int
Ġn et
Ġh idden
k ip
Ġd rop
O f
Ġcry stal
ta ges
Ġreal ization
ĠP ri
an e
ĠF in
Ġdiv ide
b is
Ġco ar
] +
Ġstand s
ĠPo incar
Ġthe rm
Ġin ductive
Ġdiff er
b asis
> }[
cha in
ore n
Ġpar ity
Ġun ity
Ġtri p
Ġar ises
set counter
Ġbalance d
}{ |\
z o
ĠA nother
Ġ201 9
a tic
ĠWe yl
Ġpo ss
ro s
Ġinter act
b all
Ġwide ly
ĠRic ci
' )$.
lo op
5 00
K L
}\ }$.
}{ *}{
)} )$
S im
Ġse lect
qu ote
Ġcan cer
})$ -
Ġ20 20
se cond
ca ve
Ġwh ite
m l
he res
al most
ĠĊ ĠĠĠĠ
Ġstudy ing
) ^{(
Ġ ign
is y
Ġmid dle
e ther
Ġemploy ed
Ġdete cted
Ġtrans verse
T R
ten sor
Ġmod ification
Ġnuc lear
stru ct
Ġnon local
Ġequiv ariant
Ġlim i
Ġallow ing
Ġneighbourho od
Ġphenomen on
Ġreason able
O C
ne y
ĠP ut
Ġimagin ary
ĠG L
ma gnetic
Ġobtain s
Ġperform ing
Ġhome omorphism
Ġpa ges
ĠF ran
ic a
}' (
ĠH odge
Ġra pid
ĠP ress
M in
Ġautom orphisms
pr int
com ing
Ġs ends
Ġre fine
K S
Ġsimilar ity
prov ide
p to
P ic
Ġg au
hy p
Ġex am
Ġdescri bing
Ġlear n
n p
w hat
ĠCom mun
R C
Bbb k
ge ment
we ight
ms tar
G G
Ġembedding s
qu asi
Ġcomple teness
id er
ll l
Ġche mical
{ }{
)= (\
ĠN P
ĊĠĠĠĠĠĠĠĠ ĠĠ
T P
] ^-
ĠS tate
Ġre verse
Ġconsecu tive
Ġsign ature
Ġal ign
contro l
Ma x
Ġre lies
no ts
provide command
Ġinde pendence
] }(
Ġv on
Ġcorre lated
ver age
ging roup
be gingroup
v ille
Ġrestric tions
Ġse em
}= -
ma ss
Ġe lse
] &
Ġdis co
Ġc lin
end group
\ }}\
Ġse man
ma te
}\ }
ĠCon dition
Ġd im
Ġwin dow
ĠL u
Ġintersec ts
ĠĠĠĠĠĠĠĠ ĠĠĠĠĠ
Ġde coherence
phy si
d l
}= (\
Ġformal ly
ner gy
ĠLa place
M L
Ġconven tion
Ġsp read
Ġcombin ations
ĠPro per
âĢ Ķ
= |
ĠĠĠĠĠĠĠĠ ĠĠĠĠĠĠĠ
ĠEq s
if ur
pec ts
t uple
wa ve
Ġobtain ing
Ġhist ory
r g
S cript
a e
f ol
el s
sche me
Ġmeasu ring
Ġmin or
Ġan gular
ĠR ad
Ġma cro
A ll
) ]\
v in
i y
ĠS tru
. \,
s hift
pha se
ĠName ly
ĠRe g
B L
Ġsu rely
ma s
{ -\
Ġ& -
Ġ ri
ĠWr ite
)) _{
bre ve
Ġp h
ed y
Ġobserv able
Ġprotocol s
mini page
ci ety
is s
ĠF ound
ec ke
Ġ| ^
cho ol
Ġnumer ically
fin al
}| _{
ĠSu pp
ap unov
a su
la bor
Ġspan ned
en table
ĠI II
p ite
Ġsubs equent
ab i
Ġhypersur face
si ded
f s
Ġconclu des
Ġrequire ments
Ġresidu e
Ġmechan isms
Ġwr iting
mid t
ir th
en tific
Ġin variance
19 97
Ġinitial ly
ra ise
Ġpri v
Ġeffec tively
ĠK o
100 7
hi ps
Ġpull back
ĠB oolean
^- (
Ġobserv ables
Ġgre en
Ġc au
Ġinter face
cknow led
Ne w
h ic
Ġlength s
}' \
po le
ĠIn teg
v y
Ġin comp
Ġd ru
Ġ( .
ac ts
ĠS p
ĠI mp
Ġco vered
ĠPa uli
m om
' }{
Ġarg ue
Ġmix ture
Ġproper ly
Ġissu es
| ^\
Ġres er
end er
Ġ| }\
Ġpres ents
Ġneighb ors
}} ^{-
Ġnot ing
Ġretur ns
ĠĠĠ Ċ
Ġadap tive
Ġw all
Ġdomin ated
ĠC M
Ġvis co
1 12
Ġlaw s
ser ies
Ġsci ence
ĠE ar
di ents
Ġdes cent
Ġinvol ve
imp lies
Ġcaus al
Ġtra vel
u es
| |_{
Ġtw isted
otop ic
Ċ Ċĉ
i tive
Ġtw ice
lim inary
r ich
Ġout puts
respec tively
O ut
D en
Ġs ket
How ever
Ġrelax ation
ĠEn gineering
}^* \
) })\
Qu antum
con vergence
s olution
C al
Ġarri ve
Ġ\{ (
s b
Ġsoft ware
Ġrecon struction
Ġdiffe omorphism
{( -
Ġpropor tion
ĠDi rac
: {\
ma ge
s d
si mal
re x
Ġres is
ĠDis crete
ign er
Ġu na
} ''
b ro
Ġn ice
G u
}{ $
ab or
Ġta il
Ġvalu ed
Ġc m
b and
co ded
S R
Ġda y
r l
im o
diff erential
Ġm irr
Ġbound aries
T L
un it
ĠSu bsection
Ġfour th
Ġconstru ctions
c ou
Ġlet ting
Ġspec ifically
Ġdivis ible
Ġg lob
Ġf lexi
k u
}+ (
con stant
Ġ2 9
preser ving
ĠSu bs
Ã ¡
R ec
G P
ĠV ol
ding er
ĠG raph
\ })
Ġau gm
Ġrecur sive
Ġd ou
as so
ĠF robenius
D C
Ġlow est
Ġw ish
ĉĉ ĉ
Ġtriang ular
Ġdetermin ing
bound ary
av y
S ta
Ġpre paration
Ġfib re
ĠB ased
ĠP ub
ur istic
Ġ{ (
Ġf ine
wa p
: \,
Ġend points
the ory
11 1
Ġweak er
_+ (
)\ |^
Ġ9 0
con f
Ġbuil t
. ]
Ġver sions
Ġchild ren
cite d
la g
Ġfor cing
ro pe
Ġlat tices
Ġconstru cting
Ġcu be
F C
Ġs pl
in sic
Ġd ot
Ġd ra
Ġs l
ist ent
}_ *
{ +
te in
b p
Ġreson ance
\ }^
Ġcompact ness
ĠCon versely
v ival
Ġas pects
Ġe ffor
Ġorgan ized
Ġstar ts
Ġal location
ĠĊ ĠĠĠĠĠ
E G
Ġcre ated
Ġf all
ĠD ec
Ġmon it
ĠG a
Ġconsider ation
). }
Ġmonotonic ity
Ġcol ors
Ġestima ting
Ġocc up
Ġanal ys
r up
c O
(\ |
Ġtermin al
Ġp lus
iv es
la m
B R
Ġte le
H y
Ġide mp
K K
Ġpul ses
min imal
ymme try
ex istence
at ern
Ġtor ic
Ġtru th
19 96
k h
}} )$.
Ġma tro
ĠS ha
Ġsugges ted
pp ings
Ġ\\ \
lon e
ĠA b
ĠInter national
V V
Ġcommon ly
g i
_* $
art z
ĠAd ditionally
Ġanaly tical
Ġparame tric
Ġext ract
ĠE xt
Ġspec ify
Ġ ),
Ġdomin ant
su e
Ġ9 5
^{ '
Ġreason s
Ġtr ig
ex act
u u
ever theless
B G
Eu Script
ĠIn formation
Ġevent ually
por tation
Ġla ck
$- $
v space
Ġ title
Ġca p
' |
Ġsec urity
Ġman ip
ĊĠĠĠĠĠĠĠĠ ĠĠĠĠ
Ġex ceed
ĠK ey
ĠP art
Ġendow ed
Ġ3 6
Ġgau ge
D ec
], [
Ġobvious ly
Ġtechn ology
A nd
ara bic
h ttp
Ġper spective
o la
Ġuser s
a nder
inclu de
O D
Ġcommu te
n ers
Ġadj ust
ĠT ho
> [
)) ^{
us s
Ġar range
Ġst or
bund le
Ġ3 7
E L
Ġexhib it
dyna mic
g end
b t
Ġintro ducing
)$ ]
Ġ3 4
Ġpha ses
}) |
ĠG erman
Ġc ause
Ġv s
F e
Ġregular ization
as hed
ĠE s
Ġexam ine
Ġis ometric
}$ {\
sha pe
) ]$
) {$
ha ble
var iable
re v
Ġpure ly
Ġinf e
box times
Ġa f
ific ations
se teq
Ġro ta
Ġdeg ener
i math
ta il
ograph ic
ur n
ib ration
Ġtrans mit
ima ge
Ġf ile
Ġvari ations
u er
Ġmolec ular
Ġpredic t
ĠC R
us ing
sim ilar
B D
ĉĉĉĉ ĉĉĉĉ
Ġ ĉ
ĠC N
Ġwor st
}\ !\
tun ately
ĠJ ordan
is enberg
Ġbran ching
o de
Ġaxiom s
Ġac qu
Â °
Ã ¼
},\ ,
T wo
] ]
Ġdraw n
st ro
ĠS ur
Ġdev oted
n ti
P C
war z
Ġspan ning
Ġfail ure
ĠIn stead
Ġre ducing
Ġdes c
Ġcomp osed
in er
U R
Ġlook ing
te l
}_{\ {
)/ (
Ġprece ding
Ġqu ick
de creasing
as ymp
Ġmod ify
Ġbounded ness
Ġsumma ry
Ġcons equently
ĠGaus s
Ġ| {\
ver sal
c ore
ĠĠĠĠĠĠĠĠ ĠĠĠĠĠĠ
Ġlo cated
Ġstabil izer
ĠE lect
Ġb enchmark
the tic
yna mical
Ġcon crete
sup seteq
ter na
se mi
mathop en
ne igh
Ġminim izing
+ (\
Ġma ppings
n y
Ġestima tors
Ġle ave
G M
: [
Ġcolor ing
Ġnon e
Ġse p
Ġrece ived
Ġmar tingale
Ġcomp ound
T a
res sible
s ho
Ġtrans forms
ic an
Ġshor test
ĠB io
p ower
Ġpurpo ses
Ġrepe at
ard y
Ġconvex ity
Ġdiv ides
F A
ĊĠĠĠĠ ĊĠĠĠ
Ġcomple ted
M on
R a
ke ts
B A
Ġeasi er
Ġatta ck
Ġextend ing
Ġloop s
G eneral
ura ted
P A
F I
ĠLi u
i u
Ġoscil lator
al t
Ġin du
Ġalter nating
Ġ.. .,
Ġt end
v s
Ġnuc le
B V
d ge
P ol
ĠT ype
ale ph
ĠS L
lic ation
olog ically
Ġdete ct
N E
Ġ\ ;\;
d g
ogene ity
Ġc ustom
Ġat trac
tic les
o mp
Ġar ising
le ctions
Ġcirc les
^- $
Ġreason ing
Ġdiffic ulty
t ory
ĠRes ults
N D
oo ts
Ġ3 1
L u
Ġcol lected
Ġcon servation
ĠI m
Ġapproxima ted
al ing
cur ve
prote ct
commu tative
graph ics
Ġda mp
Ġ+ (
we ighted
{?? }}\
j a
ĠEqu ations
con stra
gra ded
12 0
tiv eness
od er
Ġ200 9
ĊĠ ĊĠ
comp on
Ġsumma tion
Ġsuper position
z en
k n
c tive
key words
Ġpref er
Ġfluctu ations
stand ard
Ġsub manifold
Ġ âĪĴ
Ġpoly tope
tane ous
tra ce
ĠB a
mo s
ĠL og
Ġd z
Ġb ifur
an al
Ġagree ment
Ġhapp en
K D
ti er
| )
Ġun c
ven tion
ce ption
Ġremo ving
Ġno thing
Ġprepa red
mb ridge
is tency
Ġconju gacy
Ġtra ditional
Ġstor age
Ġqu e
Ġtra de
en um
Ġ\, .
\{ (
m d
Ġkernel s
\% $
Ġrecur rence
A nother
ar ticle
" ;
ĠV ar
Ġ #
Ġ eq
ker nel
integ ral
O O
lat tice
ĠB u
Ġcongru ence
Ġnear ly
ol i
}}, {\
Ġ\ '
ĠI EEE
Ġ\| _
Ċĉ Ċĉ
Ġthough t
Ġcommun ity
tur bed
ol ing
Ġpower ful
Ġga ve
Ġwit ness
d dot
=\ {\
Ġglob ally
Ġcons istency
iv ing
$ },
^* )$
Ġconstra ined
al an
}) }$
f lu
q q
include graphics
Ġ$ {{\
Ġlocal ization
valu es
Ġpro be
}\ ),
ij k
Ġsol vable
p ub
)\ ;
Ġda ys
Ġpossi bilities
Ġte sted
n c
Ġsu pre
^* \!
)} |
Ġsubsta ntial
Ġover lap
Ġk nots
con ver
chang ed
cal e
Similar ly
Ġen umer
Ġhy brid
[ [
$ ]
o ol
ynamic s
b v
Ġcondu cted
Ġinfinite simal
mple x
no tation
ĠN evertheless
Ġapplic able
ĠY ork
Ġread ily
ig ible
}[ {\
G R
ĠCar lo
Ġpo set
Â ±
Ġtrans formed
\| ^{
Ġoptimal ity
ĠS ing
D er
Ġb ad
ĠT ra
Ġloc ations
}) ^\
at op
P ri
Ġcontra ry
_ +\
j an
! \!
ĠCont inuous
Ġ _\
l ind
Ġsu s
cha racter
us cript
Ġmon th
el se
b asic
ross Ref
ĠG eneral
& +
Ġpotential s
ĠHe alth
Ġsa ke
n k
Ġh ull
Ġ4 5
}' _
Ġt en
,\ ]
he ight
Ġh ar
Ġd ic
duc ation
Ġarchite cture
g ies
ke l
Ġread y
Ġdiscus sions
ĠF ind
bab ility
Ġsu ff
Ġsha red
e f
Ġ ener
}= -\
X Y
Ġima ging
w an
ĠH igh
re lated
ĠLy apunov
. :
co ordin
Ġver sus
Ġsimpl ified
ge ometric
Ġden sities
Ġdiv ision
Ġformula ted
Ġsubstitu tion
- (\
ak a
Ġthere in
L C
Ġe lastic
pr ising
Ġ ).
de pth
ĠG ro
math close
Ġvisco sity
Ġex pl
Ġmod ulus
Long rightarrow
Ġcol lap
are st
Ġdri ven
}{ -
r ont
}] $.
co st
Ġmonoid al
Ġ âĪ
)}\ ,
Ġ- (
un e
p olar
Ġphenomen a
ur l
Ġpop ular
'' \
'' .
itu des
aly tic
pi red
or ov
g ating
ĠC H
. (\
at en
an cial
}) {\
Ġmaximal ly
;\;\ ;\;\
Ġen gineering
Ġin duce
Ġpla ces
Un iver
Ġeigenvector s
lem ents
Ġ3 3
Ġ !
ac tive
Ġin t
l ist
st ring
ĠApp l
it on
+ $
) *
lo ch
Ġindex ed
Ġdistingu ished
ĠFound ation
| }{\
s at
cal ly
M ulti
}^* (
Ġunit al
ell er
eqn o
. "
Ġiden tically
}_{ [
vel ength
}^{ [
us ted
posed ness
e lect
S ha
Ġc er
bot tom
Ġ\ }$,
Ġminim ize
C hen
S tokes
Ġarrow s
Ġquanti tative
th arpoon
Ġindu st
Ġpair ing
act er
Ġan tic
par tition
Ġm ind
st on
Ġcom ing
Ġd ashed
ni hi
Ġlat ent
Ġve hic
Ġre ly
Ġla nd
an n
Ġlet ter
Ġqu ar
Ġdisplace ment
Ġcan cel
Al g
B r
Ġcar bon
S ing
Ġ200 8
Ġpreser ve
con e
Ġden omin
Ġexper ience
; {\
en ti
Ġlet ters
Ġenviron mental
Ġis otropic
Ġalgebra ically
Ġtra in
' .
T C
Ġcau sed
Ġcoar se
ĠY ang
y y
ri x
Ġscore s
' }(\
ĠJ an
g ray
Ġs or
it t
Cha pter
19 95
100 0
Ġautoma tically
Ġvar iants
Ġre ally
Ġac id
Ġposs ess
+\ |
Ġex po
Ġl isted
}\ ).
O L
Ġcol our
ri al
Ġregar ded
G F
ext ension
d ig
ab ove
)} -\
ĠS pringer
ĠA lex
Ġn ano
S ome
Ġp ort
Ġminim izer
_ _
Ġcla imed
D i
Ex p
97 8
ĠMon te
rt in
Th ese
o tic
t p
Ġhe ad
Ġ8 0
Ġac ces
Ġan c
el low
Ġcomb ine
Ġ ray
= $
u an
M c
Ġintegra ting
ch en
di ab
s paces
or bit
G ra
F in
Ġinver sion
Ġper forms
restric tion
rac le
Ġcons equences
Ġprincip les
Ġdri ft
App endix
|\ \
ĊĠĠ ĊĠ
Ġno isy
s ys
lo od
ĠJaco bian
Ġman uscript
on ds
Ġ1 96
H am
Ġcons titu
L ip
ĠP h
ER T
ĠEu rope
si bility
S W
'' _
Ġp lots
Ġpreser ved
Ġrobust ness
) }^{\
Ġdiag no
ec es
ĊĠĠĠĠĠĠĠĠ ĠĠĠĠĠ
' _\
w s
Ġk e
le ase
Ġfore st
i ent
pon ential
Ġidentif ying
df n
k j
\\ [
Ġmut ually
' }}
ĠP ic
Ġcirc ular
Ġdefin able
D es
Ġa rm
le in
P M
Ġ )}
par ticle
Ġreac hed
A E
big vee
Ġabs ence
wh ite
group s
, {
Ġassoci ate
}\| _
}) ]
C I
z es
e g
Ġa mple
3 00
_* (\
ga tes
a ut
ĠA g
ver b
Ġqu eries
Ġinvesti gation
Ġconven tional
Mo del
}} },
ĠG r
W ang
ĠSo ciety
Ġtra ined
ĠG roup
te o
Ġpub lished
ĠAl gebra
ha ps
Ġformal ism
ger y
Ġma pped
e igen
re hen
Ġser vice
mb f
Ġ$ <
se y
requ ency
Ġg rant
\, {\
Ġmulti variate
w hen
ric k
Ġdepic ted
Ġtermin ology
}\ |^
)) -
er a
comp osable
es tima
n ik
Ġad vers
ĠD av
Ġdri ving
Ġcomp arable
Ġcompu table
gre en
do min
Ġper cen
go ing
Ġcou nts
| =\
Ġen coded
ĠCh ern
er c
ĠS T
exp an
Ġen ables
Ġ\( {\
): \
ble ms
Ġref ers
in duced
ĠE ven
ĠM ay
Ġ\| _{\
or ation
}{ $\
ĠD ynamical
mon ot
Ġcheck ed
Ġex cited
Ġback ward
S ol
ue l
ĠK u
spec ific
s ig
v or
con st
Ġclin ical
d ri
N C
}} |\
ĠN umber
No tice
Ġsquee zing
Ġ }^{\
# \
be low
s gn
k m
w in
Ġ\ }.
F L
Ġbelie ve
)| $
}) /
Ġat tain
Ġtw ist
K M
ti le
Ġsample d
Ġhelp ful
Ġexperiment ally
)\ }
Ġstr ings
ap an
Ġplace d
Ġ??? }}{\
N I
Ġfoli ation
S V
Ġmana gement
}\ }$,
Ġanalys es
]{ $
F G
Ġ: ---
b group
Ġexpon ents
ur y
}\| _{\
y p
&& &&
on ically
S i
ĠOb viously
de ca
la ss
eng ing
og on
Ġapp endix
f o
Ġremark s
cyc les
Ġbase line
Ġma ster
Ġintegra ted
- }
Ġ? }}
Ġ }(\
Ġintr insic
ĠEar th
mar d
ĠS y
E X
M arkov
io ds
Ġperturb ations
ether ian
ĠN etwork
ar s
Ġre comm
e fficient
ou lli
Ġ ^\
Ġvol tage
alg o
Ġfunction als
up les
lec ts
m t
Ġspect ro
ĠE instein
Ġtop ic
Ġiter ative
Ġqu atern
Ġchallen ges
b if
Ġstre am
ĠThe ir
Ġat tract
e group
s n
Ġtell s
Ġmolec ules
resul t
ha us
}\, .
parame tric
th ered
Ġbelong ing
: (
ĠC ox
de c
ra tic
fra me
)\ |_{\
ti vities
| +|
P G
Ġ\ |^
Ġminim ization
w al
od rom
Ġcomm ents
Ġpotential ly
ĠCont rol
{$ {\
om ics
ĠK a
Ġdetector s
Ġsta tic
Ġo be
Ġhe uristic
x es
}} }(\
ĠR et
lif ford
f unc
ĠComp uter
ore nt
Ġde l
Ġrandom ized
Ġmultipl ier
oots tra
ĠA ust
ss on
ri an
ĠM od
W h
Ġdig raph
Ġ6 4
wor ld
{?? }}$
T V
Pre liminaries
K P
Ġ4 8
Ġs il
ĉ Ċ
$. \
19 94
| <\
' },
Ġdiv iding
sta bility
Ġsemis imple
T or
n mid
ĠĠ ĊĠ
Ġsto pping
=\ ,
act or
n atural
B ra
le ge
t d
po se
Ġrig or
Ġres cal
Ġt uple
Ġ& :=
Ġ$$ (
Ġconf irm
, ...
ĠApp lied
Ġ& +\
es ted
Ġprocedu res
ĠCar tan
X X
Ġimplic ation
it ch
Ġbi rational
jec tivity
Ġ4 2
Ġspe aking
n ice
Ġin gre
Ġ200 7
C at
Ġprof iles
ec tive
se cting
r n
perim ental
ĠM C
Ġs ound
Ġprog ress
ti tive
ĠHe isenberg
) ~
cal c
Ġinter fer
H M
Ġcontribu te
s hed
algorithm ic
}\ {\
Ġpan el
ĠE ng
nu al
po ssi
Ġcardin al
add le
L A
Ġspl its
M or
ympto tic
Ġsen sitive
P e
Ġ200 0
Ġv or
Ġmotiv ated
Ġsyn chron
d V
u be
Ġ. $$
Ġsub category
ĠSo c
theore tic
))\ \
Ġconju gation
Ġsub div
110 3
te rex
ex pand
)\ }_{
Ġsupre mum
u x
Ġcon sumption
Ġme t
tharpoon up
an ge
after group
m or
Ġ\, ,
Ġbrac ket
h ind
F M
ĠI SB
G raph
orent z
es sian
ran e
Ġlo t
Ġwal ks
ĠInt roduction
Ġguarante ed
Ġconsider ations
, ,
Ġconcern ed
Ġsome thing
$ |\
c H
Ġco s
Ġan nihi
approxima tion
G re
Ġl iqu
cor d
Ġexter ior
Ġmirr or
Ġatta ched
ĠL abor
= .
Ġsome what
Ġvalid ity
! }\
Ġfinding s
< -
alance d
Ġaff ected
Ġimplic ations
ĠCent er
W hat
}^{ +\
for tunately
C V
ĠL in
as c
en se
c M
ĠH ecke
Ġj ournal
Ġro oted
Ġexci tation
z er
f un
d p
me th
ĠISB N
Further more
Ġst ore
^* _{\
re lation
o ck
De fine
L in
tri e
> ]
Ġdecomp ositions
j j
Q C
' })
Ġd ark
dis c
to ff
l ish
Ġpoly gon
S c
Ġsimple st
ic z
iv ari
or dered
12 5
}\ }\
Ġm m
Ġc lar
Ġk in
ĠC A
V ol
Ġinde composable
Ġswit ching
Ġ= &\
Ġ$\ {(
Ġen able
Ġt rop
ĠP O
Ġb ath
co pe
Ġs cre
N orm
re am
)) )
dc ds
con jecture
ĠA ut
pa ss
Ġdiscre tization
x ic
I EEE
c F
}( |
Ġpro grams
Re g
original right
original left
il de
}} :
ĠMeth ods
~~ ~
ar ning
p ation
m ix
Ġassocia tive
be q
ĠB en
ĠSta tes
ĠCo hen
$ ~
is otropic
U C
s ample
Ġcli que
Ġindic ator
tim ization
Ġam ounts
Ġ %
Ġchall enging
Ġ$$ {\
Ġsol ar
-\ !
nu ll
Ġde ci
cknow ledge
)| =
}- {\
rehen sive
bra ket
resul ts
Ġsimple x
co v
Ġa diab
uzz y
ĠO nce
oid al
ĠCal c
var kappa
Ġth ings
" ]
N T
B a
Ġi ons
Ġcon es
Ġ lying
Ġpay off
S tr
un i
ro xima
Ġpati ent
Ġconclu sions
t re
B i
ha o
Ġassoci ation
h r
sh ort
vari ety
:=\ {
equival ent
Ġshif ts
an cy
f ixed
dia gram
Ċĉ Ġ
Ġsu bf
{ ,
Ġwa velength
sco py
}$ ),
Ġoccur rence
' )$,
D T
Ġle d
{\ '
ĠI V
rr bracket
)) (
ll bracket
j unction
^{* }\
le ton
Ġrewr itten
ĠS tar
Ġb us
terex ample
l brack
\}. $$
ĠS he
an a
Ġdiscrimin ant
Ġpres cri
Ġcomp lementary
Ġran ges
}, ...,
Ġd r
Ġabsor ption
der s
con du
ĠCa mbridge
{ ~
Ġcomp ac
Ġb os
Ġm ill
Ġ= (
ĠE con
Ġconc aten
ĠP lan
in ess
w hile
ĠN at
R P
ĠL inear
ivari ate
re y
an ces
Ã ¤
ad ing
Ġtrun cated
Be fore
G D
Ġga mma
4 00
Ġ| }
lo so
M I
equival ence
$ (\
ere nt
@ {}
Ġpre liminary
Ġs lice
Ġ\( (
cell color
Ġformula te
ĠSch ool
ĠS ti
Ġin str
Ġbe hind
Ġne ur
Ġcurrent ly
Ġresis tance
ĠJ ohn
rela x
s equence
Ġ1 000
DB LP
Ġcompact ly
ĠW al
ian s
Ġcor ner
es ter
ĠV e
Ġf ront
Ġlabel led
Ġ( [
}} }_
ĠJ a
Ġdo ing
ĠP et
H o
ĠN ash
margin note
Ġsta tus
)) }\
Ġhe avy
{\ |
H C
ed er
Ġb is
Ġho pe
respon ding
Ġper iods
Ġend point
Ġfin ancial
Ġsequ el
ĠW igner
v rule
Ġf lip
ĠH ardy
div is
er re
ĠU se
Ġquadra ture
Ġfin ds
B E
pol ynomial
vi tation
W hile
la st
pa ck
ĠTh roughout
ĠJaco bi
Ġrefine ment
ĠT ime
t ures
Ġpla te
t raction
Ġho le
dis tance
im it
}] $,
ĠC ur
n x
cur rent
Ġequ ally
ak i
Ġ20 21
) }}{\
s w
z c
h h
Ġto m
Ġformula e
Ġcirc um
Ġsuccessf ul
Ġun like
cohere nt
)$ \
Ġo racle
in creasing
Ġout per
ĠW ork
Ġsummari ze
te m
Z hang
\ }\\
Ġachie ves
ĠT op
/ (\
Ġpara graph
H D
Ġ| {
ĠBe fore
R L
ĠH an
) &=&
Ġver ification
ti os
Ġd uration
lo ss
ĠS U
+ +
Ġbin omial
Ġbi ological
n b
ĠM u
bi ased
Ġde velo
ell ip
han ks
ĠM ater
}} )$,
math p
ram ified
Ġsket ch
Ġentire ly
ak er
t b
)\ ]
righ tharpoonup
Ġintersection s
Ġdecomp ose
i ro
e b
Ġrough ly
c A
Ġhom omorphisms
ĠT ran
ome ter
' /
] -
' )=
l g
k g
dis crete
Ġpref ix
ĊĠĠĠĠĠĠĠĠĠĠĠĠĠĠĠĠ ĠĠĠ
N F
Ġ 99
Ġplan es
ĠSection s
^- _
B er
+\ !
Ġsuppor ts
B H
Ġa xi
tif y
\, }
)\ |_
Ġbran ches
repres entation
ar di
B T
{- }\
lexi ve
th ree
Ġtriang ulation
ĠNa vier
M F
e u
Ġsmooth ing
S H
od inger
}) \,
Ġre ward
K o
Ġmedi an
ĠE nergy
Ġecon omic
19 93
Ġ( |
lin ed
den sity
Ġs w
Ġre p
Ġne gl
Ġchallen ge
ĠO ver
Ġexplan ation
Ġlift ing
d m
G E
Ġf ract
Ġrelations hips
D o
ĠAs suming
)$ ).
Ġco vari
Ġz eta
Ġadvan tages
Ġsur vival
] )\
ention ed
Ġpack age
Ġord inal
Ġsu re
Ġimmer sion
A nal
Ġpi eces
Ġconsider s
Ġ200 6
ĠM A
set length
Ġsignific ance
}) ;
' }$.
Ġb ul
et ale
Ġ tis
ĠMe an
no align
g p
Ġn an
c ard
continu ity
k t
ou ville
Ġsp heres
ĠM ic
d ouble
sp in
la ter
Ġsimula te
ĠApp lications
subset neq
ĠS tr
tr ical
Ġhyper graph
Ġcompu tes
}- (
u ff
D ata
Ġf irm
Ġ )$.
Ġexpan sions
Ġgroup oid
, *
C he
O PT
In s
Ġmotiv ation
Ġb ur
ĠAmer ican
)> \
Ġde li
ill ia
Ġrecall ing
Ġac comp
long mapsto
text width
n als
lu g
ia o
Ġgra ding
pro cessing
ĠGerman y
mis try
Ġwh ence
bed ding
v ation
Ġne arest
Ġlimi tations
ĠS c
small setminus
Ġsp ir
aris ki
in put
v ices
r c
- $\
Ġmess age
triang leq
Ġ3 8
- .
. (
Ġsymme tries
}| $
Ġsmooth ness
tor sion
^+ }
ĠG en
ec han
Ġs ensor
g t
L og
Ġdoes n
Ġcol ored
ĠĊĠ Ċ
Ġener gies
oren stein
Ġfla g
gener ic
ĠS tra
ĠP y
Ġpla sma
C ho
un ique
land s
. }}
$. )
in itial
Ġh ttp
Ġin hib
on om
Ġb id
Ġvio lation
b ling
um in
{ ?
Ġclo ck
Ġvalid ation
Ġf usion
P L
cor o
Ġmonomial s
c C
| +\
wo od
ĠLi ke
iten ess
Ġthere by
Ġseman tics
decomp osition
Ġapp arent
Ġestablish es
Ġre ci
K ey
so v
} &=
Ġpol ym
b n
00 01
Ġlangu ages
}} }_{
^{* }(
Ġover view
ta ils
D I
ĠH o
ire cted
Ġparticip ants
Ġper son
Ġsyste matic
et al
s qu
ĠD el
stru ctions
T ime
Ġsur prising
Ġalpha bet
ĠStru cture
si mp
R ed
P O
_{ _{
it ro
ĠF lo
Ġchang ed
ĠJ apan
| _\
Ġse ed
Ġado p
re a
] }{
Ġdru g
b ow
Ġ?? }
Ġ7 0
Ġequal ities
th on
Ġintu ition
Ġt oler
compon ent
00 2
Ġreal istic
Ġfra mes
Ġclassif ied
Ġtri al
Ġtrac k
Ġbra in
Ġmod ern
Ġsquare d
Ġ??? }${\
Ġtherm od
Ġstatis tic
\ )-
D iv
Ġst ored
ĠS ystem
Ġ\ ).
ĠB ound
ca pe
Ġclo ser
Ġextreme ly
he v
ĠUniver sit
W hy
T A
M E
Ġpo le
Ġd ro
triang ler
a w
Ġgrow s
Ġdecomp osed
align at
Ġuniver se
it or
tiv istic
s est
Ġautoma ton
Ġliqu id
Ġpop ulations
Ġt um
`` `
ĠF r
til ity
( $
Ġpen alty
rr rr
18 0
pothes is
Ġjo in
vo ir
Ġen gine
ga thered
F H
Ġcalcula ting
Ġgeneral izes
Ġkine tic
H ar
Ġcorrect ly
Ġla bor
Ġimp lying
D L
G A
hi loso
con ne
}}\ )
Ġcount ries
ĠP la
ĠL orentz
Ġ4 7
Ġres p
Ġcovari ates
10 5
Ġne ga
serv ative
Ġs ort
plan es
c ount
^ -\
equ al
Ġjump s
in finite
a dap
ma ximal
L ipschitz
Ġf und
Ġpla t
}}$ \
Ġthem selves
h ler
ĠB ur
ĠP R
Ġquoti ents
Ġs ending
Pro blem
Ġbox es
[ $(
Ġ: \
}} /
ĠC lifford
Ġado pt
Ġ\ },
Ġw ind
ill ing
)} ]{
^+ _{
ies z
Ġin duc
Ġra tios
Ġ Ã
ere nti
N a
Ġ )^
ro ot
Ġrecor d
en able
par se
ida tes
Ga ussian
Ġadiab atic
Ġ rou
ogon ality
ib bs
N L
ra ys
ch or
Ġexplo red
}. )
Ġindic ating
rr or
\/ }
\ (
Ġext ent
c z
Ġcli mate
Ġhe l
s ke
h or
y e
ĠStatis tics
c v
^+ ,
}$. }
Ġvar ies
ĠSch ur
Ġf erm
Ġcomp r
Ġ7 5
ĠB S
Ġ4 6
no ise
Ġpo les
ha el
m ith
Ġgeodes ics
Sec ond
Ġcus p
ashi on
Ġwe b
Ġis ome
ces sed
Ġconnec tivity
ant or
Ġre trie
Ġdevi ations
it o
Ġra ys
Ġ }.
ven ue
st ron
Ġtrop ical
Ġsummari zed
ĠProper ty
Ġcon cave
Ġas pect
,\ ,\,
M ed
prop to
+\ |\
12 8
Ġcou ple
Ġquick ly
su mp
Ġpro jector
}} ;
}}\ |
Ġcomp ression
Ġr ich
an alytic
ate ll
})- (\
ĠRec ently
Ġdeal ing
Ġlear ned
ion ic
Ġmethod ology
G W
Ġend omorphism
b ru
Ġag g
ten s
Ġdamp ing
Lo cal
Re p
ĠG P
, |
Ġdis ks
r cl
)\ |\
triangler ight
Ġ }_
Ġelectro magnetic
Ġdis t
de qu
Ġmatro id
f p
ĠS an
Ġmode led
Ġpo or
van ishing
re call
ĠĊĉ Ċ
Ġj ob
odrom y
Ġextrac ted
Ġanaly zing
Pro b
Ċĉĉĉ ĉĉ
Ġidemp otent
B O
Ġpredic tive
Ġh ouse
(\ |\
)| _{
cc ur
Ġomit ted
K u
Ġa da
Ġdenomin ator
possi bly
H E
Ġelectron s
}( {
me mber
Ġemp lo
ĠW i
Ġsign ed
}. \\
- |\
triangle left
cu sed
Ġo ld
ĠD NA
Ġbifur cation
Ġ: =\
Ġscal ed
Ġu r
Ġdata base
Ġra dical
Ġcontinu ation
tific ial
Ġmultip lying
T ilde
ink owski
Ġdig ital
Ġnegl igible
ĠIn te
ser ved
atell ite
th ere
Ġ\ @
rom ov
ra nd
ing ly
Ġempha size
Ġreco very
ver sion
)\, .
C rossRef
19 92
Ġenviron ments
Ġappe ared
Ġp ix
s yn
)}{ |
$\ ,
Ġt ensors
Ġp un
Ġco ding
Ġw ar
Ġ3 9
ult ure
Ġs chool
A x
Ġgene tic
ay ley
Ġcaus es
F R
Ġinc idence
Ġse ctor
^* =
sing le
) {$\
Ġ6 5
I L
ĠY u
}+ {\
ou lo
q w
Ġstar ted
{ .}
du nd
llip tic
Ġsp ins
ĠE d
Ġ200 5
Ġimpro ves
t f
ll ll
ci ties
T op
Ġfil tered
M O
ĠB ol
lem m
}^+ $
y z
si te
t n
ĠM ag
ĠPro ceed
Ġcross ings
Ġpro mis
Ġband width
proper ty
H P
' ^
ootstra p
Ġelectron ic
Ġhy pe
Ġsign s
Ġactiv ation
Ġrece iver
\ :
Ġun ramified
Ġdissi pation
con ju
Ġ5 3
Ġre ducible
min ation
ĠMo st
ĠJ o
s ome
Ġde lta
ĠS O
t m
Ġpro m
Ġthe sis
M an
Ġem it
w all
sta b
Ã Ń
Ġ\ }_{
Ġcent ers
Ġgra vity
fam ily
Ġcompati bility
Ġde ath
p ing
ut ine
Ġcover age
N O
\ })$
h dots
Ġ\ ),
}$ &
Ġob sta
{$ ^*$
Ġread ing
ĠS to
Ġequival ences
pa tive
Ġmar k
Ġoptim ized
Ġhome omorphic
ĠÎ ¼
da mard
Ġpla nt
Ġm ic
Ġrecur sion
raise box
Ġcontradic ting
Ġpo sitivity
ĠA cade
ĠBes ides
ĠA D
Ġ5 00
re duction
P I
% )
Ġdecision s
M u
ol m
Ġpar ties
R N
ĠMeth od
Ġbe ams
Ġloss es
B u
}( -\
)\ }$.
ĠLe arning
Ġ$\ #
Ġqu iver
ĠP DE
me chan
d w
Ġinteract ing
b k
Ġa cyclic
normal font
Ġt alk
cor ner
Ġshif ted
P ub
ĠM ach
d get
bound s
_{ *}
Ġadjac ency
st ric
ĠZ ariski
ĠLe gend
I mp
cent ral
Ġoscil lat
Ġreach es
Ġresearch ers
Ġcheck ing
me asu
Ġbi jective
il ities
Ġsubs ystem
Ġ$[ -
Ġover come
Ġampl itudes
t rees
ĠEurope an
he l
R M
Ġn m
ron ic
MS E
pend ing
scale box
Ġm ild
a belian
Ġillustra tes
Ġsuccessf ully
ent ropy
Ġrecur sively
Ġb lood
Ġro tations
one y
m entation
ti zed
da ble
en sive
)) +
coordin ate
ot al
Ġtemper atures
00 5
Ġ4 3
F D
Ġmost ly
ĠRe view
Ġconver sion
s g
Ġ& (
Ġoscil lations
; \\
on ly
Equ ation
{ #
Ġconver ging
Ġas semb
}\, ,
Ġn arrow
Ġlocal ized
ati ble
Ġrela te
Ġarg u
Ġo c
sta ge
b R
m k
^* )\
d R
Ġevalu ating
] ^\
Ġdevelop ing
ĠM icro
^{* }$
Con clusion
ĠCh ar
[ $\
utation al
Ġcontinu um
Ġop tion
val id
ĠCla ssification
Ġparameter ized
ĠBern oulli
Ġconcern s
g tr
Ġ$\ ,\
l k
arg ed
tr ue
ce d
ĠL P
Ġexpo sure
Ġin jection
ĠW u
Ġcoun terexample
k r
ha s
us es
ho ff
)( -
Ġtra ffic
\, $
V I
Ob serve
Ġ4 1
Ġsta ges
+ {
Ġiter ated
) ;\
big otimes
v p
Ġexpand ing
DF G
ta ke
be ll
~$ {\
Ġs pon
_ -(
Ġar Xiv
Ġlif ts
co h
ĠS olution
Ġmach ines
Ġ0 11
ha se
Ġmodu lation
Ġfrequ ently
Ġ| |\
A ss
Ġunc ertain
ĠLe e
im es
ĠU p
ĠM echan
Ġmod ifications
01 0
Ġ$ *
orth ogonal
Ġme tab
in verse
Ġdisper sion
T ra
gra dient
t um
E F
y c
pro cess
at om
Ġstra in
ĠExample s
Ġyield ing
Ġplot ted
{ *}
ĠG H
Ġpri mal
, &
\, (
Ġeigen states
Ġde tun
Ġme mb
Ġlink ed
G en
succ eq
Ġe ight
Ġimp ose
as ser
ou nce
Ġinterpre t
Ġaverag ing
f requency
Ġupda tes
w ater
Ġkin ds
K a
H L
Ġdis tor
Ġho sp
Ġ. $
{$^? $}}
Ġre ar
ibra ry
l c
Ġhierarch y
Ġ. \
Ġswit ch
Ġ( {
et ti
Ġasympto tics
Ġassess ment
ĠB loch
Ġte tra
mom ent
po ch
C K
ĠM L
c L
Ġcomp ens
Ġeigen functions
ĠG o
pher ic
ta tives
Ġch art
ĠE ve
Ġfrac tions
ho le
Ġattemp t
ĠC V
Ġs addle
] },
Ġcommu ting
to mic
Ġsc an
ro t
ĠSte in
ĠM ac
algebra ic
re duced
Ġa lone
parame ters
Ġclaim s
Ġse min
Ġsquee zed
Ġcommuta tor
Ġobser ving
Ġdesign s
Ġclassif ier
res sing
P h
d if
Ġbar rier
Ġhypersur faces
ĠĊ ĊĠ
ĠLabor atory
A fter
ĠLe vi
Ġins pired
a ving
ga p
den se
Ġem erg
Ġfo cused
Ġco in
Ġd ie
, (\
Ġm ul
dire ction
normal size
Ġre v
Ġcollap se
Ġfe wer
ĠPro f
Ġmedi a
nd ard
Ġautoma ta
Ġneut ral
ĠHa damard
$ ^
Ġeffor t
ĠO DE
] $-
ĠS un
res sive
ĠPro positions
Ġsecond ary
Ġgu ide
color ing
@ {\
Ġcon duc
ĠS how
Ġoccur ring
f u
C B
}). $$
ad es
C r
ar ial
Ġcontinu ed
Ġgu ess
Ġmultip ly
en ded
ĠH essian
Ġcu mula
n l
Ġreser voir
Ġf ashion
ĠS I
Ġrapid ly
ili ar
ĠW il
c ot
Res ults
Ġbenef it
p in
ĠUn ited
Ġdiff ers
Ġcell ular
Ġnonlinear ity
fil led
Ġan imal
[ (\
n r
Ġeffec tiveness
= &
J o
{}^* \!
15 0
en o
u it
Ġdi pole
ot ropy
Ġb ic
Ġenhance d
M D
{- .
a tively
ĠEqu ival
ma le
[ -\
\ #
Ġupda ted
Ġstar s
pro jective
$ _{
ĠMor se
Ġintro duces
^* ,\
Ġref lected
Ġacceler ation
}). $
Ġd v
}$ \\
Ġmod er
] :
here nt
}] ,
titu de
z u
Ġsimultane ous
ob er
Ġassu mes
Ġa ut
row th
ort un
) _+
U T
Ġ4 9
Ġful fill
Ġmajor ity
s pa
ĠCon ference
valu ation
Ġ5 5
ĠAr ticle
Ġpoly g
Ġag gre
la ble
U nder
\!\! \
Ġrecor ded
b ad
Ġ\ !\
ill s
' )}
form ing
Ġram ified
normal ized
| /
lear ning
Ġper turbed
ĠR andom
p n
Ġpre vent
Ġthe ta
end i
ma tically
Ġaverag ed
ĠA R
^* _\
cu be
Ġ }^
clu sions
---- ----
Ġ\ %
ĠSet ting
Ġden oting
ĠK im
r ink
Ġsub jects
ce an
K T
mma ry
Ġexhib its
on omy
im od
i en
cur rence
Ġquanti zation
Ġadvance d
Ġ4 4
Ġsupp ly
Ġsubs tituting
Ġinduc tively
Ġprobab ly
Ġrequ iring
Ġaddition ally
Ġpolic ies
ian ces
}\, (
Ġspec ification
E A
Ġext raction
Ġpas ses
Ġin iti
Ġlogarith m
Ġanalog y
Ġcomputation ally
on i
Ġ /\
Ġexecu tion
da m
center line
Ã ³
'' }
be red
Ġpric es
ct ually
Ġma nu
Ġreson ant
Ġreveal ed
|\! |\!
ĠMan y
^+ $.
sur face
\ }^{
Ġu ne
graph y
Ġrespon ses
ond on
ĠHam ilton
}\ ;\
Ġmut ual
R F
condition al
Ġ200 4
u ro
ĠK ra
Ġconf ir
S el
Ġgrow ing
ont inuous
)\ ).
c X
19 91
org an
I ON
sub j
' ll
}& =\
ĠHamiltonian s
Ġequilibri a
ev y
_- $
}} [\
Ġde duced
ĠEs tima
Ġf uzzy
ib ase
f unctor
regular ity
19 90
ic ular
c as
Ġb irth
Ġpercen tage
Ġun ita
Ġhigh l
Den ote
B ut
po st
Ġdec ide
Ġwin ning
do ibase
qu et
Ġcomp rehensive
Ġfree ly
Ġsuper condu
ĠCh ris
f n
U p
ff er
Ġoper ating
Ġaugm ented
Ġ1 95
2 10
p seudo
ĠT ri
Ġme dical
al so
d n
ly eq
Ġann ulus
mo ve
ĠA rtin
Ġrandom ness
Ġadd ressed
b alanced
Ġque ue
ĠF isher
Ċĉ ĊĉĊ
Ġ )=
corre ct
: =(
Ġreplace ment
Ġimp lied
Ġper haps
R iemann
Ġtele portation
e z
ig gs
Ġsol ver
Ġrepresen tatives
Ċ ĊĠĠĠĠĠĠĠ
Ġfit ting
- {
ec ker
' ]
e ch
Ġapproxima ting
ju mp
cus sion
Ġin er
Ġun changed
ĠF ano
Ġde formations
Ġlog istic
tang ular
Ġp arent
H F
}) }(
ula ting
Ġor bif
Ġcand idates
)) }{
lo ad
ĠD ia
^* $}
Ġconne ct
Ġin su
Ġcre ation
ca ula
onom ous
ss mann
^* -
un iver
ion e
dis joint
' re
i rable
ate st
Let t
^+ $,
Ġsyn thesis
Ġcol lective
Ġmonit oring
Ġexten sive
( [\
Ġsubgraph s
en ed
subj class
la w
Ġexplo it
Ġprescri bed
x u
J aco
}, {
Ġintegra te
Ġparametri zed
on o
Ġconcentra tions
pr incip
pres sion
)! }
Ġfurther more
li ft
L inear
Ġb ridge
Ġw ire
Ġdifferenti ation
os p
)$. }
^+ (\
ĠH el
deca y
Ġ ~~
jec tives
Ġcounter part
ul ing
non e
Ġse ven
Ġfa ult
O A
den s
stru ctures
Ġmode lling
Ġ$( -\
Ġ er
Ġmacro scopic
Ġgra dients
err ing
Ġ??? }{
Ġac tivities
{\ ,
Ġag rees
ĊĠĠĠĠĠĠĠĠ ĠĠĠĠĠĠ
ro me
Ġsur gery
C an
Ġcaref ul
Ġorigin ally
}) }.
F GH
Ġtrip les
Ġmaxim ize
gtr sim
c S
ĠD an
ho ods
ĠE ff
Ġfix es
Pro per
& \\
Ġfore cast
hed ra
hol omorphic
Ġlabel ing
Ġanaly tically
Ġat tained
reg ation
inter val
Co h
w d
ĠN or
P E
Y ou
Ġco hom
Ġfix ing
Ġ )^{
Ġem er
Ġ )$,
at um
ogen ous
_{ [\
y d
R W
c b
Ġquad ric
;\;\ ;
ĠL and
Ġhas h
^{* *
Ġco oling
Ġbe ta
L O
Ġover la
( .
ĠF act
ĠSubs tituting
A ccording
d ence
Ġser ve
Ġthick ness
sta tionary
ĠPO VM
ĠT or
ĠÎ ±
Ġ\\ &
) [\
fil ter
Ġbound ing
Ġco variant
}' ,
ĠS pace
do x
Sch warz
Ġreal ize
Ġsat urated
u a
Ġvar iability
\, ^*\!
ĠAm ong
bur g
Ġimp osed
Ġname d
Ġreve als
asso cia
Ġmon odromy
Comp arison
ĠF a
ra tions
Ġaccura tely
Ġre plic
ra t
on a
@{- }[
Ġjo ining
Ġarrange ment
pl ication
vitation al
p lot
Ġco cycle
anal ysis
[ ]
G C
da shed
00 3
caula y
Ġb acter
Ġoptim ize
pend icular
Ġto ward
ele ment
}} }^{
w ang
Ġsh aring
)) ,\
Li u
Ġlinear ized
H I
j s
tan h
^* }\
ha bility
Ġstructure d
to day
ide finite
Ġw omen
T ri
Ġfil ters
}{ {
endi eck
Ġkeep ing
ro man
Ġans wers
ou ra
Ġimpro ving
\ ,\,
m orphism
ti a
Ġin her
\ }=
G K
$ ^{
| )\
Ġout line
ĠS um
Ġflexi ble
ĠG ener
Ġfac ili
Ġinter secting
can onical
O ver
Ġcertain ly
Ġre fined
ĠF er
app ing
)} }$
var vec
th endieck
= =
Ġexamin ed
{??}}$ {\
st ream
velo pe
^{ |
ab ric
measu rable
T rans
\},\ {
Ġ5 4
d ir
Ġbin ding
Ġis otopy
Ġglu ing
fa ult
si a
in j
Ġc lean
Ġcon ic
Long leftrightarrow
top es
Ġins ight
Ġtran si
le ment
)) ^{\
ck er
Ġrota ting
> $
ĠN ormal
}| =
H O
'' )
ĠW or
pha sing
Ġne gle
clu ster
ĠC ayley
tot al
Ġtri als
Ġsingle ton
Ġdisco vered
Ġhe x
Ġrecur rent
Ġcontro ller
: $
\ (\
tangle ment
A v
ĠO ut
}$ };
Ġamb igu
imo dule
s v
Ġvalu able
Ġexten sively
B en
Ġme ets
, ~\
' ),
Ġme tal
Ġ| (
stric t
tabular newline
ĠDav id
ib n
Al gorithm
ĠCol lege
),\ ,
Ġfinish es
Ġmin us
ad missible
Ġs k
M ap
,\ {
che t
Ġpriv ate
Sp in
re nces
Ġanc illa
Ġnon degenerate
ed ges
cr it
Ġref lexive
% ,
Ġtrans versal
Ġclassif y
ĠC D
ip otent
p b
Ġconjecture d
ĠEn viron
Ġcol lect
ta ted
ĠH all
Ġcon v
}} }$.
02 6
bi le
Ġsur round
ign e
Ġso on
ĠK e
) &=&\
ĠCar tesian
Ġmove ment
' }$,
ĠL ang
sa tisf
ĠI den
ĠG rant
Ġgre edy
es sion
Ġf lo
Ġex ercise
Ġcal ibration
en space
A cknowled
198 9
Ġho les
Ġta n
Ġprote ins
B I
Ġsyn thetic
}_+ $
Ġsa f
}} }^
col og
ĠG orenstein
| {
V dash
Ġsci entific
Ma thema
Ġestablish ing
R em
Ġinclu sions
deriv ative
cons istent
orem entioned
Ġth ing
w artz
ac ute
c E
ĠDiff erential
[ $
Ġcent re
O ther
ul ties
Ġte ach
Ġfam iliar
n f
Ġcar ries
Ġadop ted
Ġcha mber
ca vity
is omorphism
Ġtrun cation
ĠI d
Ġfig ures
ĊĠ ĉ
cur l
Ġ }\,
mod ular
Ġcaref ully
ĠBes sel
ĠV an
s pe
Ġbra id
Ġsa fe
duc ts
ore sc
Ġsubdiv ision
ĠLag range
ĠJ u
D a
*} {\
Ġamb ient
Ġillust ration
Ġradi o
ir k
Ġw on
w itz
' )^
v ich
Ġsucces sive
Ġaf orementioned
z i
Ġdetermin ation
S ci
ut ri
Ġada pt
x z
F unction
oo st
Ġn ested
Ġsepara ting
: \\
A F
ers on
Ġperfect ly
is er
ĠP M
Ġc ros
T x
Ġrigor ous
{\ "
ĠC re
tar get
Ġv ice
bi us
Ġmat ched
p ure
b ert
ran ce
stru cted
u sed
~\ (
ĠRet rie
ma rt
ĠM inkowski
categor ies
expand after
Ġsemigroup s
00 4
nice frac
ex a
c D
B W
Ġb atch
pid al
Ġâ ī
j p
ens en
] _\
an i
Ġconcentra ted
top rule
= &\
mis sions
Ġpolar ized
ĠH er
c P
Ġsub module
Ġver sa
Ġimp er
ĠB re
Ġto ur
}, ~\
F ull
) }_\
Ġh ours
ellip tic
C ent
Ġas ses
! (
Ġre ductive
f loor
d B
y u
Ġelect rical
Ġround s
Ġcondition ed
oh ns
Ġtop ics
|= |
Ġdiscre pan
ĠD r
Ġhist or
our nals
V al
Ġund irected
mathp zc
Ġc uts
Ġsta tion
ĠMar tin
Ġanalog ously
Ġdy adic
ĠR am
e eq
f ast
c od
Ġoff er
12 1
* -
ĠFran ce
Ġfo od
i pa
Ġdisplay ed
ĠS tokes
Ġtra p
Ġtom ography
ens tein
]{ $\
Ġoper ational
v ia
Ġas ymmetric
Ġreg ister
Ġcou pl
Ind eed
par ts
m g
Ġinfe ction
Ġch ord
re ducible
Ġab und
Ġcry pto
ĠPr incip
A V
su it
Ġtop ologically
Ġper pendicular
Q Q
neigh bor
Ġ:--- :
]^- {\
Ġtrac es
Ġregard less
) ~\
G o
Ġfilter ing
Ġtable s
10 4
Ġcon ject
two head
ĠT ur
Ġdis turb
Ġthe ra
Ġaim s
ĠCh in
ĠMater ial
Ġhoriz on
Ġorth ogonality
ĠCox eter
l times
v phantom
] (\
ĠComp uting
Ġbenef its
d ent
La g
Ġsec ure
Ġconf lic
cross ing
Ġelimin ation
be cause
}/ {\
}}\ ,\
Ġtre nd
d it
terna tively
Ġdri ve
a ther
Ġho mo
Ċĉ ĠĠĠ
Ġadap tation
tang ent
Ġ Ð
ill er
at s
{$^?$ }}\
if ier
}| _{\
Ġs in
Th roughout
Ġsaf ety
Ġdiffic ulties
Ġ$ +
- )
Ġacces sible
inter section
Ġ }}{
Ġgeome trically
Ġs atellite
Ġev ident
~$ (
Ġdemonstra tes
aran ce
Ġl ists
cccc cccc
Ġh im
Ġgre atest
}/ {
Ġco gn
Ġ\, {\
)^ +
Ġnon singular
ah n
Ġdecre ased
ti bility
frac tion
G T
Ġ200 3
ĠM as
Ġpro jects
H A
ĠF ac
in it
11 11
Po isson
ĠLa w
proper ties
p gf
ĠR iesz
ph ys
Ġpropo sal
[ .
Ġmer omorphic
la tex
Ġopp ortun
12 2
_{ _
C s
Ġpositive ly
y pes
Ġneut ron
Ġpor tion
Ġopti mum
y an
ĠT M
le ma
spect ral
Ġ5 7
Ġj obs
t v
ĠUn fortunately
Al though
Ġro om
S um
Ġ5 2
B K
. {\
ĠC S
texts l
diff usion
ĠAu g
Ġcon servative
Ġgeneral izations
OI U
}} &
h m
Ġimplicit ly
@{ }}
Ġf an
Ġp are
coun table
Ġsummand s
Ġstri p
H K
ga ard
ĠPro gram
ver ag
col umn
L U
Ġra tion
dis tribution
g rid
In f
PhysRev Lett
per s
10 2
u ine
ibn iz
Ġspar sity
on omic
i di
ĠL at
Ġ5 6
Ġinf imum
{\ {
j l
ĠG R
ra s
Ġ }\\
co mb
ĠFor mula
ĠMa in
ĠE nd
Y au
is hable
po p
}} ),
Ġquantif y
general ized
T ype
Ġhierarch ical
Ġop tions
Ġhydro gen
)\, ,
Ġins ights
Ġdo se
Ġcompe titive
co prod
ĠD a
bor dis
Ġ= -\
Ġhard ware
{$ ^*$}
h p
in force
stand ing
ĠA C
Ġ, $
Ġplay ed
Ġimprove ments
))\ ,
f an
ms pace
constra ined
198 7
Ġg ran
Q P
Ġexpl oration
] +\
Ġab bre
Ġab use
d b
Co mbining
' $-
ĠH en
Ġclo sest
Ġshor ter
ĠRetrie ved
ĠC I
Ġsec ret
F a
l hd
' }^
ĠB ro
Ġcoun tably
Ġrestric ts
Ġ ^{(
ful ly
Ġrec tangular
Ġ& $\
twohead rightarrow
}_{ (\
Ġdomin ating
Ġs ensors
cor r
)\ ),
Ġco oper
Ġn odal
Ġm inu
Example s
Dia mond
b al
ĠM et
b ran
Ġser vices
ci ation
Ġpromis ing
)) ^{-
10 3
Ġcont our
c B
Ġdraw ing
de an
d h
Ġvis ible
ĠAn n
âĢ ¦
w i
Ġful filled
duc ibility
Ġlook s
ĠG ibbs
b en
' }{\
Ġcu bes
}_{ >
k p
V A
Ġre dund
dis tribu
C W
ir s
ĠAss o
ĠHa ar
ĠAr chi
Ġrecogn ition
Re al
ll ig
H T
In teg
Ġ= -
PS L
01 1
R ad
{ ?}
Ġpeak s
} *{
Ġcategor ical
/ [
Ġb as
Ġsen sing
is omorphic
Ġpen al
Ġx y
Ġun biased
Ġstud ent
or b
Ġsem idefinite
os en
r b
{$^?$ }}$\
Ġgeneral ised
Ġb asi
ĠProceed ings
b ys
Ġk m
Ġser ver
t l
ok ing
Ġmon o
10 8
ĠLet ting
ĠV alu
ĠS pa
Ġbul k
Ġtechn ologies
ket bra
ĠWi ener
ten ded
ĠM al
,- .
P art
ilibri um
ĠCla ss
Ġco prime
Ġcumula tive
Ġ *}
il ing
Ġob struction
I G
ol s
Ġfor get
th al
{$^?$ }}}\
| (\
V e
sta tic
Ġtun ing
Ġdes pite
qu oti
Ġgover n
Ġs top
Ġtur bul
t g
es ts
Ġreci pro
ĠO ct
Ġsub tree
ro bust
lef teq
ide o
Ġdescri p
Ġconfir med
ib er
li que
A c
ric e
N ormal
Ġaff ects
ime ter
Ġ$( (
righ ts
line width
ĠS i
Ġcy lind
â ī
^{* }_{
ĠM il
ĠB ru
Ġcre ating
id ity
AB C
ther n
^{ {
po lation
> ,
ĠAlex ander
}} )=
ĠV al
Ġasser tions
hol m
F r
en sus
ĠLo cal
Ġbu dget
cell ent
} >\
25 6
Ġdissi pative
}) },
Al so
Ġshe ar
Ġcla use
ĠĠĠĠĠĠĠĠĠĠĠĠĠĠĠĠĠĠĠĠĠĠĠĠĠĠĠĠĠĠĠĠ ĠĠĠĠĠĠĠĠĠĠĠĠĠĠĠĠ
Ġso il
Ġremark able
sta t
Ġb ootstrap
Ġsub manifolds
Ġoff ers
v b
Ma caulay
Ġrel iable
ĠT hanks
Ġin come
ĠPic ard
Markov ian
inter cal
ĠAust ral
Ġe poch
ve ction
$ }{
Ġ& {\
Ġs end
Ġori entable
f ix
Ġsubs ystems
H R
imp ro
Ġcon texts
\ }}$
ic ial
|\ ,\
ĠG romov
ĠB el
Ġpack ing
Ġvirt ue
ĠC antor
p ref
)) -\
ĠFirst ly
h al
am ily
x p
ĠC T
),\ ]
ite s
Ġam enable
ĠG lobal
ĠPro cess
Ġdec ou
hen g
H igh
}) )$.
bottom rule
Ġequ ip
Ġse lecting
ĠS ign
pre ccur
Ġtis sue
Ġprodu cing
preccur lyeq
Ġz one
ĠL ondon
is on
ĠC r
ĠN umerical
Ġreco vered
tima tely
Ġsha pes
Ġa part
ĠAnal og
aff ine
{ ,}
Ġbig ger
R NA
perim ents
ra ting
ĠE l
Ġimplement ing
Ġarri val
{$^?$ }}{\
}] =
Ġrecomm end
ĠR ich
R A
Ġelimin ate
Ġhyper planes
main thm
me dean
~ {\
\!\! \!
Ġinves t
is a
Ġd atum
ĠSe p
Ġgra vitational
}) ).
Ġ& \\
Ġprepa re
}) >
ĠL ast
_ -\
ĠU K
strong ly
ĠD iv
Ġattract or
sco pe
$ }_
ph en
Ġm iti
Ġl ens
H ol
Ġ| _
tz mann
Ġtrac king
G B
Ġdis til
Ġinsta bility
Cla im
Ġoscil lation
Ġour selves
Ġta me
en cing
c id
10 6
physi cal
Ġ1 20
}}_{ {\
\| $
P F
determin istic
Ġsay ing
N umerical
Ġar tificial
Ġ} =
Ġver ifies
Ġan oma
Ġmat ches
ve re
ka i
es sel
D f
H N
s wap
ad ditive
id is
ĠF u
_{\ {\
Ġan isotropic
Ġ??? }}\
ĠS outh
fl ush
ĠC at
sol id
d W
no op
B an
ĠSub ject
ĠS V
Ġ|\ !
ov a
ĠGra ssmann
T E
Ġparametri zation
b ol
rin king
Es tima
ĠSu per
Ġm ort
Ġreg ret
Ġa xes
Ġmemb rane
ĠSupp lementary
g ic
con struction
f re
Ġhe a
Ġhe art
ĠX u
NN s
lic es
r ings
Ġ5 8
Ġ })
dis tingu
13 2
s r
Ġsent ence
Ġclo ud
tic a
U B
ĠP an
Ġsupercondu cting
c G
m ixed
ic on
ill i
Ġ200 2
Ġ3 00
Ġm en
Ġep im
ĠL O
si des
st u
ĠConsider ing
}} .$$
}(\ {
Ġde fect
Ġpossess es
Ġcollision s
Ġcor ners
Ma th
Ġpro jected
C ur
Ġpref erence
Ġrever sible
E ff
}' (\
in equality
Ġplan ning
ohns on
Ġe ducation
Ġex ception
x iv
lf are
ĠFig ures
}} )}
ore s
) '
Ġvehic le
clo sure
{ {{\
Ġisome tries
ĠC han
0 20
Ġdis order
Ġi i
Ġta x
Ġin tra
ĠA f
def ine
ĠMe asure
Ġear th
Ġcomparison s
out put
Ġsu mming
B ecause
ro v
cell s
re nts
ĠOp timization
k x
| ~
ĠN orth
le ts
che mical
11 5
Ġde e
\ @
pe z
allow break
y o
ĠE M
ĠChe m
e h
Ġ& -\
Ġadj unction
ic ity
olm og
v u
tain ing
)} |\
n at
Ġhel ps
Ġ7 2
Ġa dequ
he t
}$ '
corre lation
Ġincomp ressible
Ġgreat ly
Ġcomm it
g ations
S em
}{\ |
ĠC as
|| _
Ġin d
Ġ ''
ra ft
pri l
ce ived
u ary
c T
Ġcol labor
omin us
Ġhouse h
local ly
ĠSch midt
ĠD C
Ġdisco very
Ġran king
Ġcap ital
' :
| ^{-\
ali tative
g b
K e
d inal
Ġsu sp
B ased
ĠPro blems
ab c
f it
ĠN ature
ĠU S
ĠÎ ²
Ġnumer ous
Ġbo dies
ĠMarkov ian
Ġcomp lem
Ġmathema tic
comp arison
Ġde phasing
erc ises
text qu
Ġ\! \!
ssi ve
\ ^
Ġcomp an
)\ !
@ /
row ave
ber ger
198 8
=\ !
Ġaccu mula
Ġmolec ule
velop ment
ĠUniver si
ĠCo mplex
l q
Ġdo ts
Ġp enc
Ġg ad
ĠGro thendieck
Ġf ru
ĠKey words
et o
weak ly
v t
_+ ,
Ġtor i
Ġrece ive
Ġsec onds
erm ite
ul se
}_ -
Ġwor se
Ġcu toff
res olution
Con versely
des ign
os z
Ġfeasi bility
Ġgraph ical
Ġas ked
m en
ĠS che
Ab stract
}^ +(
ar ding
ĠB or
Ġidentif ies
ll ar
eta ry
Ġ( (\
ĠK lein
Ġse x
Ġ5 1
}} ]\
y x
Ġdes irable
PhysRev A
la tive
ĠPhysi cal
! }{
sy ch
ou l
mar tingale
Ġintegra bility
es is
Ġcompac tification
Ġremo val
r p
ĠChin ese
_+ ^
tran sitive
_ *}
Ġwave gu
olmog orov
ĠK ar
Ġga ps
v w
Ġsche d
S tab
ĠĊĉĉ ĉ
}| |
Ġorbif old
Ġgra te
Ġrepeated ly
Ġ0 10
Ġme rely
pec ted
g ers
ĠÂ °
dynamic s
Ġro utine
& (
ess or
$ {
Ġde fault
super vised
Ġs cope
ĠPro ject
ĠB oh
Ġatta cks
ĠM i
Ġex cess
as sump
en quote
Ġdiver sity
on ov
Ġdiffe omorphisms
}| _
iel sen
Ġget ting
Ġsubs titute
Ġexclu ded
C learly
ĠN atural
pm ents
Ġsta y
Ġadj usted
ta ct
Ġtar gets
}\ ,\,
Ġderiv ations
. &
Ġprefer red
Ġtra pped
ĠA ctually
Ġcheck s
]= >[
}=\ {\
Ġexpand ed
qed here
11 3
Ġpredic ate
ĠGH Z
ĠS al
U S
12 4
Ġle aving
I O
W W
Ġdig its
mat ch
Ġf at
Ġna mes
path s
M B
I A
Ġun ipotent
ĠInd ia
No tation
Ġaccep ted
Ġen velope
up s
Ġpre val
ĠM ate
min im
] }{\
Ġre actions
Ġrespon sible
Ġhom otopic
ĠTo gether
w ing
ĠP as
_{ >
Ġstre t
d k
f int
Ġref lect
Ġco p
du e
Ġp uri
}( (\
p ot
w as
Ġsy nd
ĠPro c
10 7
Ġ200 1
ĠS hi
Ġsyn ta
Ġop tics
with out
ĠCo mbin
Ġde als
Ġ9 6
Ġin direct
Ġent er
ĠPro p
2 13
if ert
Ġtrans lations
M i
Ġreg ula
Ġmultiplic ities
Ġne f
ĠWh it
Ġuniver s
ĠHy pothesis
Ġdetun ing
Ġp y
ĠS W
Ġlo st
Ġcho oses
0 22
Ġcon junction
Ġre venue
Ġcros sed
Ċ ĊĠĠĠĠ
ma ps
Ġgen uine
12 7
{ +}
}} }$,
ĠEquival ently
ot or
C u
Ġper mit
}}{ |
mechan ical
ify ing
198 6
ĠN SF
Ġbehavi ors
Ġrel iability
Ġlinear ity
ĠM arch
ĠRad on
F ollowing
Ġh al
Ġexpla ins
col sep
res on
c R
Ġb ring
tic ity
enum i
Ġdot ted
ĠH ee
me l
\, {
ĠT uring
Ġpriv acy
xi d
Ġtun nel
quad ratic
Ġ lon
Ġb ond
Ġsto ck
ĠAu to
in son
Ġslow ly
sis tency
01 2
Ġpref erences
C ov
Ġfair ly
ub ble
fr ont
ĠC ell
01 5
Ġen code
pr p
Ġc lon
ĠT an
Ġimplem entations
}= "
Ġsho ck
Ġf i
W P
f our
Ġmulti partite
K w
au er
ĠBi ol
Ġmultipl iers
ĠF ock
ĠP A
| |^
Ġaccu mulation
ĠO pen
is tically
mat ching
ĠD uring
] ).
Ġspatial ly
Ġ$ ^{
ho p
ure nt
Ġex cellent
Ĩ Ĵ
Ġfa vor
Ġpropo sitions
Ġcapa ble
h es
Ġrestric ting
Ġdise ases
Ġplat form
Ġqu alitative
ody ne
p redic
ĠÂ ±
ĠB r
K R
Ġpar ty
b ach
expan sion
ati m
Ġ\\ &\
ub er
vaila bility
Ġspon taneous
ĠR F
ĠS E
Ġsub stra
Ġf its
ĠR u
ĠA B
pect ral
Ġsche dule
Ġfam ous
Y u
inclu ding
} &=&
ĠP aris
ĠĠĠĠĠĠĠĠĠĠĠĠĠĠĠĠ Ġ
) )}{\
T ho
Ġinterfer ometer
perim ent
Ġvalu ations
nec ess
monot one
ĠP D
et ing
eff ective
v x
^{\ #
; \,
Ġsuppor ting
os co
ĠR L
Ġcompu ters
Ġqu al
Ġwr ong
star t
ic i
Ġinter vention
] \,
Ġhy po
ĠM ori
Ġnormal ly
Ġspir it
Ġre min
ĠStu dy
ho t
' ))
se arrow
Ġdis continuous
Univer sity
Ġtum or
S tar
De l
e a
Ġreal izations
ial gebra
Ġinstr ument
c of
13 5
Ġf abric
itu dinal
Ġeigen function
c midrule
Ġpoly topes
iden tity
Ġcall s
chang ing
Ġus age
se lection
Ġobsta cle
ĠD G
b oth
Ġsub variety
Ġ`` $
Sch midt
Ð ¾
)\ }\
Ġdis connected
Ġen jo
Ġin complete
oted bl
en ta
are a
textqu otedbl
Ġsubs equently
ar ity
}$ }\
Ġto wer
ĠL ater
Ġ }$.
s sec
l st
f tarrow
m rm
ri a
}_{ {
Ġpoly hedral
p otential
\ }_
tif ying
)- -
pla ys
Ġpoint ing
Ġexpec tations
f c
ĠC u
ĊĠĠĠĠĠĠĠĠĠĠĠĠĠĠĠĠ Ġ
Ġin homogeneous
Ġ\, $
Ġexp ensive
) }},
,... ,\
s lo
Ġform ing
ĠCommun ications
ir al
lin ic
Ġdou bly
Ġreduction s
Ġrela tes
ult ural
ar Xiv
Ġreg imes
Q R
up shape
net t
}) |\
Ġch romatic
Ġ ,\\
Ġl ibrary
Ġar rays
gg ed
ĠW illia
omin al
e w
mp tions
ĠAcade my
ĠK er
al og
}) =(
k not
S ur
00 6
nder s
Ġmeaning ful
n etwork
Ġd if
},\ ]
ĠP al
fl align
Ġse es
B re
i tation
o sc
M N
du ate
Ġin fra
^\ #
h ence
Ġpack et
Ġro les
Ġp l
& +\
; $
Ġjoint ly
Ġund e
=\ {(
C Z
Ġneighbor hoods
Ġ ÃĹ
Ġ8 5
25 0
Ġasser ts
Ġenumer ation
Ġre formula
\! -\!
App lying
Ġcom ment
Ġre ality
Ġemplo ying
Ġtoler ance
Ġ" \
la beled
ron ecker
y i
ĠAssu mptions
Ġm erg
Ġingre dient
ĠH ol
ĠFor mal
Ġevery thing
ĠIn itial
Ġsha dow
Ġpri ma
ĠA vailable
F u
Ġintu itive
Ġconcaten ation
lu ster
?? }
B ell
Ġso le
Ġsee k
Ġep ide
Ġdeca ys
Ġrigid ity
Ġmonth s
Ġ6 7
st als
ategor y
ps line
imod ular
om orph
ĠC oun
E instein
] )$.
Ġstabil ization
sc end
Î ±
Ġle xic
de te
F il
Ġtil ing
inu ity
ga s
ern er
I rr
Ġalgorithm ic
f ac
ĠF re
\ })\
Ġmort ality
}' _{
) }}(
k ar
$\ |
S tu
Ġ$| |
ck i
Bigg l
ĠPro v
$ ?
u su
}}\ |\
Bo ok
ĠV ari
ist or
cont ents
)) +\
}} }.
)$ \\
Ex ercise
en n
ore tical
ĠD er
Ġrelax ed
\}. $
ĠFlo er
' m
âĢ Ļ
Ġsuper ior
ĠNo etherian
Ġalign ment
Ġrepor ts
Ġm ig
}( |\
T ran
ĠOn ly
B ack
di tivity
& -\
ĠD eter
F un
E uler
Ġmanu fact
Ġheter ogeneous
E ach
sha ped
Acknowled gments
Ġappropriate ly
ĠModel s
})$ $
G N
Ġcontribu tes
Ġc l
}^* _
et te
po si
m ol
ough ly
ĠNon linear
Ġcut ting
HS H
S olution
olic y
M V
Ġp at
L B
Ġrectangle s
Ġfor mat
Ġcomp ara
sta tis
lug ging
univer sal
M W
ty pes
10 9
ier stra
ui tively
Ġ6 3
te mber
W al
$ }\\
Ġgener ically
b ou
Ġdiscrepan cy
Ġtrans pose
T D
ĠB on
\{ -
S N
Ġdevelo pments
v D
mb b
_{\ !
~ }
{??}} }{\
fin ing
Ġmoder ate
class es
ĠM er
= |\
{\ ,\
Ġra w
multi put
ĠT ru
}' $.
Ġtransmit ted
ire ct
ĠâĢ Ķ
}^{ *}\
s ource
b M
g ar
Ġsol iton
hiloso phy
Ġen zy
Ġg ala
Ġobser ver
Ġcogn itive
ĠE is
c x
Ġcha nce
ĠS A
Ġdistor tion
^{( -
f olds
Ġautom orphic
or o
Ġadvers arial
Ġex it
os hi
Ġsemis table
Ġminim izes
r q
Ġoccur rences
Ġcha otic
Ġref ere
H J
}= [
ĠSer ies
Ġsimpl ifies
N ame
M ac
ti e
tri z
are to
Ġim mu
Ġcontro lling
r ally
ĠAnd re
^* }$
* (
ĠP ure
] -\
Ġgen ome
ton e
16 0
Ġco set
dri ven
Ġur ban
Ġte am
Ċĉĉĉ ĉĉĉĉ
ĠR abi
hyper bolic
R u
separa ble
s ay
Ġpoly hedron
Ġconf usion
er kin
P V
Ġ7 6
Ġclassi c
ĠK ing
Ġsui tably
Ġen su
Ġc e
Ġsub scheme
co lation
rela tive
ĠLe ibniz
D av
Ġin herent
Ġf er
Ġda ily
Ġ} _{\
s z
ĠLi ouville
vance d
Ġsubstantial ly
ha i
}} ).
ĠSe veral
p x
example s
14 4
Ġplan ts
}) /\
Ġin coming
P GL
c N
ĠC e
Ġ- {\
ĠE rd
Ġto ok
Ġend ing
Ġtransi ent
Ġhistor ical
Ġutil ized
Ġbro ken
ri ds
Me th
) *{
ĠG ene
Ġreson ator
Ġconject ures
var Gamma
)] ^
ĠM I
Ġcylind rical
ĠE PR
Ġwe ek
Ġiter ate
tiv ated
Ġconsider able
Ġan ces
F O
Ġminimal ity
ĠCal abi
comp are
_{ <
ĠCan ada
ne ar
d ar
Ġco fib
00 7
Ġutil ize
}| }
Ġread ers
s parse
ce mber
Ġb order
Ġser ves
ĠA belian
L D
Ġho st
Ġaccording ly
Ġbeha ves
Ġe ver
Ġan ne
ĠS D
ĠApp roxima
ĠN ot
Ġdiff u
Ġ6 8
ittle wood
Ġhol onomy
Ġmultipl ied
' >
Ġsa w
ra tio
Ġco bordis
Ġcongru ent
\\ &\
pub lic
/ .
Ġneur ons
ĠĠĠĠĠĠĠĠĠĠĠĠĠĠĠĠ ĠĠĠ
du ctor
Ġbrac kets
bys hev
mo du
un ing
)| _
ĠS k
Ġ9 4
Ġ} =\
Ġrecor ds
Ġref lects
ric hed
Ġmin i
Ġampl ification
pre lim
$ ''
Ġcontinu es
\}$ $
Ġnec es
}}$ $
pro bability
Ġmill ion
ro ma
Ġ$| {\
âĢ ĭ
Ġha z
Ġmon ic
G ener
Ġle ak
}), $
ĠĠĠĠĠĠĠĠĠĠĠĠĠĠĠĠĠĠĠĠĠĠĠĠĠĠĠĠĠĠĠĠĠĠĠĠĠĠĠĠĠĠĠĠĠĠĠĠĠĠĠĠĠĠĠĠĠĠĠĠĠĠĠĠ ĠĠĠĠĠĠĠĠĠĠĠĠĠĠĠĠĠĠĠĠĠĠĠĠĠĠĠĠĠĠĠĠĠĠĠĠĠĠĠĠĠĠĠĠĠĠĠĠĠĠĠĠĠĠĠĠĠĠĠĠĠĠĠĠ
ĠMic hael
0 25
ĠR ay
da d
Ġintegra nd
' d
ĠP ower
U E
pa city
Ġput ting
Ġrela tivistic
Ġtrans late
plan ar
Ġ??? }){\
P et
f m
orn ia
}} }}\
Ġin nov
mon s
Ġfib res
asi ble
ĊĠĠĠĠĠĠĠĠĠĠĠĠĠĠĠĠ ĠĠĠĠĠĠĠ
T W
Bigg r
Ġrela ting
cho ice
S G
x ford
e ld
V iew
ĠL ind
cur v
osz ul
ival ent
Ġa ware
se lect
ĠRe al
ĠHu ang
la bility
later al
un itary
An n
Pro j
Ġstra tum
& $\
Ġpartition ed
Ġdomin ates
F s
Ġhex ag
Ġs we
ex ponential
tw isted
Ġsc at
ĠK ore
ĠQ KD
respon dence
Ġsub script
en a
p lying
diff erence
Ġsus cep
f d
}. {\
Ġpre condition
' ve
ge bro
] }$.
Ġ0 3
st d
Ġne uro
ĠFunction s
ĠM ark
it ons
.. .\
in omial
Ġpi pe
sk a
Ġdifferential s
ĠB ou
re cur
Ġt uples
s ymbol
Ġbeha ve
ha ra
Ġ5 9
ck et
res ol
Ġlarge ly
na ps
R et
Ġ6 6
lev ance
Ġevalu ations
ĠDes ign
O DE
de finite
}{ }{
Ġmo tions
dx dt
ment o
ĊĠĠ Ċ
cover ing
ob j
if ornia
ĠC hang
B N
ĠC lo
L p
for th
Ġbran ched
li ers
xy gen
P DF
ĠIt aly
198 5
Ġtang ential
g iven
ĠI ma
ro se
_+ }
pr ing
Ġ| )\
deg ener
Ġaver ages
S tru
al ph
Ġmic rowave
acc i
S Q
ĠCent ral
un iv
ĠStatis tical
[- >]
har ma
& {\
N ot
pla in
ĠS R
ĠAd ditional
pha nt
int en
Ġs wap
] }}
ĠComp ut
Ġdec ades
>> >
Ġhigh light
Ex istence
Ġp in
ĠC how
L G
Ġ6 2
ĠComp ute
Ġc red
Ġcho se
})\ )
Ġtrans vers
Ġtran sf
on ometric
Ġconsider ably
S earch
\ }=\
I J
Ġflu oresc
ĠD R
Ġla nds
tor us
Ġwas te
Ġto uch
11 4
a verage
or bits
ĠH iggs
Ġcoinc idence
Ġmaxim izing
ĠInte rest
h f
)| $.
Ġt ube
Ġsta cks
Ġgeome trical
ra ted
Ġdou bling
a de
ĠS ie
v f
K im
b P
Ġsuff ix
ĠD M
Ġsection al
for mulation
j ournals
to s
tri b
Ġtran scri
Ġis otopic
Ġre lease
)} :
Ġpre image
v ability
Ð µ
. ).
^* }(
ĠC W
Ġmass es
ĠSe ct
ĠHy per
Ġwave let
Ġ9 8
14 0
ĠBer lin
G roup
Ġp H
Ġdete cting
}^* (\
12 6
Eq n
Ġindust ry
Ġformula tions
ti g
mos pheric
Ġabbre vi
zz o
Ġcontrac tible
approxima te
F ree
Ġ7 4
Ġ ]$
ile y
Ġob jectives
Ġregular ized
bse t
con formal
el t
ĠA P
Ġwe lfare
Ġ?? ??
a wa
Ġori entations
T hat
di tary
Ġran ging
Ġinten ded
ter nal
Ġd g
ĠWh ite
Ġcompound s
fol io
198 4
i et
ĠA stron
Ġorbit al
Ġtry ing
ĠP eter
T u
ĠS mith
ĠS M
ĠLike wise
Ġir rational
Ġfill ing
ĠWor ld
Ġstatis tically
ĠR NA
Ġs pi
ou red
}) ),
grad ation
Ġtable au
] _-
ĠT ext
ĠWe il
ĠBern stein
r v
J ournal
Ġcomp any
restric ted
\| (
P lan
oll aries
ĠFig s
2 20
Ġagg regation
R edu
teg y
Ġ$* $-
ĠT R
Ġpredic ting
ĠJ une
mo sphere
Ġ9 3
Ġlabor atory
me as
ĠW ol
Ġfit ted
Jaco bi
Ġe th
ĠP ick
Ġcapture d
he im
en m
Ġb or
Ġda mage
ĠB ri
00 8
ĠSer re
Ġsub trac
ip s
ĠRam sey
Ġcoun try
Ġcomp ositions
Ġsymbol ic
B ern
pa rent
Ġinsta n
av g
)}$ $
Ġcon currence
Ġcont ract
Ġresol vent
ĠSe ifert
as ymptotic
Ġtravel ing
rac k
ĠJ ul
Ġflexi bility
ĠPo st
set up
per fect
ri ers
z il
s hip
] ^{-
Sp an
Ġmatch ings
re r
ri p
Ġcur rents
Ġbre aking
Le e
\, ,\
Ġout lined
Ġd B
}] _{
_* ,
re si
ĠW here
)}. $$
R ob
Ġlon gest
os a
c lock
ous tic
Â ·
Ġachie ving
ierstra ss
Ġphoton ic
Ġc as
Ġinsta nt
H or
198 3
y g
par ticles
}} )^{
00 02
ĠI SS
nik ov
ĠS il
str ut
q c
Ġ$- $
Ġ8 1
b our
Ġdimension ality
Ġfor th
Ġtheore tic
Ġcon vert
Ġappe arance
Ġdele ting
Ġre normal
Ġpro ton
P Y
ĠM S
Ġrece ives
i pher
physi cs
Ġassign s
Ġcommu tation
Ġmod al
Ġrepresen table
Ġcondu ctor
och romatic
Î ¼
ar do
}$ (
Ne u
W u
Ġcons titute
Ġpo inter
do teq
11 7
^{- (\
Ġfocus ing
Ġsmooth ly
Ġch arged
\{ |
Ġ1 28
Ġcre ates
Ġminim izers
Ġ1 01
C Y
Ġcyc lo
Con vergence
tar ity
|\ ;
if e
s ti
E V
Ġ\ ,\,\
or tant
Ġneighb our
ĠBol tzmann
Ġpredic tor
Ġphysical ly
il ding
ĠR us
ĠS em
Ġde p
v ents
Ġhis to
j math
meth od
Ġoutper forms
Ġ }$,
Ġ7 7
Ġsur jection
sq subseteq
Ġcent ury
198 2
+ }\
Ġsub tle
r ality
or pdf
Ġal le
Ġpro ximal
Ġcha os
Ġmonot onically
Ġsemic on
Ġpolym er
bf series
orpdf string
Ġvar iances
ĠAccording ly
s ymmetry
ĠPa rame
Ġpers onal
Ġstra ta
Ġprima rily
Ġar ticles
Ġj unction
ĠCal ifornia
Ġram ification
ĠT re
La bel
ga me
comp atible
ĠS tan
Ġbi ased
Ġna ive
g mail
tex orpdfstring
Ġproceed s
Ġforce d
Ġm utation
en ko
ne xt
tit ut
Ġta ut
lic k
jo in
ĠI D
W r
11 6
ob servation
lec ular
Ġde cla
ĠM P
ĠCN OT
a q
radi us
Ġdee per
du ality
]= [
m ically
h k
he af
Ġfib rations
cccc c
c ern
ara tus
y al
Ġv acc
ĠG ar
^{ |\
ver tices
ĠM y
+\ ,
ote s
Ġattribu tes
ĠGe ometry
rang ed
le ad
Ġad ds
l isher
)^{ |
ĠJan uary
Ġrescal ing
ma trices
Gre en
ĠAl ternatively
ounce d
y es
Ġtrans lates
' -\
Ġw ild
' }_{
ĠAug ust
Ġbegin s
}} )^
ĠMax well
ĠMat rix
Ġlong itudinal
Ġcus pidal
Ġsat uration
cur ves
< +\
ator ial
We ak
sub group
Ġb atter
Ġ7 3
Ġro ad
ĠAf ric
u g
Ġcommun ic
up date
ĠN ove
ĠH as
ĠLog ic
ull er
)\ }$,
ĠP C
i h
Ġ`` $\
th y
Ġcapt ures
fin itions
M il
ar r
Ġgover ned
Ġf uel
v k
Ġan nual
Ġiter ates
Ġeffor ts
ĠPa ul
k al
Ġran ks
Ġrese mb
ci pi
)] ,
Ġ9 7
Ġpo sed
} &=&\
^* =\
Ġtan gle
Ġ6 1
b idden
S tra
ori ented
|+ |\
ro id
cture d
ĠB lack
Ġsugges ting
ĠĠĠĠĠĠĠĠĠĠĠĠĠĠĠĠ ĠĠ
Col or
sen sitive
ter ms
rg b
_+ (\
Ġrou te
Ġrequ est
S pace
i q
st ration
A K
Ġdia mond
d on
ho tom
like lihood
ot ype
Ġ$ }
Ġ8 4
)= |
Ch ar
ĠC l
iter ion
sc ore
Ġiter atively
: $\
Ġf ric
Ġ. \]
b g
Ġ7 8
S pe
"; "
Ġenhance ment
X u
Ġre m
ĠJ e
pres entation
^- _{
e lastic
Int ro
p k
N M
ĠM AT
Ġopti mis
' +\
J a
| ,\
01 4
Ġpur ity
Con dition
bb on
r int
ĠP T
ĠRecall ing
forma tics
uff le
)] $.
P ath
}} })
Ġmin ima
big sqcup
}' )
s ame
ĠA M
Ġtheore tically
b low
Ġans atz
Ġcommun ities
Ġrecon structed
P hysi
Ad ditional
p les
supp ort
c are
A I
Ġen coun
Ġp iv
' }^{
Ġs mo
quoti ent
Ġshe ll
ĠA pril
ij ing
ig e
Ġex posed
} *
^{\ ,
ĠC irc
ï ¿
Ġapp aratus
sub s
ĠH is
ĠD ar
Ġtran scend
@{ =
Ġtur ned
ĠB C
Ġsu p
Ġ} ,\
Ġmetab ol
am i
ĠD yn
Ġs al
Ġexplo iting
Ġjus tified
c il
' )=\
ĠTho mas
Ġvis it
11 8
Ġn ominal
}\, {\
Ġra in
Ġsequential ly
ĠM E
^- ,
ti ght
simple x
Ġma ssive
Ġrotation al
chan nel
w is
Ġband s
Ġke pt
ĠBe low
Ġph on
pro jection
Ġpro tot
P B
pro ducts
Ġsta ting
@ \
ĠE m
Ġco variate
}$. \\
ï¿ ½
}^ +\
ĠCP U
Ġma sk
ĠTh ree
mat ter
ib on
Ġhyper geometric
asser stein
Ġsur ve
ist ration
er ature
ss s
comp u
Ġ ],
ĠZ hou
[ {
Ġarchite ctures
}/ (
\, |\,
)] .
Ġalterna tives
Ġprof it
Ġmeet ing
) }),
ĠR un
Ġpartition ing
}] }
Ġcoupl ings
di o
}_+ ^
ĠS cha
ĠK illing
Ġcon served
Ġauto matic
Ġtreat ments
}) }^
de k
mal ga
Ġo xygen
Ġlimi tation
ast er
ĠT er
)$. \\
( $\
be ck
g rowth
ĠH ur
ver ti
em bedding
W il
at omic
Ġcomple ting
Ġfin iteness
Ġan ten
un k
Ġcompe tition
Ġdiscrimin ation
ha vi
Ġcan onically
Ġcorrect ness
Ġde t
01 6
Ġ1 50
ir ch
Ġconduc tivity
Ġquar tic
a ded
se mis
g oth
Ġas c
P W
Ġdo c
T ok
S chool
}, (
t ty
, |\
ĠJu ly
Ġpenc il
Ġlin king
J ac
Ġdis cord
I so
Ġneighbor ing
de v
S z
olu te
ĠSci entific
Ġra re
Ġre new
un if
+ (-
In v
corre lated
atter n
Ġre le
Ġdiag on
Y ang
ĠP L
Ġdistin ction
lan ce
ist ory
n h
arg min
red holm
Ġfunctor ial
Ġcharacter izes
Ġc old
olu mes
Ġdistribution al
Ġg er
b C
}} .$
ĠE ducation
Ġv ideo
ĠS C
. }.
S to
me ans
ch t
Ġsupp osed
ĠS han
Ġma gne
Ġspectro scopy
}] .
Ġnumer ator
ĠO pt
Ġro uting
im ura
6 00
q p
'' _{
Ġ6 9
ĠComp aring
Ġacc ord
^{ +\
Ġt rick
\ >
Ġ= \{
te chn
_{\ ,
Ġenc oura
Ġvio lated
Ġoccur red
Ġex haus
circ uit
Ġv ola
01 3
Ġfocus es
ay a
Ref erences
Ġsched uling
to gether
Ġper colation
ub ini
Ġadmit ting
Ġneut rin
Ġbus iness
Ġbelie f
ĠD ynamics
% .
ĠIn equality
si f
ĠSecond ary
RT Y
Ġ9 2
sche tz
IF AR
Ġe ase
O pt
ĠI C
d ents
ĠUn like
Ġdesc end
Ġreach ing
B l
c ies
}+\ |
{ =
Ġb ubble
Ġcon sum
if th
ĠSta ndard
g ree
is ition
)} )$.
sto chastic
ĠV olume
Ġscalar s
Ġdifferent ly
ĠP ark
Ġbu ffer
' }_
L ine
di um
Ġal lo
Ġab st
** **
Ġ> \
Ġrescal ed
j n
m L
Ġcorre ctions
Ġrestric tive
is hi
u lo
âĢ ²
_* ^
Ġ\\ [-
Ġ0 5
.... ....
13 0
ĠComp arison
Ġmar king
Ġco mmand
al p
Ġre inforce
ĠN uc
C ond
plit z
uniform ly
N at
cou pling
divis or
Ġh itting
Ġa vailability
}}( -
Ġdegener acy
Ġimp acts
Ġreg is
}' $,
Ta ke
Ġta ck
01 7
Ġconver ted
p u
Ġincorpor ate
\! +\!
Ġtriang ulated
Con clusions
Ġepim orphism
Ġface t
" :
t uples
ĠS pe
Ġ199 9
and s
Ġ&& +\
Ġfil led
Ġvis ibility
mple te
] ]$
in jective
CrossRef Google
}}}\ ,\
ĠQu estion
E l
| )$
ĠC y
Ġ8 7
integ rable
Ġdepend ency
DFG DF
Ġconnec ts
pri ori
Ġambigu ity
m x
ĠZ hao
s ph
ibra tions
p ow
ĠB V
Ġth or
Ġir regular
ĠHee gaard
ba um
Ġensemb les
Ġquanti le
Ġve lo
ĠT est
Ġre levance
Ġvehic les
NI ST
Ġ{ -
Ġph ra
tur n
Ġn utri
$$ |
ester n
Ġmon oids
! $
B asic
Ġ8 9
m v
ar xiv
ĠA da
H ermitian
b as
-\ {
var Omega
Ġneighb ours
Ġcons ensus
Ġc ub
Ġun ified
Ġheter ogeneity
Ġ= :
ĠFin ite
Ġcustom er
Ġpolyg ons
Ġn ine
f ar
Ġassign ments
d S
ĠO xford
14 5
)} ;
c ry
tan ts
ig er
Ġdis app
she af
Ġref lections
Ġpass age
b Z
G O
d ra
ĠK ronecker
ĠF L
ĠOct ober
m ers
), {\
con cave
H an
ĠS DE
ref f
F E
b w
ĠStu dies
ĠIn c
01 8
Ġdesign ing
Ġany thing
ĠP areto
defin able
ĠLa urent
Ġcomm er
def eq
ĠNetwork s
ĠH ong
pa re
tr on
Ġsplit ter
ĠO per
' |\
ĠZ hu
on ym
13 4
Ġep is
Ġrear range
ĠI mage
he at
I X
Ġ7 1
int roduction
chi medean
ĠC C
u racy
)) _
Ġ= {\
$ }}\
i lo
c in
$$\ |
d der
Or der
Ġcustom ers
Key words
z ier
23 4
h phantom
},\ ,\
neg thinspace
Ġminu tes
Ġlinear ization
A X
equ ential
be ds
Ġevol ve
Ġc am
ĠSep tember
ya ma
ĠLegend re
su lta
e plitz
| -\
tic ing
Ġav oids
ĠDes pite
u ma
z hang
Ġco al
Ġopp osed
big triangle
S y
dx dy
Ġo il
]{ }
r hd
es ting
M h
Ġc ulture
Ġp t
phant ine
}_ +\
lic ate
ĠK al
Ġsepara tes
ĠK olmogorov
itro gen
Ġal loc
Ġcol lections
Ġinser tion
Ġpol lu
Ġface ts
Ġunita ries
ĠB erg
}{ @{}
Ġ9 1
Ġaugm entation
Ġo cean
Riemann ian
$, }
ord on
ĠDe velopment
top ology
w u
{?? ?}
},\ ;
inter pre
S k
ima ges
Ġ$ ^
ĠP en
an ov
Ġign ore
Ġ| _{
24 0
)$ ),
Ġdiver se
Ġun ivariate
it ter
Ġv ot
id al
arc tan
c ous
p g
Ġti le
si zed
e th
=\ ;
Ġcharacter izing
| }{|
col ored
Ġinitial ization
ĠN S
f schetz
tri zation
zz i
Ġf ri
re lliptic
Ġla te
l ig
vD ash
ĠO F
Con v
ot ents
var ying
> -
s frac
ĠSecond ly
ĠPol y
pi e
Ġevol ves
Ġsus tain
ĠR ed
Ġde cor
d q
Ġmo bile
para m
princip al
Ġ$$ (\
O F
ĠComp utational
man y
I E
mb igu
)= [
Ġscre ening
Ġdescrip tions
| }$
Ġingre dients
Ġun countable
el f
01 9
Ġcontribu ted
}} }^{\
]^- {
b z
$\ ,\
Ġl ive
ose ph
Ġ$ =
V ID
Ġex position
E nt
bru ary
Ġ8 3
}\\ [
Ġpara dig
ol o
Ġensu ring
Ġ7 9
ĠH ermite
ĠDe cember
In put
Ġ ice
m cal
] }(\
Ġe missions
Ġat mosphere
Ġsuffic e
}\ },
Ġex c
D om
Ġnew ly
order ing
Ġconsist ently
Ġtre nds
S AT
or ption
Ġcomp ressible
Ġper cent
ĠV or
T aking
Ġmaintain ing
}\ ;\;
Ġcommuta tivity
Ġinter ven
Ġinc en
e ref
ed a
~ ~\
nu mp
e very
Ġlog ics
Ġcla uses
Ġcli ent
ca me
Ġhe ating
es sing
onic ity
Ġout going
ci o
Ġorgan ic
Ġpreval ence
Ġattemp ts
T F
b X
Ġattrac tive
ĠSe l
Ġverify ing
Ġimmer sed
ĠĊ ĠĠĠĠĠĠ
mu tation
Ġdis plays
Ġad min
Ġp atch
ĠCa mp
Ġgrate ful
ST M
{$ (
ĠJ ones
E st
in n
hy dro
Ġanaly se
be st
}} ^*
ĠMechan ics
Ġslo pes
Ġin distingu
Ġmicro scopic
Ġ\ >
nder son
Ġ\{ -
lect ric
F ourier
ĠĊ ĠĠĠĠĠĠĠĠĠĠĠ
R andom
so ft
ĠF lu
Ġcoun ted
C lo
Ġthresh olds
Ġspace time
Ġvelo cities
Ġsurround ing
Ġoptim izing
Ġoscillat ors
$- $\
Ġelse where
ĠChe byshev
v r
S Y
H opf
ex am
f rown
S che
gra ding
Ġtrans lated
Ġpric ing
equ ilibrium
forma tive
ag o
< /
Ġinvest ment
Ġre als
ĠI N
Ġblow up
Ġresol ved
S ect
Ġcommer cial
^+ _{\
ir y
vector s
Ġresul ted
me try
} ]{
Ġexceed s
Ġport folio
d ating
ge o
Ġhom ogen
ed s
ĠGa mma
}^* $.
T ate
^* +
Ġsub algebras
A g
um ford
ĠAd vanced
Ġfac ility
ĠP hase
Ġpix el
ir reducible
22 2
jec tively
pres s
ĠN one
\| =
10 38
scal ar
Ġm us
Ġweigh ting
ĠĠ ĊĠĠĠ
Ġsynd rome
_+ $,
Ġthermod ynamic
Ġc le
Ġnote s
j m
Ġme dic
Ġclassif ying
'' (\
Ġ199 8
Ġrem ote
Ġavoid ing
Ġwe ather
ty p
E d
Ġb ise
ext re
ĠA cc
Ġ4 00
Ġe mb
Ġinde termin
P s
Ġtrig onometric
ĠT u
Ġconstru ctive
Ġvirt ually
Ġnor med
_- ,
E W
Ġ| $\
b io
Ġg lass
/ {
Ġmon ochromatic
Ġe labor
Ġ- (\
Ð °
Ġ8 8
hol der
ĠĠĠĠĠĠĠĠĠĠĠĠĠĠĠĠ ĠĠĠĠ
ĠSch warz
ĠV is
Ġa cknowled
split ting
Ġmaxim ization
ex plicit
Ġde gradation
Ġinvesti gations
???? ??
ibon acci
Ġattain s
ogen ic
EN T
ĠP ath
BM O
Ġ_{ {\
New ton
ich artz
check mark
Ġcondition ing
Ġd om
trans form
E m
Ġdec oding
00 9
Ġg ot
Ġover head
io phantine
gener ated
Ġatta ch
Ġquatern ion
A m
\| {\
Ġun imodular
U V
Ġatten u
Ġcon duct
ĠP DEs
Ġbar s
Ġm g
~~~~~~~~ ~~~~~~~~
Ġho t
Es timate
Ġnon commutative
sk ii
N umber
p ur
ci tation
r ling
Ġderiv ing
}' }
c I
ĠM ol
ub ert
]. $$
ĠY ama
ck ing
line break
)} [
mu nd
ess ential
ra bility
L y
Ġacc ounts
tis ts
\{ -\
ĠG er
ĠA ra
}} },\
Ġstra tified
ch arge
]{ #
Ġsusp ension
s hi
ĠP res
Ġquantif ier
)) |
] }$,
sc ience
S m
Ġmess ages
tangle d
th rough
Ġgeome tries
it ors
Mat rix
rr r
ĠProper ties
Ġa ds
Ġstra tification
[- ]
or a
Ġdirection al
L ower
}} &\
Ġ??? },{\
ĠD P
ro te
an chor
}' ,\
adap tive
su c
Ġnon classical
Ġpro x
ĠE r
pa per
ĠDiff erent
Ġsta ys
ĠW ater
Î ²
ĠRe pe
Ġhand led
{?? ??????
P f
S obolev
< |
Ġul timately
Ġcur ved
ĠB al
Ġutil izing
Ġattribu ted
Ġasses sed
Ġhe ld
Ġuncertain ties
Ġannihi lation
Ġpredic tors
w est
adj ac
ĠISS N
ĠS z
Ġfra gment
Op timal
ik i
Ġincreasing ly
ti ous
R an
Ġ8 2
Ġdru gs
Re gular
ull back
ĠTh m
11 9
G y
Ġaccord ance
v on
var ieties
Ġrun time
Ġquantif ied
iz ability
Ġgra du
k ins
Ġwavegu ide
nor ms
Ġhom ological
Ġsemic ontinuous
le man
Ġper for
^{+ }
Ã ¨
non linear
Ġde dic
ĠRe public
Ġbos onic
PR A
mu ra
graph ic
ĠâĢ ¦
ĠG old
Ġconcept ual
ĊĠĠĠĠĠĠĠĠĠĠĠĠĠĠĠĠ ĠĠĠĠ
T N
Ġlife time
}\ |^{
ĠAnalog ously
ida ble
17 5
198 0
13 6
198 1
Ġord in
Ġde la
Ġf oot
L I
ĠSchr Ã¶
Proper ties
Ġbe came
us er
ĠPol ish
li ography
Ġse a
ĠP S
Ġp hy
)| _{\
gra de
lefteq n
H V
Ġtransfer red
Ġrever sed
ta t
Ġinfluence d
ĠS DP
na ck
Re l
Ġadequ ate
Ġinf ected
O U
Me an
Ġwork ers
ĠD y
ĠĊ ĠĠĠĠĠĠĠĠ
Ġinstan taneous
Ġcorre cted
' }=
$& $\
Ġti les
Ġcli ents
igh ting
Ġ$\ $
function al
Ġvar ied
ĠR en
Ham iltonian
G lobal
Ġprior ity
se arch
var Phi
Ġ1 94
pro pa
Ġg erm
ub in
mpl er
Ġ )=\
23 1
rough t
ĊĠĠĠĠĠĠĠĠĠĠĠĠĠĠĠĠ ĠĠ
ĠL ong
ĠCho osing
tic ular
Ġcombin es
ol y
Ġreac hable
alan cing
Ġv olumes
titu tion
Ġm orph
$ -\
Con struction
)}\ |
k ra
ĠZ e
ĠApp ly
Ġload ing
Ġsole ly
si vity
^+ }\
E nergy
Ð ¸
B ur
u w
ĠF ried
Ġde ad
E rror
Ġcop ula
ĠE rror
Ġop in
ĠV I
Ġbi ology
tic k
Ġdiffe omorphic
ĠPrincip le
Ġalign ed
Ċ Ċĉĉ
W F
ins ler
T X
ill en
Ġ20 22
in te
Ġmanip ulation
Ġd up
Ġmo ved
ĠBe ijing
}$ }}
Ġwork ed
}~ (
Ġaccep table
ĠJa mes
ĠOp timal
$ ~\
Ġeigen state
_{+ }
99 99
Proof s
ar o
m tx
Ġmul tic
ĠMC MC
ĠE th
Hy per
Ġindic ators
... ,\
Ġs ink
Al gebra
bo ard
Ġtrans portation
}}{ {
ĠSch wartz
Ġm oney
}{ }\
\ },\\
te or
s tically
Q S
Ġac cept
vi ly
Ġpro p
Ġbre ast
.\ ,\
ĠNe ural
Ġmer idi
}) }$.
_+ $.
Ġoper ad
P al
R D
Ġb right
Ġnon decreasing
}| {\
Ġanalog ues
Ġhosp ital
ĠR ule
c U
Ġ< -
Ġpri ors
Ġdi lation
F ind
Ġradi i
Ġe ast
h oriz
Ġsuccess or
in y
de m
Ġcounter parts
ĠPut ting
Ġcontrac ting
Ġcry stals
Ġcurv atures
cont rac
T s
co mbin
Ġcar tesian
'$ }
:\ :\
S cal
Ġrepe ating
) ).$$
a ult
}\ }.
sc i
Q U
Ġsub ordin
Ġup dating
Ġ8 6
Ġse vere
Ġ\, =\,
la nt
{?? }}_
ĠP redic
at t
Ġrecon struct
P DE
pro x
pe ction
Ġ[ -\
Ġconstru cts
h g
D ual
ĠCent re
lines kip
Ġadvers ary
calc ulus
Ġirre levant
ta ting
S q
ma ta
Ġexclu de
ĠĠĠĠ Ċ
Fin ite
Ġg old
in ity
Ġper man
T ree
ssi f
}^* $,
Ġpublic ation
Ex perimental
co eff
J S
+ }$
Ġh our
V s
}, -
,\ ;\
res ta
Ġis otropy
ĠF eder
Ġen force
App roxima
Ġconflic t
is ations
Ġvor tex
ce du
iff alse
)] =
con clusion
GH Z
For mula
ĠAl gorithms
Ġfric tion
' <
)$ &
Ġachie vable
Ġ\,\ ,\,
ĠN an
ith ub
An y
ĠTable s
Ġemit ted
T w
conne ction
Ġsign atures
Ġyou ng
me m
ron wall
ĠPro bability
c tible
ĠC ap
omp osition
triz able
Ġpro cessed
Ġhyper graphs
clu ding
na nd
Ġmembers hip
if m
Ġm im
lan g
ĠEis enstein
Ġl ic
ĠF ubini
Ġclassical ly
ĠT emp
con text
B el
ĠPy thon
ĠDel igne
}) <
ĠInterest ingly
Ġste ering
bo la
Ġredund ant
}+\ |\
Ġdiagno sis
Ġsubstra te
}| $.
imension al
Ġtext book
g d
Ġreg ulation
] /
Ġat mospheric
multi plic
Ġcardin als
19 79
}} }_{\
ĠC ou
Ġrepro duce
Ġhea vily
s pl
sh or
Ġin jectivity
Ġen velop
Ġmatro ids
" )
do s
be lling
ter n
ne ga
z hou
qu a
ĠA S
pair s
diff erenti
Ġchar ts
pre ad
Ġen tails
Ġresidu es
B rown
un iqueness
Ġcobordis m
ĠM SE
verb atim
^ !
Ġincre ment
= "
Ġquad ri
ĠE v
Ġfall s
M U
Ġan onym
Ġin correct
integ er
in ver
Ġau ction
{\ |\
Ġp end
on y
2 11
ĠS NP
Ġ} -
P res
Ġnotice d
Ġbio mass
Ġacqu isition
Ġiner tia
Ġh it
Ġinterpre tations
D s
ĠThe oretical
PR L
ĠFormal ly
ex ist
Ġdecomp oses
T ru
}} '
Ġorgan ization
14 3
Ġl iving
,\\ [
Ġview s
pa zo
^+ )
Ġsol vers
Ġcon dens
b A
ĠP oint
Ġcharacter izations
Ġan tis
d A
Ġra ised
cknowledge ments
ĠValu e
Ġcombinator ics
sta nce
Ġdi hedral
lo o
Ġinter national
or ge
Ġt ension
Ġretur ned
sta nces
K n
ĠCha racter
Ġconf ound
Ġtermin ates
ĠCon vergence
elect ric
Ġsepara bility
Ġcross es
cc i
er ts
bu ild
ĠH or
Ġjus tify
Ġpath way
ĠL ip
L AB
\|_{ {\
Ġconf erence
Ġpo sets
ĠCar tier
pazo cal
Ġan no
ĠK an
R ight
Ġread out
ĠDe ep
W A
Ġ }}{\
dash rightarrow
l not
fl ip
re ver
sim ir
Ġfract al
^* )$.
O E
Ġdig it
ra p
Ġta ils
} ~~
ifm mode
ĠRa man
ĠM ass
Ġcohom ological
Ġ| ,\
resta table
Ġfluctu ation
ro ll
Ġgo als
um mer
sh if
ĠSto chastic
ĠSte iner
ĠMan age
la h
Ġoverla pping
ĠFac ulty
Ġinser t
ĠInt uitively
ĠPro ve
Ġsha res
Cal c
) ^*\
Ġdiscus sing
Ġlif ted
necess ary
Ġh und
Ġincre ments
Ġ= (\
13 7
Ġsuper vised
Ġop to
end aligned
Ġbre vity
ĠY et
Ġhu ge
ĠGe o
}\ \\
ĠMach ine
Ġal gebro
c frac
}) )$,
19 76
trib uting
ĠRob ert
Ġem beds
. ),
0 23
20 5
}} )=\
Ġscat tered
Ġsh rink
ĠF ore
T i
ed im
hom omorphism
ĠNove mber
}) )=
t oler
{?? }}{
per turb
Ġsugges tions
ne arrow
Ġcancel lation
Ġmultip les
q t
(\ ,
Ġgovern ment
ĠR HS
12 9
{* }}}\,\
F K
Ġquan tification
Ġsimpl ification
Ġpara dox
Ar row
V ec
ĠL arge
c sc
Cla ss
p red
convex ity
Ġto day
ĠEx perimental
o ke
Ġconvolution al
iv ity
Ġfor bidden
lic it
yn man
Ġp lu
cern ing
Ġconcentra te
Ġresol ve
e ks
ĠE mp
Ġfoli ations
P H
ffic acy
Ġsimplic es
scal ing
c g
19 78
ĠEng lish
Ġdis car
llig ence
Ġwitness es
ĠJ ensen
con sistency
ĠMed ic
table of
ne ll
ĠRa ma
S hi
Ġassign ing
A gain
Ġin ducing
Ġp seu
ĠComp ared
W i
ren ch
] ;\
sta bil
structure d
pri mal
at ment
Ġc ity
Ġwave function
Ġ\( {
Ġpare n
ĠTh er
Ġ??? }_{\
Ġevol ving
}|\ !
b G
Ġshor ten
Ġper imeter
ĠOb servation
Ġ&& &
a mp
ĠWr iting
Ins titute
\!\!\!\! \!\!\!\!
Ġexplo ited
E very
Ġa id
ĠK en
de x
ĠK oszul
)- {\
O h
ĠP I
\ }}(
resh old
ey er
te en
Ġcar rier
A ff
d ou
D ue
xi es
tableof contents
Pa rame
p v
Ġfil m
Ġca vities
Ġbu y
^* )^
Ġforecast ing
Ġw rote
or ds
Ġcos ine
Ġro bo
min imum
k b
ĠD MS
y en
\ }_{\
Ġfluoresc ence
ĠR edu
Ġh ermitian
B es
Ġs lower
H ilbert
13 3
hyper ref
| )^{
j t
ĠÎ Ķ
Ġperiodic ity
] &\
Ġdistribu tive
L W
re lations
per t
lan k
Ġe ig
Cha racter
Ġtop ologies
Ġdetermin ants
Ġbasi cally
odes ic
T y
Ġv ic
^- (\
Ġthera py
proj lim
Ġprog ression
})$ ;
ra g
Ġalterna te
Ġche mistry
b end
ur ston
tiv ation
J an
te e
Ġg ray
Ġse ason
Ġout liers
Ġargu ed
Ġdedic ated
}^{ {
au g
Ġtable aux
Ġga ins
Ġsh rinking
/ }
A H
G ro
S eq
ĠRe lated
Ġpo si
22 5
t L
Ġstrength s
Ġ( |\
qu ant
Ġtrac table
Ġm ice
Ġsti ff
Ġcarry ing
spect rum
Ġanimal s
ĠW ar
+ ,
}+ |
Ġ\ ;\;\
Ġdomin ation
pages tyle
reg ion
nump rint
D H
Ġdeci mal
Ġ\ }}
{??}} .{\
bb b
Ġelectric ity
wide text
Ġpath ways
}| |\
ĠWe ierstrass
=\ |
sche mes
Ġfacili tate
fill draw
] \!
Ġdep loy
] )$,
Ġpas sive
ĠNeu ro
Ġinser ted
ime tric
ĠRe gular
Ġgra mma
eq def
Ġsti mula
ers en
ĠCon ditions
Ċĉĉĉ Ċĉĉ
ĠT ar
_{ _{\
Str ong
Ġmaxim izes
}{ *{
}}{ (\
Ġsupp ress
Ġ199 7
in z
co cycle
m M
! ]
lim ited
ro x
av ig
ĠS en
ĠT i
unda ment
Supp lementary
ĠM Hz
Ċ ĊĠĠĠĠĠ
ĠA v
Ġj ud
Ġfe el
ĠE X
= ~
ati bility
L AR
ĠA re
Ġdiscre ti
Ġske leton
Ġnonlocal ity
conju gate
Ġill umin
min or
ono i
R G
Dis cussion
or ted
Ġcapa bility
w ered
AC E
)}$ -
Ġhealth y
R B
l iv
Su bset
ĠGal erkin
ne ts
log y
'' $.
8 00
ac he
con fig
cell ular
Q M
Ġ??? }_
Ġinde finite
te ch
Ġcar di
e ast
C han
Ġflu ids
measure ment
t c
sa mpling
at ta
Ġno etherian
Ġri bbon
Ġw ider
)}) ^
r us
ĠĠĠĠĠĠĠĠĠĠĠĠĠĠĠĠ ĠĠĠĠĠĠĠ
Ġcli ques
col im
Ġenc odes
inf er
cor responding
ĠÎ »
t A
] .$
ĠDe f
Ġcondition ally
ta tes
0 24
ran ging
c les
$ )}
|, |
) *{\
~\ (\
,\,\,\,\ ,\,\,\,\
ĠC lin
Ġ\, |\,
ĠTrans form
ĠMaterial s
)_{ (
Ġ}$ \
s how
' })$
ĠB ox
Ġ\| {\
Ġ} +
ĠSchrÃ¶ dinger
[ |
in variance
Ġlo ci
dire cted
Ġattribu te
Ġo d
er ve
ci ds
sch ild
j x
Ġs ch
Ġevolution ary
at ou
}^{* }$
ĠN O
Ġseg mentation
U N
ĠS S
La placian
ĠB la
Ġf ron
ĠA I
ĠM it
19 2
Ġmulti linear
ĠDo es
irk hoff
con ditions
] )=
ĠP ara
p ush
v ac
d yn
Ste in
spe ed
r put
para bolic
Ġsta tions
Ġsor ted
b ri
Ġ} }$
Ġhom ogeneity
ĠC F
14 7
ĠS ou
la nder
Q E
Ġstand ing
hotom y
N LS
ĠStar ting
Ġenc ry
Ġ199 0
ay ashi
Ġste m
' }}\
f b
As sumption
acc ent
\ &
Com ment
Ġseman tic
Ġw ants
fe ld
V alu
tr un
ran ts
ayes ian
n z
ĠB etti
- ,
sat urated
{ [\
ĠM DP
M et
Ġindust rial
}) }}
Ġcapa bilities
ĠS ample
Ġaut onomous
ĠN E
16 3
ĠPar tial
@ <
ĠManage ment
Ġadjust ment
ph istic
h ong
Ġexecu ted
Ġmodel led
Ġconstitu tes
var projlim
' ;
ĠB B
f ound
co se
}). \
Ġ\ }\
Ġconven tions
Ġdif fraction
Ġdistil lation
ho to
o ta
)) )\
Ġknow s
] |
Ġtw ists
}} >
ĠAnal y
Ġpix els
cep tions
ĠTh ird
sem igroup
9 00
Ġidemp otents
ĠMulti plying
ĠOr der
Pol y
ĠL as
mp son
). \\
pla ces
Ġnow here
Ġ$ +\
Ġinf lation
Ġ$ >
complex ity
k d
Ġprodu c
ĠL ine
) }^\
Ġgad get
}_{ -\
ĠF ibonacci
M ag
tra ining
}: =\{
ĠR ham
ma z
21 8
Co mplex
Ġdo cument
table au
ĠDe hn
le e
^{+ }(
Ġpur cha
L im
ĠAustral ia
xx x
\ }^{\
Ġinv olutions
item sep
Ġnor th
M as
Ñ Ĥ
Ġwire less
Ġfore sts
15 5
ĠI sing
ĠSe arch
H ilb
ag ent
Ġunder go
yn chron
Ġke ys
Ġsynchron ization
),\ ;
L N
lo us
Ġpla ying
s F
K et
}' )$
inc are
im ity
Ġwall s
Ġprojector s
ec het
Ġen riched
qu ig
Ġinser ting
base line
Ġ )(
] ),
Ġoper ate
Ġs olu
Ġcal ibra
Ġpers istence
ĠP i
Ġres olutions
ĠT ate
Ġsyn thes
Ġellip se
Ġav o
me t
Ġar ranged
Ġ ))
Ġindividu ally
Ġpredic ts
Ġ| (\
onal d
ĠC E
Ġpla u
ogen y
Ġpre cipi
}{ =}
Ġanaly sed
M y
Ġcol la
0000 00
Ġsequ encing
ĠG W
E t
Ġcomp ressed
C ut
Ġb ag
)\, {\
mo tion
Ġtru st
u der
Ġneces sity
Ġdes tro
Q KD
P ut
R ank
{?? ?
Pub Med
), (\
Ġ[ [
Ġa malga
Ġaggre gate
\}$ ;
ob jective
no sov
ta sk
high er
}+ (\
Ġprote ction
er on
col our
Ġcomp lements
ĠA nt
n rm
chan ges
man ces
U M
^{+ }\
b ases
Ġvisual ization
ma tr
Ġhype red
Ġ ;\
pro c
j b
i T
Neu mann
Ġdis cover
ĠE ast
Ġcred it
Ġcol ours
ĠA xiom
D v
Ċĉĉĉ ĉĉĉ
ĠJ iang
Anal ysis
^{+ }_{
Ġsearch ing
ĠFe bruary
r brack
ĠF ar
Ġappro ved
s x
cla ssification
)| }
}. ..
00 03
con tra
Me asure
D K
cl m
ph ic
}{ .
h fill
V a
ĠB asic
sub ject
Ġparadig m
Ġinter tw
G s
ro ach
Ġtour na
A SS
ĠF il
AD S
C y
ĠP on
16 5
Ġdis continuity
Ġexci tations
t ual
dash v
is ks
ĠInd ian
yp ical
Pri mary
o ft
Ġtur ning
Ġf ifth
ĠD E
= [\
Ġco h
ho st
Ġi mb
p w
Ġexhib ited
quig arrow
Ġconclu ded
> }
. ''
F orm
degener acy
ĠE P
lic ial
Ġvis cous
Ġfac ilities
Ġgo ods
Ġmon ad
ia ted
Ġfol d
li u
h fil
)) ^\
Ġfa v
Ġcylinder s
ĠInteg rating
g ithub
Ġg rids
ĠC IFAR
ĠD ic
Ġmar kets
* }(
Con jecture
33 3
ra r
Ġ, $$
con c
Ġ&& +
ĠGeneral ized
Ġfound ation
pro blems
Ġins pection
c On
cod im
b h
Ġcontrac tions
g lu
ĠT V
Ġsuper algebra
Ġencoun tered
* )]
Ġdela ys
en z
id ently
dot ted
U pper
Ġa cknowledge
Mar tin
k is
Ġy es
j un
tag on
Ġ\| (
( )
bund les
ul um
us z
ĠF insler
Ġmathema tically
}}$ }
Ġsub mer
control led
par box
Ġhome omorphisms
la mma
A bs
G ar
l lo
ten tion
q r
por ted
Ġche mo
' [
Ġnotation al
ĠJ ohnson
n an
cha pter
Ġsuc ceed
P oint
}) _\
Ġellip so
Ġspin or
asc ular
bla d
ns wer
Ġn itrogen
Ġ199 6
b dd
ĠProf essor
Ġ ly
text backslash
11 86
Ġcont ents
b imodule
Ġso phistic
r x
L F
ou ter
gm entation
sho t
|| _{\
Ġmesh es
Ġh or
)=\ {\
Ġnega tivity
Ġabund ance
n q
Ġro bot
ĠAb stract
Ġoscillat ory
Ġwe dge
cedu re
ĠĊ ĉĉĉĉ
w ski
Ġth read
B or
Ġtw in
ĠI P
, &\
dek ind
Ġ@ >>>
Ġdisturb ance
c is
v as
14 6
c V
Ġb ivariate
Ġhaz ard
Ġf resh
ĠO perator
Ġstand ardi
cade mic
Ġt u
Ġ ,\,
ĠRef s
s wit
Ġpartic ipa
Ġrepe tition
tain s
Ġac oustic
ĠCon struction
ĠA ND
tro p
Ġdec ided
Ġhom odyne
la x
] ,\\
Ġrecipro cal
Ġdecomp osable
A W
Ġ ]\
ire n
lat ors
oun ted
ĠLe fschetz
Ġminim ized
e mb
and el
estima tes
d P
}) ,\\
en tists
Ġabsor bed
19 77
de ep
D own
}^{* }(
Ġre cept
su es
on line
}) --
ĠNo tation
T er
Ġoff line
Ġinvesti gating
Ġf ish
ĠĠĠĠĠĠĠĠĠĠĠĠĠĠĠĠ ĠĠĠĠĠ
Ġdeli very
determin ed
Ġobe y
ma king
ĠF redholm
G x
Ġex cur
act ory
}\ /
min o
Ġch rom
Ġhere ditary
)= (-
Theorem s
ĠBra uer
Ġview point
' ).
ĠF ree
}} /\
ĠJ ust
Ġ+ {\
)}( {\
key word
}) }\\
ĠTo eplitz
ĠL ow
}_{ |
a sures
)] $,
)+ {\
res sions
Ġcontrol lability
{ }^
T an
Ġ??? }(
nu jan
fol ding
sta n
Ġhosp it
Ġs tyle
ĠNote s
ĠL an
ga m
DF GS
r h
Ġmotiv ates
] /(
st one
Ġprocess or
V an
ĠCoun cil
Ġag o
en viron
ĠI ter
ĠKore a
Qu estion
ĠBra zil
f itting
d X
re ma
b ridge
ĠT ak
D r
ĠK L
}) }^{
Re lated
Ġinfer red
T I
de pending
{\ #
domin ant
rac tical
neigh b
Ġvis ited
*} (\
ad van
open one
ĠS as
Ġdef ects
j es
Ġclassif iers
Ġn ational
ĠC hi
Ġd ry
Ġmain tained
* ,
em bed
ĠEx p
}^{+ }\
i H
Ġacqu ired
ik h
g ot
formal ly
Ġper mits
Ġproposition al
Ġv ast
om er
Ġquatern ionic
16 7
N ature
27 0
Ġturbul ence
b ble
Ġpolynomial ly
/ |
Ġrewr iting
a mal
Ġmu tations
Ġspe ak
cor ing
le af
ĠN i
Ġn il
M any
v ct
ol is
rights quigarrow
Ġiniti ated
bi as
B Z
Ġs mart
12 34
Ġtrip let
Ġj et
] }_
) }).
Ġ&+ &
A lex
separa ted
ta tor
15 6
] })
Dia g
^{* **
Ġne ts
be zier
z ar
all ing
de tails
ĠI R
Ġspan s
ĠCont inu
Ġfirst ly
Ġsignal ing
elf and
Ġpre processing
|- |
O nce
ĠM V
Ġn u
Ġpro min
Ġpre liminaries
' )|
ĠRe p
ath an
Ġhyper parameters
ĠM ad
Ġsa nd
u pp
n ally
Ġbatter y
at son
ex pec
Ġaccep tance
Ġcus ps
Ġco sets
y ou
Ġ\! \!\!
iv i
valid ation
Ġperfor mances
ĠA x
Ġre ject
13 1
Ġdisper sive
K i
\{ {\
ĠJ oseph
over leftarrow
Ġcyclo tomic
Ġ{ [
un ch
sp ort
In itial
Ġpol i
Ġelimin ated
Ġsimula ting
ĠM D
}, ~
H el
Ġ199 5
ĠOr gan
ĠF ra
^- }
ta nd
ĠM eta
}} )^{\
K r
Ġpla stic
H ess
ir ically
ount ing
S he
Ġb ins
il er
lo s
Ġnear by
Ð ½
dis k
ĠC L
bab il
Ġdie lectric
ĠN V
u chi
ent y
ĠGu o
la ssical
) }^{(
ĠB P
: ]
ĠIn f
Ġin trac
Ġinver ses
ind ic
Ġin e
Ġwa iting
Ġcomp eting
) ^*$
M ic
g ator
Lag range
base lineskip
Ġw an
Ġsol vability
f k
ho d
Ġth m
Ġin coherent
)! }\
di ver
illi ard
Ġtransitive ly
te p
| >\
Ġarm s
ss en
Ġhand ling
Ġapplic ability
ĠMean while
> {\
Ġgeneral izing
ĠB run
ma j
Ġin cur
Ġclar ity
Der iv
e i
Ġun i
Ġhol ding
Ġsw apping
ĠR ight
:\ ;
Ġ| _\
p at
= (-
We yl
D an
Ġqu as
Ġb ary
direction al
36 0
Ġ) _{
^{ <\
ĠO R
ĠCan cer
ĠSy low
}\, (\
\}, $$
{ }_{
ĠSpa in
Ġdepend encies
oulo mb
Ġdeca ying
ing ton
us al
T aylor
ĠP ra
omorph ically
p et
ĠM ur
Ġknow ing
( {{\
F B
Ġvis its
\` {
Su per
ĠP op
J J
f lo
it m
i tively
\\ &
Ġ\% $
ĠF our
Ġp al
19 5
ĠSie gel
f ile
Ġth ous
Ġrela tivity
dots b
Ġent ers
F N
Ġsem ilinear
Ġ0 1
Ġ&& &&
A dd
La place
Y Z
Ġpar alle
as ym
temp oral
g ene
Ġfactor ial
as sum
Ind ex
Ġrev iewed
h b
ĠMed ical
Ġgroup oids
Ġend omorphisms
Ġepoch s
Ġfair ness
ĠD eta
Ġdesc ending
19 75
Ġs ie
ĠI L
page ref
Ġleft most
Ġdemand s
z ag
))$ $
c K
}}\ |_{
})-- (\
tw ist
AM P
ĠD A
Ġcongru ences
Ġ$( $
Ġre vis
su med
terna tive
Ġs po
er ci
15 7
Ġfru it
ĠL R
Out put
Ġincorpor ating
h c
s ound
Ġpla tes
ĠP CA
Ġen umerate
comp osition
E r
uc tive
)\ }.
{ ^\
Ġbenef icial
ĠWe i
Ġre member
Ġma xima
Ġresidu als
f idelity
Ġpresent ing
W itten
im odal
Ġbook s
stru cting
Ġnega tively
Ġ{ (\
Ġ rho
S ti
ĠC os
o le
ĠW est
des c
F W
mp s
C as
Ġsa ving
. ~$
ĠCO VID
14 2
Ġequ idis
log arith
AN D
Ġun conditional
Ġte les
16 8
iv o
Ġ??? }.{\
IN G
ro gate
ĠWhit ney
Ġh on
display break
23 5
Ġconju gates
) })=
15 3
Ġtemp or
ough t
ida ted
le igh
Ġvor ticity
v ic
Ġtermin ation
Ġcrypto graphy
ĠU r
ell i
ĠY es
tis m
elect ron
{?? }},{\
Ġc ame
Ġign ored
- >
Ġright most
Ġvio late
Ġmulti dimensional
ĠF A
ga wa
Ġexper t
lic z
ev ent
pri or
Ġ }}}
e ig
Ġvola tility
e ach
Ġmin ors
'' '
$ _{\
}) \|_{
ske w
n orth
(\ {\
Ġwon der
th ese
Ġ{ }^
)} )$,
Ġrespec ts
C auchy
d in
Ġde m
Ġas ymmetry
lead sto
a ref
ĠS us
E ven
)) (\
ex pect
I den
): =\{
en v
sub module
e lementary
Ġdis cs
ĠS VM
Ġzero es
> =
Ġf ire
ol f
ĠEuler ian
Ġdiscre tized
re q
S er
Un iform
ĠS N
Ġdele tion
Ġcon fined
}) }(\
Ġlocal ity
Ġco sm
ĠMil nor
\ }|
Ġadj o
ĠGrassmann ian
D W
Ġpor ous
Ġsophistic ated
ge ted
Ã ¢
a xiom
) _*
S mall
ura te
Ġnucle i
B ro
Ġrain bow
}_{\ {\
me ta
Ġmark ers
ĠV o
Ġpa ired
ĠAsso ciation
i w
ĠĊ ĊĠĊ
L ast
N ik
ĠR E
ĠTh rough
Ġmo bility
Ġon t
Ġ2 50
ern ary
Ġ$| |\
}[ !
}^{+ }
ĠDe te
Ġrecogn ized
Ġoc ca
le g
Ġv o
ĠComp utation
U P
le ave
Ġc up
ĠF ield
super script
Ġadvan ces
{ :
)}} .
adjac ent
ĠCa simir
=\ ,\
par ity
Ġ) ^{\
ĠMedic ine
ro tation
Ġhype relliptic
Ġb l
ĠKra us
ĠI ll
'' $,
}\ :
Ġassemb ly
Ġbacter ia
a ce
[ "
ĠN C
f h
Ġcentral izer
is om
ĠM is
por ts
ĠRe eb
Ġhar der
P y
ĠJ un
Ġabsor bing
ĠLat in
ting ales
Ġaffect ing
Ġi mm
x ide
Ġinter change
K h
hol tz
20 8
ili pp
ĠBes ov
Ġt ub
ĠW a
Ġfi bered
F low
R V
ĠCon stra
Ġcur l
) }^{-
ila ter
ĠG ronwall
ĠT ok
Ġdele ted
W a
Ġsil icon
Ġinter faces
lan ts
ĠB ib
Ġshe et
)| }{
ĠInd ust
' =(
Ġanoma ly
clock wise
su bf
e val
ĠDis tribution
Ġmig ration
}} <
equ alities
Ġsor ting
)}{ (\
T f
ds on
set ting
ĠH IV
Ġspread ing
ĠF rank
Ġsp ot
Ġdemon stration
13 8
Ġ$ =$
ote chn
Ġco ales
Ġsent ences
Ġregular ly
Ġspeed s
}} }=
Z ero
R m
)+ (\
Ġepide mic
ĠPe zzo
Ġbe sides
mon o
Ġ$ )
\} )$.
qu an
Ġsp ent
tif ies
ĠF P
Ġmer ge
bigtriangle up
H W
Ġb oost
P ara
x a
Ġtrig ger
constra int
] }.
in variants
Ġaddress es
Ġ\; .
ĠB ack
is try
Ġthermod ynamics
Ġapproxima tes
Ġme tro
(\ ,\
Ġconformal ly
sq cap
! \!\
ev olution
k f
L EM
ar m
ĠInd ex
3 21
ĠG ri
O H
Ġanne aling
ĠY an
l cl
si l
ĠB our
Ġf iles
ĠR S
U s
der ived
ĠF low
Ġdelay ed
; }
Ġtriang ulations
la ce
Ġrece iving
Ġexpres sing
ĊĊ ĊĊĊ
}{ [
)$ --
}+ {
L am
)- (\
ĠSim ulation
Ġshift ing
a mpling
Ġultra filter
inf eld
st en
ont inuity
Ġma gic
Y Y
inter text
ĠĠĠĠĠĠĠĠĠĠĠĠĠĠĠĠ ĠĠĠĠĠĠĠĠ
Ġpack ets
Ġh armon
}) :=\
ĠRe placing
Ġe fficacy
lo ok
ĠSpec ial
is mic
Ġavo ided
07 5
$ ):
ĠP V
let ter
Ġacceler ated
ll ers
k w
Ġd W
}}, $
}^* ,
tang ling
ĠShan non
se con
e fficients
$ }$
Ġnucle us
Ġref lecting
Mathema tics
F V
Ġanonym ous
Ġtrans position
Ġ1 23
inter vals
q s
^+ )$
Ġ??? }{{\
u ality
ĠF und
J M
d an
Ġun ary
Ġemerg ing
Ġordin als
Ġp uzz
ra el
b S
spec ified
le ep
ta s
P u
}- $
ĠLast ly
Ġinten sities
Ġdis tant
Ġdeci dable
^{+ }$
Ġfin ished
Ġc ele
Ġopportun ity
R I
o z
commu n
ince ton
Ġs ine
S ever
la u
OIU Y
Ġinitial ized
}} ))
de p
ĠB us
B on
Ġtil ting
Ġp red
Ġdraw back
U U
Ġdisapp ear
sc ha
ĠHa ving
ro tate
hou se
ĠSol ving
Ġimmu ne
cent ration
Ġoccup ied
3 12
\}, $
Z e
Ġl ives
Ġkee ps
Ġgeneral isation
Ġpuri fication
H Y
ĠT otal
text superscript
Ġ| -
tal e
Ġag ric
Ġnormal ity
ĠStr ong
Ġindex es
Ġmulti set
Ġwan ted
F OR
b H
B un
ĠN MR
Ġnegle cted
2 12
Ġtranscend ental
ĠSp in
Ġru led
sy mplectic
Ġreson ances
v n
frac tional
Ġfirm s
cont raction
Ġmagn et
Ġbo ard
z ations
Ġhouseh old
rig id
ex tended
ob ject
l ra
Ġspecify ing
100 2
B ou
= }\
ĠĠĠĠĠĠĠĠĠĠĠĠĠĠĠĠ ĠĠĠĠĠĠ
inten ance
S un
ĠM W
comple teness
22 1
ĠG ram
Ġoccup ation
, [\
[ ]{
}} }{{\
cha p
Res earch
Ġbreak s
C re
Ġsur v
il led
ap or
Ġclar ify
Ġg lue
Ver lag
au tom
Ġ1 25
nor ma
Ġexper ts
ĠCla ssical
ri tical
}, }\
20 4
is hability
Ġti ming
Ġis n
Ġser ious
Ġimp osing
< {\
s pring
ĠR an
ĠHu man
Ġf li
Ġe l
Ġe colog
Ban ach
K B
Ġs kin
ĠF atou
Ġdele te
Ġhighl ighted
val ent
_ !
Ġeig ens
] }_{
ka wa
D ist
ro pies
ĠC all
Ġthin king
R H
20 3
section s
ĠP layer
110 9
Ġgra de
pr f
ex cept
Ġb onds
}} .\
$$ {\
box plus
^{ [\
gra mma
Ġdown ward
verag ed
Ġ2 56
Ġtunnel ing
s an
C hi
Ġjo ined
ĊĠĠĠĠĠĠĠĠĠĠĠĠĠĠĠĠ ĠĠĠĠĠ
ĠT om
H er
f alse
ĠN oting
ap y
ĠA BC
Ġen rich
tri zed
iv ita
be tes
ĠGe ometric
Ġpan els
19 74
], $
th us
Ġpay ment
N i
ha te
Ġtra its
Ġrefere e
! \!\!
)| |
Ġunlike ly
ma y
Ġsub matrix
mod al
en tangled
Ġcharacter isation
Ġatta ching
ĠP hoton
Ġune x
Ġâ ĨĴ
0 21
$ ^{\
nder ing
M G
m ia
La w
99 9
}| |_{
Ġrelation al
op y
da st
xy z
Ġ18 0
Ġaccep ting
main theorem
Ġme ant
ĠS pect
Ġcomp ares
van s
Ġbu yer
ĠSc ott
Ġattract ors
Ġacc om
ed ia
R en
19 7
Ġd V
Ġse lects
Ġga ined
}} )}\
vi o
Ġm otor
err on
Con sequently
ĠL ou
ĠF o
Ġinflu ences
_{- }
Ġ\( (\
is in
hom otopy
S pa
Ġas set
og ra
Ġdifferenti ability
Ġdyna mically
Ġs igma
ĠU l
ab ling
0000 0000
Ġfe male
ĠA stro
\, (\
' |^
-\ ,
ĠL S
proof s
ter nating
adap ted
Ġecon omy
Ġtra ver
T est
ĠS H
cs name
ĠS ym
F rac
av oid
}$ &$
tri v
ĠIn verse
S an
par ty
ag ree
Ġdro pped
yc lic
Ġper me
H ausdorff
ack now
W ERT
S DE
Ġin formed
Ġc ited
we ights
Ġmotiv ic
Ġdemonstra ting
Ġdistingu ishing
d den
Ġsyste matically
Ġattrac ted
im ulation
c lique
D eter
Ġvir us
S ig
Ġinterven tions
ĠTh ough
hand ra
ĠS yn
Ġdiscus ses
*} [
Ġneutrin o
Ġw ins
Ġa rt
g ov
ĠVe ctor
cise ly
tran sition
co py
ĠD un
x v
\}. \]
Ġuna ble
}}$ )
Ġmodify ing
Ġoff set
ĠLegend rian
}) ^*
ĠA dd
Th ree
in to
+ [
GH FH
Ġir radi
Ġext in
T B
La nd
ĠQ M
Ġsimilar ities
linear ity
ĠC ry
P hase
Ġse lective
Ġ1 10
Ġ tau
Ġinteres ts
@{= }[
ĠCur rent
flush left
ĠĠ Ċĉ
Ġcam era
Ċ ĊĉĊ
cou pled
Ġcolour ing
B oth
Ġm i
g x
Ġg ender
P Q
ou ts
Ġgradu ally
ir ma
ĠElect ron
ĠEx istence
Ġ1 17
:= (\
ho mo
act ing
Ġobe ys
Ġleak age
Ġm or
$ =
S al
rightarrow s
f box
c ubic
$\ ;
circle dast
Ġ )\,
ca ti
tra tions
Ġ* *
19 0
M ay
Ġlands cape
ĠLet ters
\ =
14 8
}} )_{
ĠA A
ĠLorentz ian
Ġre formulation
Ġimportant ly
ĠH al
Ġremain ed
Ġco tangent
res is
ode cki
ĠL ar
K ar
Ġo lder
Ġde formed
Ġeigen space
)) )$
Ġb oolean
ĠMo ore
z x
X int
Back ground
ĠGraph s
Ġnon parametric
inter ior
Ġelastic ity
amal g
we i
in ery
Ġ$\ \
)}\ ,\
ĠW asserstein
}), $$
un ion
@/ ^
ĠG Hz
Ġcy to
- }\
' }^{\
right rightarrows
Ġoscil lating
pi ra
Ġse ctors
es tim
den oted
Ġquanti zed
Rec ently
19 73
)|\ ,
ot ypes
C ap
up ta
Ġp sych
20 2
per turbed
Ġd ila
Ġpart ly
ĠTho se
Ġpr int
Ġcapa cities
ell ing
l j
ge red
Ġset t
AR T
lif e
C irc
i as
{ }$
pi ro
ĠLand au
:\ :
}}= {\
comple ment
Ġt ernary
a mb
Ġho ok
r ist
F ra
Ġchar ges
B ase
ĠWil son
h rule
ĠSo ft
Ġdec oder
Ġr isks
ĠM el
Ġproceed ing
15 2
}- {
TH M
ac ces
n j
S ystem
Ġscan ning
Ġma le
ĠEx plicit
Ġrenormal ization
Ġmix tures
, ''
d ark
C ID
Ġhuman s
Ġm ult
Ġco kernel
var Delta
st all
k ers
24 5
ĠG A
af e
Ġexpl oring
ĠIn ser
Ġradi ally
ĠDyn kin
Ġincorpor ated
x b
:= {\
ĠUn iv
c linic
Ġd f
{( }
verag ing
ĠS hen
neighbor hood
ps es
Ġmicro scopy
z in
ĠSum ming
Ġwe eks
ĠI S
M er
Ġpa id
bet ween
ĠDen oting
@{- >}[
ĠSt re
ĠD ie
Li ouville
Q A
ĠEcon omics
ĠW ood
Ġcontrac ted
u ge
General ized
Ġ0 0
Ġretrie val
Ġval idate
Ġparameter ization
V is
," \
Ġk g
Ġw est
si e
n umerical
Ġemp irically
Ġcele bra
ĠR oughly
Ġle gal
toler ant
Ġ& <
ten tial
p un
ĠDan iel
b ial
ĠLe cture
ĠD iophantine
Ġsupp ressed
Ġsti mul
mark ed
}} )(
Ġtemp late
ĠH z
ĠA L
ass ign
ĠRich ard
pe l
Ġun ob
Ġdifferenti ate
i table
Ġla min
n il
Ġreason ably
Ġreinforce ment
âĪ ŀ
ĠD ou
Ga uss
tra in
Ġrota ted
ĠN ak
Ġthree fold
{??}} ){\
ht ml
S il
Ġpas sed
mic ro
name ly
Ġimper fect
ĠDe dekind
Ġv ul
Ġspecial ization
ci pl
ĠR od
Ġw arp
Ġ| ^{
LAR GE
O s
Ġsubf ield
n is
L oc
ri o
ĠL C
Ġfo cal
}} <\
Ġ} +\
Ġwit nes
here nce
Ġdeal t
ĠPub lic
Ġp le
Ġblow ing
xid ation
ĠP u
Ġindistingu ishable
i ences
ĠHam ming
E B
ĠN N
Ġbifur c
termin al
Ġphon on
om ent
Ġtemp ered
Ġpro finite
We i
Ġa imed
Ġins titu
With out
Ġle g
$\ {
Ġequ ic
Ġsl iding
count ing
Ġref erring
J e
25 5
ĠPol ynomial
ed ance
b T
}^* _{
Ġd m
2 16
s olutions
L ang
n as
ket ch
Ċĉĉ Ċĉĉ
associa ted
co vered
ĠInteg ral
App lications
Sim ulation
Arrow vert
Ġha m
ĠE p
in formatics
tif iable
ĠP DF
Ġbot t
Ġco algebra
tribu ted
ilater al
Ñ Ģ
Ġcol imits
Ġiner tial
ĠMori ta
j ac
ĠCho i
ĠH och
Ġn p
Ġexpres ses
Ġconclu ding
13 9
Ġchar ging
Ġ}\ ;
Ġcyc l
ĠA CM
Z hu
log ical
Ġequip ment
Ġrever sal
ĠP at
Ġcon vection
Cor respondence
w ho
Ġtetra hedron
}\, }
Ġf inger
si mpl
ta iled
M s
gle ftarrow
con n
ĠE volution
Ġhard ness
Ġsucces sively
squ ares
ĠR ussian
ĠVor onoi
dap tive
Ġsubtrac ting
ĠSim on
ske leton
Ġmon omorphism
Ġmention ing
R am
ĠWh ich
Ġaccomp lished
cha ins
Ġnano particles
d rop
Ġb an
Ġin formative
Ġn avig
04 8
)} /
j amin
on to
Ġ$\ {{\
22 3
d F
Ġp ed
Ġsatisf action
E dge
ĠC oulomb
o pp
x f
van ov
curve arrow
|}{ $
Ġsummari zes
c pa
Ġglu cose
Ġrele ased
ge om
ĠRec ent
g c
hand le
Ġsurve ys
et z
ma ch
d al
Ġround ing
D N
G i
erci ve
Ġecon omics
Ġ(\ {
Ġsemin al
Ġno ticing
ĠI de
per m
c Q
no stic
Ġv ision
_* )
N p
K ra
)} &\
m j
asi ve
Ġpreser vation
wr ite
D V
ĠB ose
ĠD T
ĠN A
ĠC HSH
re size
A xiom
ĠArticle Google
ĠP hilosophy
P en
}} :=\
se en
l la
ges tion
zy k
__ __
o led
con str
Ġunion s
C ivita
ĠK ac
Ġclock wise
thes es
re ct
V o
Ġpropa gating
F er
V ari
]{ @{}
h on
{$^?$}} *\
Ch ris
Ġb orn
cent ric
cyc lo
tr it
Ġplau sible
}$ --
Ġsub complex
Ġs lot
ra in
compact ness
ri z
Al t
Sub s
ĠD S
T erm
17 6
diff erent
Ġb old
var d
Ġaccomp an
! [
ĠOver all
ĠM en
ĠChar lie
Ġme trizable
Ġcommuta tors
p de
Ġf ro
Ġre places
Ġ( *
ure r
Con f
]$ ;
{$^?$}} ^\
O B
Su mmary
Ġtw isting
^{*** }$\
ĠStr ichartz
Ġe lu
dcds b
a mpl
ĠA T
Ġmathematic ians
' }.
Ġnever theless
t up
15 4
tan i
bin ary
Ġstabil izers
u f
O V
ĠT ang
Ġ{ |
Ġaxi oma
Ġdimension less
Ġup ward
}^ *}
ĠWith in
c w
Ġrecogn ize
fib er
babil istic
xi al
Q L
o bius
me ister
Ġaxi al
ch ild
is to
20 7
Ġrecor ding
resize box
Ġa stro
Ġu nt
Ġb rings
ĠM M
L ow
cess or
Ġrepro ducing
}} ,\\
T ag
Ġent ering
Ġscre en
Ġsh allow
ĠF ermi
Ġregion al
Ġobserv ational
con nec
com o
s outh
ograph ical
imo dules
pri mary
Ġrecomm ended
Ġs ympto
3 75
S ign
ĠF R
ĠD irect
b q
Ġfra gments
ph ra
Ġga ther
ĠTe ich
O rd
Ġ1 11
Ġunc lear
Ġen ga
B s
ĠSo cial
en tarity
Ġcon current
Ġprox imity
Ġ199 4
Ġfract ure
Ġtre ating
ad ia
F ran
S imple
F i
Ġnonlinear ities
ul sive
Ġpun ctured
g ro
^- $.
front matter
top ological
ec onomic
p ra
ula nt
y ang
g k
Cho ose
distribu ted
s pherical
)= &\
22 4
18 5
}{ *}{\
ĠK le
Ġpla in
sulta nt
ĠDiff erenti
Ġdecou pling
Ġspecific ations
X Z
G I
q i
Ġsol itons
repres entations
Ġmar ks
ĊĠĠĠĠĠĠĠĠĠĠĠĠĠĠĠĠ ĠĠĠĠĠĠĠĠĠĠĠ
Ġinv ent
tri ple
Ġi ron
e ad
ra mid
^{\ {
u to
Ġ\ ;\;\;
ĠF is
C ox
sp heres
ĠNumber s
Ġpo ol
Ġlo ose
Ġb rought
ĠIn ves
multi ple
Ġs outh
ĠÏ ĥ
gl s
Ġtri partite
04 5
P an
Ġcontrac tive
Ġ| $
Ġat traction
Ġ lambda
K G
}}, $$
Ġinstr uments
ĠT ree
su n
Ġswe ep
Ġs kip
19 6
log ic
Ġa ce
iren berg
Ġunivers ality
ens es
,\,\ ,\
) }}}
ĠVar iable
A cc
f la
e es
a gain
Ġtra pping
< <
Ġmin ing
cia ted
environ ment
Ġexamin ing
Ġ\ <
D irichlet
b us
in duction
Ġsub jected
expan sive
Ġt ric
{} &
Ġes cape
Ġsurprising ly
ent ric
A MS
Ġcontrol lable
ĠS paces
Ġrequ ests
associa tive
ho me
in formation
ent ry
ĠPro cessing
ĉĉĉĉĉĉĉĉ ĉĉĉĉĉĉĉĉ
mod ified
reson ant
Ġlo se
_{+ }\
r w
Ġjus tification
Ġopen ing
re z
block s
ĠV ir
ĠÎ ³
Ġmana ge
Ġbur den
Ġre lying
ss o
Ġconfirm s
cccc cc
Ġal co
play er
Ġbos on
Ġprecipi tation
ĠS NR
Ġdic tionary
ĠK now
ap ore
me ters
per imetric
|\!|\! |\
ĠL ab
Ġtun ed
b os
Ġenc oder
Ġuna mbigu
Ġgala xies
M al
Ġreal izing
m holtz
res tima
Ġ) ^{-
curv ature
@{ --
}) [
q bezier
Ġhealth care
e uler
tran sfer
Ġexplan ations
}| ^{\
}] _
Ġdigraph s
}, -\
ĠK ru
Ġsupp lementary
Ġhe ads
App lication
Ġla dder
Hu ang
l v
Ġout ward
de lay
ĠF undamental
14 9
ĠJul ia
mo ving
Un ited
Ġpropo ses
Ġfin er
A p
Ġan chor
Ġreco vers
J C
J P
03 5
th a
Ġdis continu
Ġlike wise
19 3
Ġfund ing
Ġb ank
Ġmerg ing
ĠĊ ĊĠĠĠ
A U
Ġcommun ications
in ation
ĠPri mary
Wr ite
Cont rol
ĠWe ll
po sit
ach ing
pro g
Ġne gation
Ġdx dt
F act
Ġantis ymmetric
F o
Ġasc ending
)\ },
k ine
ear son
b id
ĠC over
ĠU V
ĠD F
Ġ10 5
Ġscal able
na k
ĠInt ro
Ġsub class
s ystems
ĠG M
19 72
}] (
ĠMax imum
{ }_
oun tain
Spec ial
ĠLO CC
es h
Ġframe d
ĠApp lication
}) |^
w he
Ġo pt
ance l
Ġaccount ing
f ref
K N
Ġdiagno stic
}^{ |
Ġg ly
Ġspa cing
T ur
ting s
ĠUn ion
)} <\
Ġac ute
ound s
\| (\
Ġaff irma
mp a
b ular
Ñ ģ
Ġassoci ates
Ġen counter
Ġs lices
Ġh its
ĠB orn
Ġ )}\
ĠT ex
rest r
Ġf undament
Ric ci
Ġmetab olic
Ġsub modular
Ġsub domain
Ġs edim
ox ide
\,\ ,\
Ġadd ressing
t k
ĠB is
Ġ+ (\
bib liography
34 5
ro magnetic
Ġallo cated
}^{+ }$
ĠUn iform
Ġoptimis ation
Ġcaus ing
ĠMulti ple
;\;\;\;\ ;\;\;\;\
h art
che v
G er
Ġcoh ort
Ġmonit or
ĠAfric a
Ġassoci ations
J u
' ]$
Ġpromin ent
Ġc ard
Ġbroad er
par ta
Ġde licate
sur d
de ll
ĊĠĠĠĠĠĠĠĠĠĠĠĠĠĠĠĠ ĠĠĠĠĠĠ
_{+ }(
Ġcontrac ts
Stru cture
ĠCom mons
Ġour s
)| ^{\
15 9
Ġadjust ing
Ġdro ps
ĠCalc ulate
c ence
lu nd
ĠCon clusion
temp erature
ĠMate m
Ġpoly hedra
M Hz
Ġti gh
F l
V ect
b nd
Ġstra ins
$, $
^* )$,
Ġ }$$
ms kip
03 6
Ġperman ent
Ġ= \,
Ġsub ring
}) <\
Ġele g
Ġautoma ted
Sing le
^* }{
ĠA nderson
Ġdegener ation
Ġlexic ographic
Ġergodic ity
ĠEx ercises
ik ip
I ll
ĠH art
We il
ĠSing le
th ird
s O
make cell
ĠD OI
t bl
Ġtil ings
ĠH ir
C c
Ġcapa ci
Ġd il
ĠD ynamic
Ġcos mic
Ġto xic
en tanglement
19 9
ast ro
ĠAlgebra ic
ĠHigh er
W S
ĠI T
w en
ĠD AG
we g
langu age
R i
18 7
Ġma intenance
}^+ _
ma g
Ġun know
)\ ;\
Ġas sets
Ġy ellow
Ġanten na
Ġ- .
ĠF an
Ġhisto gram
' },\
E K
ext ra
Ġb on
Ġsemic lassical
Ġun knot
Ġsubs equences
Ġfund ed
Ġdiagon als
)} &
hate ver
' )-
)) >
build rel
C ou
li ties
il st
up lus
fine ment
Ġstiff ness
ĠSch ubert
Ġacknowled ges
Ġrandom ization
l ds
Ġpr uning
Ġarrange ments
ĠE C
tex lab
19 70
ĠC ross
ĠWe b
G ordon
Ġas ks
Ġd p
Le b
' })\
q n
Ġtack le
Ġalterna tively
olog ous
ĠC luster
mu t
k owski
Ġopin ion
J ohn
um entation
Ġb rid
$ ^\
}}\ ;
Ġflux es
\ <
Ġforget ful
ĠB as
l ma
ĠMAT LAB
x M
Ġsci entists
] $$
Ġl ig
Ġsub bundle
H B
Ġdis advan
mb ia
Ġwe alth
F rob
ĠV ia
estima tion
s se
similar ity
_{ {{\
\{ (\
ikip edia
Ġes t
Ġgener ative
Ġinc ub
,\,\ ,\,
You ng
gre edy
Ġdes tin
Ġdifferenti ating
Ġd w
Ġbi ases
B in
ĠP P
Ġsur rogate
Ext ension
}: {\
ĠC G
ĠH S
Ġima gine
ĠĠ ĊĠĠ
^- $,
)] ^{
}_+ $,
Ġenti ties
Ġo xi
J K
ĠF ed
Ġsa mpler
AT H
Ġ198 0
Ġin consistent
Ġclon ing
Wh it
ĠAd van
17 0
ctor al
ĠJ S
ĠS pan
is sion
}} =(
ĠSti rling
Ġle verage
r To
5 12
} &&
er f
ific ant
Ġc hip
ill ary
Ġge o
L at
pie ce
Ġ$ +$
Ġ- >
Ġtra ve
ĠCal der
Ġabsor b
Ġcan ce
Ġpolyg onal
tific ations
Ġtr unc
}}_{ (
mon oid
C i
ĠK re
Ġutil ization
Ġsu ited
Cla ssical
Ġwindow s
yd berg
ok a
uch s
ĠWillia ms
Ġrepor ting
> *{
di vergence
ĠG S
)}) _{
: ~
Ġre volution
Ġfrequ ent
on z
ho v
ĠFe ynman
}). }
Mo st
ĠLe ft
24 3
Ġcelebra ted
TM L
ĠS imple
23 7
n umer
Ġre wards
Ġ199 3
ĠB et
Ġsubs olution
Ġopportun ities
16 6
Ġmaximal ity
Ġproduc tivity
S plit
ĠW hy
O G
Ġsynta x
Ġe u
}) }$,
Ġsub trees
sur faces
Ġlater al
ar n
Ġtaut ological
' }=\
D et
no va
ne u
small er
re tt
gen us
|\ {
s als
ag ue
Ġg r
Ġl ung
)) /
\ ^{
j h
aut onomous
Ġimp utation
U se
ĊĠ ĊĠĊ
Ġsha ded
16 9
15 8
Ġfil ms
Ġe cos
ĠG elfand
): =(
16 2
atter ing
J L
n w
er ay
ĠSy st
Ġtar geted
ha pe
U I
14 1
Ġcircum stances
})$ }
Ġspec ifies
re w
ide lities
ĠChen g
Ġtran sitivity
p M
al d
Plan ck
Ġsub linear
ĠS ymp
G V
Ġ??? }$
N V
)} >
Ġbelie fs
ĠFer mat
local ity
Ġp harma
* }}
ĠF uture
Dis crete
thm ref
ĠA dam
{$ +$
Ġla g
Ġsu dden
de le
ĠM B
Ġs es
we l
on ent
oulo s
ĠA MS
equ i
Ġ~ ~\
ri k
ĠÎ ¸
m q
ĠAc ad
pa ti
ome dical
n odes
F ar
Ġad ults
Ġass is
Ġconstru ctible
end proof
Ġclo sures
bf m
^{\ ,\
Ġsimplify ing
ol ding
Ġco res
zen ge
re view
Ġsub mit
acknow led
ĠWe ak
Ġempha sis
tribu tions
T ab
ĠApp roach
Ġrepro duction
I ST
Ġpers istent
j c
17 7
H i
flu id
Ġblock ing
v m
Ġb ill
Ġemer gence
Ġbor row
ĠN Y
semb le
ĠĊ ĊĊ
Ġ[ ]
compon ents
ĠC ra
u z
ĠN ik
ĠQ A
Ġattrac ting
Ġ1 35
}} }=\
k q
ĠCor responding
Ġass ay
Ġst ory
C X
ĠBoh r
con cept
Ġb alancing
ga ussian
ĠK y
ca nd
Ġsub traction
r isk
Ġco product
Ġframework s
p ters
}] =\
Ġs ou
b Q
acces sible
Ġpump ing
ad i
Ġ|\! |\!
lat tices
l ia
ĠAd ding
Ġcover ings
Ġargu ing
ack ey
Ġstand ards
\}$ -
Ġspec im
ov ich
Ġn um
Ġ\; ,
Ġinter f
m A
sol ved
u mb
c li
e ger
ge odesic
Ġgover ning
Ġ( ``
Ġsta bly
ĠĠ ĊĊ
oto pe
04 0
Z hou
S tability
ar ma
Ð¾ Ð
ĠK ummer
R O
Ġfin ance
Ġflip s
Ġances tor
}| }\
ther mal
qu anti
Ġs ender
ur ality
Ġsu be
n v
left margin
or ms
Ġin stal
Ġgen omic
ici ency
ĠB ase
ĠGroup s
p al
Ġunknow ns
inj lim
Ġrigor ously
Ġsp ring
}^ -(
im mer
Ġ$ *$
ĠO RC
Ġpat ches
lar ger
re ci
Ġcol imit
S en
g lob
na texlab
Ġfil trations
ĠM T
Ġl ip
to f
Ġcaus ality
ĠHar nack
}}^{ {\
{}\ !\
Ġv i
ĠSing apore
Ġreac hability
Ġe ye
Ġpres entations
is otropy
Ġpol aris
Ġsuff er
Ġun correlated
ĠS tability
ĠÎ ´
integ ration
ĠRay leigh
Ġv oting
ĠV la
z ig
03 0
se ll
ĠChe mistry
ter ra
23 6
ti les
Ġsub critical
}^{\ ,
ext end
D y
Ġdiver ges
Ġsubstitu tions
osi tes
AC T
Ġv essel
Ġ} ;
$ }_{
ĠF rench
ĠC NN
stru ctive
ĠHur witz
]\ )
16 4
je e
W M
Ġheuristic s
ga uss
ĠC oll
ĠH ill
. $\
c q
P os
olu tive
L ist
te t
}[ [
)| $,
Ġfulfill s
17 4
ep ti
pe ak
var injlim
Ġs coring
Ġsu n
stra tegy
^* {\
aa a
I ter
Ġ })\
Ġad verti
Ġsto ps
* }$
B la
o y
pa cs
ĠD ig
15 1
Ġfa iled
ĠW he
Ġid ler
Ġf light
nobreak dash
Ġcompan ies
wide check
ck e
ĠAstron omy
Ġcol linear
ĠS olutions
28 8
ash ington
Ġtru ly
Ġprof ession
c table
Ġ\[ (
Ġoutper form
Ġpropo sals
ss ential
ordin ary
ĠB irkhoff
_* $.
anal og
if er
Ġch lor
ĠMin istry
i ation
ĠS mall
ĠK el
20 6
pri mitive
}}{ =}
ric es
n ic
P U
Ġk er
Ġpla s
Ġprac tices
Ġg y
df g
over n
b j
Ġmach inery
l isting
} "
Ġ\| _\
Ġprotot ype
" };
lr corner
fa ir
plus height
b one
fact ors
Ġenzy me
Ġresol ving
ĠIs rael
co homology
Par tial
Ġmim ic
ĠC li
)| }{|
Ġ$( *
ĠG ood
Ġvul ner
ĠE nt
ĠF actor
nega tivity
Ġspecial ized
ĠInd e
ĠPer formance
Ġrever sing
ĠS hang
21 7
, *}
ta ker
$ );
Ġtri ed
con volution
ĠP ier
ĉ Ġ
}$ }.
ĠJ in
Ġdown stream
F an
F robenius
\, :\,
Ġmargin als
Ġb imodule
Ġregula tory
24 6
v g
10 88
Ġeleg ant
Ġv ib
th rm
v ision
ĠModel ing
ĠArchi ved
Ġen abling
22 7
18 4
ĠCo mple
Ġquar ter
en su
ĠEff ect
Ġswit ches
| )^
ch in
ul sion
N B
-------- --------
ĠWhen ever
f at
Ġprac tically
19 4
Ġsemicon ductor
Ġnormal izing
op tim
ĠS cal
Ġi ii
}$. \
gu ing
ĠR T
ro d
Ġrearrange ment
}] ^
ha in
page break
Ġtrans parent
Ġim mun
a ger
ĠL im
\ )\
su fficient
ĠDy ck
F lo
ĠPlan ck
Ġsuper solution
C U
{$+$ }\;
Ġquantif iers
R K
Ġsatisf actory
measure d
mat ched
ĠD L
ste ps
Ġact u
}] {\
ĠORC ID
loy d
ĠSubs equently
S erre
$\ |\
$$ |\
ĠOb serv
Ġcou ples
Ġocca sion
ser ving
ad er
ma ster
bor n
.& .&
âī ¤
C AT
Ġcompan ion
k ens
Ġbacter ial
_{ *}\
ĠL M
ax ter
Ġsub scripts
Ġla belling
ust ration
ĠW ill
Ġsubmer sion
ER S
}^+ $,
ĠIs sue
Ġtrans duc
AR S
Ġf ed
Ġhighl ights
textquotedbl left
< (
character istic
ot y
ak es
ĠAda ms
ĠO ffic
Ġsho t
c W
ĠAmer ica
Ġabst raction
hyper link
Ġappe aling
ĊĠĠ ĊĠĠ
^{*} (\
mix ing
var Lambda
Ġenjo y
k T
sen ess
sub array
})\ ,\
\!\! \!\
H il
trans lation
Ġ??? }{\
Ġcon ical
B orel
Ġun constrained
Ġtis sues
Ġsh ar
Ġf loor
Ġ+ +(
ĠR osen
hu a
gm ented
Ġrank ed
Ġcol oured
27 5
Ġcon cord
na m
Ġmathematic ian
Ġexper iences
den ces
ĠH i
: ,
Ġinv oke
B ru
x e
pi a
45 0
Ġimple ments
p tic
}= {
Ġtub ular
j ust
erc ivity
equ als
si fication
j f
^- )
ĠD D
E v
qu ality
i ors
cr iterion
Ġneur on
C e
C one
02 8
z el
ĉ Ċĉ
ti sh
' )}\
label ing
over bar
H at
Ġwar m
{*}}}\, $\,\
23 3
Ġo wing
ĠD on
yp ically
Ġsche matic
gra ined
Ġsp line
p ho
Ġa cids
ĠO DEs
\ ;\;
Ġsci ences
conver gent
ĠBa ire
ĠF ellow
ĠQu ad
}}$ ;
T otal
s pha
Ġquadri lateral
ĠEstima tion
ve t
ĠAlex and
max imum
Ġt al
Ġde polar
Ġgre y
ĠGu ide
^+ _\
DF GH
Ġexis tential
As ymptotic
}- (\
S mith
da ira
or f
if iers
Ġch iral
Ġanoma lous
03 3
aref ree
Ġpre de
_- (\
ĠUniversi dad
iv an
Ġcor ollaries
Ġcollabor ation
Ġexhaus tive
Ġtight ness
ke ley
Ġper ipher
Ġexpla ining
ide meister
S yn
ow icz
ĠCon f
}) \|
ĠAn ge
H G
Ġfaithful ly
g w
Ġb are
th reshold
\ }\,
Ġenable d
Ġpre print
02 7
\% ,
ft ing
ita tively
ne eded
ĠO h
Ġ\ $
ĠRo ad
ĠGro ver
p rice
ad ditivity
^{- }
N G
ĠRemark s
Ġann ounced
S at
\ ~
Ġmanufact uring
k v
Ġor cid
d H
Ġis ogeny
Ġ$ ;
Ġc ra
Ġcon tributing
mb o
Meth od
ĠD omin
ati o
l ich
ak is
ĠReg arding
factor ial
Ġbelie ved
Ġimp edance
01 01
dis si
^{* *}
lif er
)$. \
Ġinher ited
L V
23 0
_- ^
ĠApproxima tion
tab il
operator s
ĠT y
20 9
Ġplat forms
hance d
^* )=
Ret urn
ĠG ross
acknowled gments
Ġphysi c
Ġoff ered
Ġz ones
col l
Ġm s
ĠN ov
Ġm ental
ĠC ity
lem me
Ġ(\ (
Ġiso perimetric
in ct
Ġlead er
Q ED
Ġsubse ctions
Ġreview s
re ds
bi partite
Ġ| ,
ma tro
Ġmaxim ized
Ġmo tif
Ġpropa gator
ĠR ou
Ġsk ills
Ġste llar
to c
k as
R ich
C over
S ep
Ġpro long
Ġbott len
Ġ&= -\
ow itz
Ġ{ }_
Ġro tate
Ġca pi
ĠCalc ulus
footnote text
ĠNuc lear
ys hift
curvearrow right
)}\ |\
Ġfabric ation
}| $,
Ġmirr ors
Ġstrateg ic
gener ator
ĠBerg man
ij kl
Ġuniform ity
I mage
F re
Ġin j
var Sigma
K O
ran i
Ġs ales
Ġbra ided
Ġa mino
coun ted
c oding
wal d
di ed
Ġopto mechanical
Ġpropa gate
ok er
ĠQ ED
Ġ1 13
ĠRama nujan
ĠS imp
V C
ĠEs timate
Ġs hip
pro po
Ġturbul ent
gu yen
Ġste ms
in en
Ġs pend
17 8
ĊĠĠĠĠĠĠĠĠĠĠĠĠĠĠĠĠ ĠĠĠĠĠĠĠĠ
ĠSh imura
f undamental
Ġbe coming
ther lands
Ġc ities
usz tig
Ġdec iding
Ġre sultant
Ġfe et
deriv ation
Ġre tro
ĠB M
L an
ex ceptional
Ġnon convex
Ġsuper script
m orphisms
ok s
if x
usu al
Ġaccom mo
Ġfactor izations
17 1
Ġl iver
Ġ&= (
ĠW in
g las
Ġampl ifier
om o
Ċĉĉ Ċ
^{* },
och ner
Ġsa ve
pa y
i A
rela tivistic
mes h
Ġon set
ĠW erner
_* $,
ian a
ĠA UC
ĠT ow
ĠR ydberg
Ġhar ves
n ilpotent
Ġ ^*
ĠM iller
W T
Ġinnov ation
pen sity
Ġexclu ding
Ġra d
differenti able
Ġcrystal line
Ġhe ights
_{* }(
id ance
Ġvio lates
ĠT HE
R n
t q
Ġextin ction
ĠB og
Ġv ivo
yn olds
Ġmus cle
y ah
19 69
Qu ad
}^{+ }(
}) :=
Ġpre vents
ot z
Ġalgebro id
Ġunivers ally
Ġex ercises
22 8
Ġgramma r
e asy
diamond suit
Ġsp ine
Ġcer tific
AT ION
W ave
ĠWillia m
ed ing
17 2
ĠP lugging
Ġinfra structure
Ġnormal ised
Ġp ig
con tained
Ġ199 2
des cent
ge ometry
}- >}[
Ġhouseh olds
ĠA F
w k
Ġmar ker
ĠSur vey
Ã ±
^+ ,\
,. .,
) )=(
cong ru
dis p
illia ms
ĠI sla
ffici encies
Ġfit ness
bran ch
Ġcol le
simp licial
B ol
Ġtransform ing
lon gleftarrow
Ġ& (\
Ġsub problem
Ġtourna ment
Ġa periodic
id ences
as ympto
Ġun weighted
Ġper spec
E is
24 1
O perator
Ġbenchmark s
}) }_{
m oto
strict ly
ma terial
textquotedbl right
}^* )
ur g
)= {
s E
ĠE valu
Ġve ge
ĠA la
ĠV ic
ĠĊ ĠĠĠĠĠĠĠĠĠ
)}{ |\
)= &
aves dro
ĠStu rm
p ly
Ġ, {\
'$ )
22 6
N W
Ġrepe titions
or ial
was awa
}} :\
I w
ĠL ittlewood
Ġactiv ated
ĠAd v
Ġcas cade
\, }\
}[ -
+ }(
gener ation
Sim on
| }}
Ġe cho
Ġv itro
{ <
Ġintu itively
ut te
Ġ[- >]
|= |\
Ġpro b
as k
Ġmotiv ate
'' =
cl id
comp utation
rup t
b D
ĠKing dom
Ġtra ding
Ġsimula tor
^{- }(
hiloso ph
)$ };
S cha
na ke
yg mund
par ing
Ġreal izable
Physi cal
ĠRe ference
l is
all en
Ġtermin ate
Ġpre para
ĠTh urston
conver sion
ur is
line color
In eq
equ a
Ġload s
Ġaccumula ted
L m
Ġod ds
03 4
co ker
Ġno table
Ġgra in
Ġanc illary
ab in
ru g
ĠC B
Ġimp oses
Ġ& {
ĠR C
^{ ''
Ġ} |
F ormal
Ġelectro de
ĠMeasure ment
leq no
Ġdistingu ishable
Ġd ip
un t
y lation
ĠT S
Ġincen tive
Ġplan et
Ġcomp osing
ĠV a
c ra
W or
18 8
[- >,
Ġferm ionic
da bility
Ġpollu tion
col lap
Ġmid point
b B
Co mple
Ġa stron
con tact
ta ck
05 0
Ġre jection
Ġsupp ression
Ġextrac ting
H all
se lected
})= {\
Ġshort ly
ci ent
ĠP ort
za wa
26 4
off s
Ġa ero
ver tical
Ġ ic
ĠH istory
parti tions
re als
Ġoff spring
Ġprocess ors
ĠBu ilding
Ġreal izes
Ġmaintain s
o tation
28 0
Ġo ve
P ower
Ġdesc ends
ab a
Ġ6 00
ma jor
over brace
}] )
Ġoc ta
Ã §
M umford
Ġad ult
ĠTechn ical
Ġ$$ [
)}\ |_{
de pendence
Ġdomin ate
)| <\
2 15
Ġplace ment
s ff
_{ (-
ie f
19 71
Ġtor oidal
ĊĉĊ ĊĉĊ
te mic
vari ation
Ġf ram
ĠE S
Ġ1 12
Ġis sn
Ġvisual ize
if star
S pringer
ĠQu illen
Ġp ron
ge tic
Ġans wered
ĠRo man
uc as
Ġincomp atible
su mmary
enti st
24 7
and le
Ġ1 15
bb R
_+ )
eed back
S mooth
Ġpredic ates
Ġreco mbin
se mic
val ley
N ielsen
Ġund ec
u ted
re turn
'' )$
W L
Ġbase lines
ĠLe on
ĠT P
Ġdepic ts
L ear
n T
ĠPr inceton
{{ {
ĠReg ion
ĠA k
Gu o
ĠA U
Ġac cepts
38 4
Ġcompr ises
ĠI r
}, ...,\
Ġu mb
or ig
ĠState ment
Ġmom enta
Ġdestro y
v d
ex pression
Ġinher its
ĠA ff
Ġa x
\| ^{\
Ġreac tive
ra tive
q f
M ark
Ġexamin ation
Ġex emp
Ġann uli
ĠNone theless
Ġent ropies
array colsep
w f
ĠSti ll
ĠR H
l ishing
}) )}
Ġphy log
}}\ !
Ġsur jectivity
cur ly
Res ult
sol vable
B oh
ĠSe lf
ĠQ C
square d
pi ration
{ =}
Ġul timate
Ġecon om
)| .
Ġsympto ms
. }\\
Q D
v l
24 4
ynchron ous
Ġb ip
Ġpo se
Ġsearch es
Ġremo ves
Ġregis ters
Ġthor ough
ĠImp ro
s low
Ġdeca de
c Z
ĠP ers
elt jes
ĠT F
Ġse ller
Ġretrie ved
Ġpub lisher
Ġbar riers
ĠB MC
m ented
Ġpro bes
:\ ,\
18 6
mple mentation
qu ar
& \|
ert z
Ġpost pon
ĠSta t
Ġquad rant
st rom
Ġs leep
Ġhomo clinic
Ġquadric s
ĠIns titut
osp here
ĠP E
] .\
eff ect
ĠPh D
Ġguide lines
-\ !\
}). \]
Ġmin er
s equences
^{- |
I K
Ġdense ly
Ġp lug
)( {\
Ġin structions
co p
Ġp epti
ĠF l
N U
s age
Ġc lick
ut ta
cas ts
Anal y
log ram
oren z
Ġver tically
Ġwrite s
adj ust
ĠJ ack
hl en
su ff
pe u
f und
do or
ĠEx act
Ġval idated
tra ined
ĠSI AM
38 7
osi um
as onal
re pe
ma pping
place ment
ĠK az
semis table
Ġd X
Ġti p
Ġla mination
the ast
' \}$
B ir
p ng
18 9
Ġ10 3
ĠB lock
Ġ199 1
ur s
ĠHan kel
l ib
lo zenge
un tz
id x
Ġ}\ )
W ork
Ġabbrevi ate
V S
Ġindex ing
Ġo w
extre mal
Tho mas
Ġc ast
04 4
b F
, ~~
ĠS ay
che l
ĠA rm
ze ch
on ia
Ġo xide
BS DE
pa nder
op s
ĠKu mar
ĠB R
: -
T emp
Ġdia m
Ġ> =
Ġinfe asible
3 20
End For
ĠW iley
Ġ\, $\
ĠM AP
ĠE ither
for cing
ĠG au
ks on
}\! \!
ĠK or
,\ ;\;
Ġ1 44
M Z
t ol
Ġexperience d
Ġcompara tive
}) }=
Ġâī ¤
r uple
Ġconsum er
[ #
ac tic
name d
Ġb one
ĠAc cessed
F ac
p lots
Ġf un
b E
ĠB ig
Ġun labeled
g ences
Ġsub differential
be it
Univer sit
Ġth re
ak ian
alle y
)} <
25 7
17 3
$ "
Ġe avesdro
ĠBoh m
Ġste ep
cat code
Ġperspec tives
ex mp
ori entable
Car tan
16 1
Ġre frac
Ġdamp ed
ĠF ields
Ġbas in
Ġhar m
}} }\\
Ġe dition
' :=
ĠK n
ĠÏ Ģ
ĠFor m
_+ )$
lar ia
Ġta pe
Ġau gment
irc raft
Ha ving
_{+ }$
Ġemplo ys
Sci Net
w alk
{ )}
â Ĥ
ĠL ist
modu lo
Ġm ouse
D O
Ġobsta cles
18 3
Ġfound ations
med break
ĠC am
04 9
Ġinter active
: _
v matrix
Ġseed s
ĠCre ative
at ers
}}^{ (\
gener ating
mo v
Ġen han
L ittlewood
tra mi
E H
Ġinter play
Ġun supervised
D im
}} |^
ĠPro duct
Ġspeed up
Eu clidean
03 2
text md
Ġ\# \
Ġmedic ine
er red
titu to
Ġmove ments
ĠÂ µ
ĠB ul
sub space
ĠImp ortant
ĠB ert
24 8
' ^{
C t
Ċĉ ĠĠ
Ġcirc ulation
id ers
radi al
R ay
Ġ. &
Ġex clusion
ĠP ere
Ġunex pected
K W
ces sive
Ġ} &
H en
Ġsuscep tibility
ĠE valuation
Ġevol ved
ĠX iao
j et
ĠR A
Ġto ken
Ġ($ (
o e
t X
Ġbe gan
Ġenvelop ing
ĠE lse
moment um
heim er
Ġn s
Ġ(- .
ma d
Ġbuil ds
ĠLind blad
}{*}{ $
n old
Ġunita rily
Ġdeli ver
)) _{\
)| ,
ĠUnder standing
ĠL HS
ĠRa ther
Ġquasi linear
Ġproject ing
ta m
K A
Ġsqu arefree
s lice
Ġn ic
math ema
B lock
Ġop ens
su ally
Ġsing let
Ġcalibra ted
T ar
ĠMon ge
Ġinhib ition
ĠNe therlands
Ġsie ve
Ġsub modules
v ate
ph il
ich i
respon se
Ġcoal ition
ur ch
Ġweb site
ft en
iew icz
f ields
Ġpoli tical
Ġobser vers
h olds
Li ke
cpa a
re duce
L ind
ĠS wed
ene tic
z w
ĠZ heng
label led
.~ $\
ĠTok yo
U L
ĠP olicy
Equ ival
Ġmeridi an
ĠQ FI
Ġo xidation
ĠIma ging
ĠT ensor
si x
05 5
arc cos
ĠAn ti
ĠEff ects
il lo
Ġincre mental
Ġspe ech
I de
sla shed
23 8
c Y
Ġc row
e ither
ic ago
Ġen tangling
Ġhist ories
Ġf idelities
Ġnec k
Ġtra pez
Ġpropor tions
C n
ĠM O
ĠSol ve
Ġg ases
26 5
lec tively
Ġma g
pa d
Ġ1 27
Ġpro pensity
Ġp ione
ĠK r
Ġbi jections
for k
B ri
Ġno ises
pe x
ĠV iew
ar se
fore ach
ma ted
ĠF T
z an
. <
}^+ $.
ah l
Ġqual itatively
Ġ$[ (
)}{ {\
ticular ly
spec ially
osp ital
Ġsub lattice
Ġen comp
Ġ+ |
un a
Z a
ĠE R
impro ved
v center
Ġoptim izer
b L
a gin
Ġirre ducibility
I B
Ġe pi
ĠHar ris
|_{ {\
z ur
Ã³ n
Ġ/ /
Ġb end
Ġnormal ize
B b
Ġstandardi zed
35 0
Ġ ĉĉ
}\ }}
ĠBi ology
Ġrecept or
Ġinter cept
u ck
Ġration ally
or ting
ã ģ
Ġforth coming
Ġ10 8
mis sibility
P b
wor th
ĠT D
Ġapparent ly
ĠTeich m
Ġa cademic
ar ded
ĠJe an
$ }(
Ġsec re
n subseteq
Ġdim in
per f
Ġ2 55
inf all
Ġvot ers
_\ #
or ts
Ġb ialgebra
ĠDeter min
da de
Ġpla cing
w icz
select font
ass isted
Ġma laria
A mp
Ġham iltonian
Ġsome how
gn l
Ġaffirma tive
b atch
Ġcontradic t
ym ents
: \!
ĠEnviron mental
Ġtransf ers
Z hao
p here
Ġellipso id
mma ri
... +
S uch
Ġch roma
Ġ ##
Ġu v
Ġexclu sively
Ġelabor ate
q x
Ġre tain
17 9
lem ref
}}\ }$
ry lov
ĠW itt
ĠOn line
Ġlaser s
G rant
^{- }\
ĠHel mholtz
G AN
Ġsmall ness
Ġlo ck
ĠR i
ĠT ian
@ @
iter ation
avoid ing
Ġg irth
Ġu b
pri m
ĠR og
Ġdic hotomy
Ġsupp lem
ĠG F
Ġappe al
F ried
N m
Ġch ronic
ĠL ight
com mon
Ġhyperbolic ity
triangle down
coordin ates
Ġ$ {{
Ġco cycles
ta tively
sub st
Ġstri king
ĠS PD
ome ters
Ġcon den
}, &
' )^{
Ġcomplem entarity
: (\
ĠP ac
s A
Cor responding
_{- }(
ĠInser ting
ĠK i
ĠA verage
ĊĠĠ ĉ
ĠT E
state ment
mb le
- [
Ġcooper ative
ĠI tem
Bound ed
_{- }\
Ġstra nds
Ġ }}(
\ }=\{
N irenberg
ĠS ong
er i
def ault
Ġger ms
A verage
Ġbuilding s
|\!|\!| }|\!
ĠAg ric
fact ual
De finitions
}( [\
ĠJ ac
Ġw ood
Ġ} -\
ĠPro gramming
Ġhyper cube
es ti
Ġdri ver
36 5
Ex act
)! }{
u df
mathb old
ĠF FT
ex c
As suming
$ ^*$-
ise ase
&= -\
slo pe
$ }}_
bow tie
]_- {\
Con j
me tic
Ġw hatever
be ha
mp ed
Ġcofib rant
section al
ob ayashi
Ġ10 6
ĠExt ension
ĠF ast
ĠJ on
iter ia
do v
Ġswit ched
3 01
ĠY e
Ġspace like
back ward
ĠR K
([ -
in si
arg max
c uts
ĠM LE
Ġtherm o
03 7
divis ible
Ġassocia tivity
ĠG ab
ĠJ M
f on
@{ .
Ġimper fe
Ġsustain able
J ones
^{- }_{
ba tic
le ading
Ġta gged
Sta tis
comp l
IM E
ĠQ R
Ġinver ted
ol da
Ġ???? ?
G U
lo re
T ot
k z
ec tious
ĠW ave
)) ]
de cor
3 07
{$^*$ }\
Ġpre tty
Ġoptimal ly
les on
Ġferm ions
J X
variable s
Ġhomogen ization
ĠM un
}_* (
Ï Ģ
si mulation
03 8
Ġproble matic
$ ]{
orth and
oto pies
Ġqu asis
G ood
nd em
ĠH P
Ġre traction
Di rac
sub algebra
Ġcent red
Per formance
Ġreformula ted
ĠM id
Con vex
Ġser um
N um
Ġsumma r
Ġc hi
][ ]{
S DP
per formance
ĠH and
Ġdiscar ded
o cc
triang ular
ĠP eng
ven ess
Ġtu bes
â Ħ
Ġas king
ĠK ong
Ġinv is
pre liminaries
The ory
Ġquad rup
ĠUn it
Ġarri ves
o scil
E mp
ĠK ho
DE F
ĠMa jor
Ġconju gated
ĠSign al
ure d
ĠGener ally
Ġre jected
all ic
Ġr ural
ĠP sych
Ġmanip ulate
ĠG i
Ġst ro
Ġenjo ys
f ts
S K
ĠSh or
Ġcol lecting
P age
Ġtranscri ption
ĠDe finitions
back ground
center dot
flush right
}) =\{
Ġde b
Ġsuper critical
Ġent ropic
|\!|\!| {
ĊĠĠĠĠĠĠĠĠĠĠĠĠĠĠĠĠ ĠĠĠĠĠĠĠĠĠ
squ ee
Ġremin d
are n
Ġgraph ene
cr is
Ġcalcula tor
Ġdisplace ments
in cre
Ġ& \,
ĠGe orge
Ġc ash
st re
\| $.
Ġen tity
C Q
Ġtri es
GH z
this pagestyle
F our
Ġmay be
| &\
Ġpredic table
ta me
div ision
Ġantic ipa
& :=
is ometry
od ory
Ġsub varieties
d j
Ġ ~~~~
Ġremark ed
Ġinter acts
19 67
scal ed
AS A
ĠOr licz
~$ (\
horiz ontal
ĠOp tical
ĠD em
Ġapproach ing
ay ama
ĠM NIST
Ġstabil ized
all s
ĠSe ts
ĠP age
Ġabs ent
Ġconverse ly
Ġs naps
)| |_{
Ġess ence
p ulse
ĠMo tivated
found ed
Ġsatisf iable
04 6
0 95
^* -\
Ġcolla pses
Ġwe t
w ire
bitra ry
( *
ĠGra dient
] }}{\
N s
ĠC ON
pro ject
R un
p attern
Ġmiti gate
ĠO s
Ġmat ters
Ġbis imulation
ha b
equival ently
V P
u ds
Ġin struction
ot er
20 23
Ġbase point
ĠQu an
ĠA long
ĠS w
Ġsol ids
Ġcri tic
Ġto po
qua ke
vari ational
ĠShang hai
l h
)) ;
ĠElect rical
Ġcounterexample s
fa ff
ma cher
Te chn
allow displaybreak
== ==
Ġdef ic
allowdisplaybreak s
Ġfri end
ĠEcon omic
z h
ĠM ell
): }
Ġwavelength s
the bibliography
Ġher al
I ma
Ġ& {}
Ġun folding
Ġ\; =\;
| },
Qu asi
B ob
D ir
Ġde posi
Ġhence forth
havi or
\\ [-
^* :
ĠMod ern
) ).$
ore g
than ol
@{ ^{(
Ġ197 0
ĠW ashington
ĠR B
mal ies
Ġ|\ ,
uri ous
Ġencry ption
duc ational
}^{( -
Co de
Ġre called
Ġse ismic
Ġ| .\
ĠK ap
ĠDec ision
N ational
The o
Ġb at
ĠDeta ils
Ġ ~~~
}: =(
Ġad ditivity
AD MM
Ġexhib iting
K E
ĠE mail
â ĨĴ
ĠB ran
Ġcondu cting
Ġhe mis
Ġinsta nti
ĠRo yal
Ġd ust
ol ine
Ġco ast
ĠHas se
om on
ped ia
ĠIndust rial
app ed
Ġso ciety
}_{\ !
ĠK ato
ĠS quare
commu ting
ĊĠĠĠĠ ĉ
)^{ {\
ĠK ee
character ization
inter secting
ĠN ano
Ġaggre gated
Ġ( "
Ġmini max
)$ }.
Ġdestin ation
other mal
pr ise
B al
ult ra
Ġsuscep tible
l cm
Ġsub tract
vi kov
tor ic
B eta
W here
lst listing
Ġgran ts
ĠG B
Ġsub ro
23 2
Ġprom ote
ĠTechn ol
Ġdia betes
Ġ$ &$
ĠFunction al
Ġpic king
C ross
Ġtrivial ization
)\| _\
s H
w b
rup ted
optimal ity
j sd
@/ _
so c
ĠEx periment
{ :}
ss a
)= $
22 9
Ġpipe line
Ġstre ams
Ġtrac ing
Ġqu dit
DFGS DFG
L Z
Ġteach er
ĠRus sia
Ġo range
it le
Ġfavor able
ĠR os
Ġmo ther
lan o
mom ents
Ġter med
ĠC log
&= (
28 5
ĠL G
Ġpenal ized
a j
Ġimmer sions
Et Al
Ġasses sing
Ġcommunic ate
N H
ĠRe idemeister
4 15
AC S
irr or
flu x
Ġsem if
}$ ]
H TML
Ġ\, ,\,
is ometric
Ġde position
Ġsl it
Ġminimal ly
rec tangle
Ġstore s
Ġr k
un lhd
45 6
{ }}
ĠK S
ne ut
10 80
*{ .
B is
bur n
ti ques
Le ftarrow
cus p
Ġexec ute
lin ked
P as
ĠB MO
Ġparame tr
og n
Ġsmooth ed
ĠReg ression
ĠA bel
ĠE lements
titu des
Ġgu idance
:=\ {\
he x
Ġpiv ot
lo aded
use box
ĠI ran
Ġextrac ts
}^ -$
en skip
Ġparen theses
t H
ĠS F
in line
Ġdomin ance
bou x
Ġgala xy
ĠCon cerning
M n
ĠL imit
)& (
bar d
Ġelectro des
oll er
pan sion
A f
cu bes
Ġtransvers ality
Ġd S
with in
ĠMo lecular
trun cated
Ġo u
co y
Ġs hed
)| <
ĠLe vel
Ġattenu ation
y b
Ġco final
Ġro ck
)] _{
Ġmodu lated
ĠRe pres
monot onicity
ĠCN RS
){ };
c ancel
l mm
di an
zu ki
po inted
Ġoper ates
Ġla sso
B m
Ġelimin ating
s C
al ed
_{\ |
Ġchord al
ow en
Ġre actor
Ġ10 4
y tableau
Ã ł
' )+
Ġkine tics
04 7
S n
_- }
Ġcompr ising
Ġcomp rom
Ġpare nts
gen ic
ico de
Ġvic inity
ivi dual
Ġsy mple
^{- {\
ĠG ao
})$ :
I r
fa il
ĠCar l
d L
Ġad vice
ibra ries
Ġsequ ent
ens ored
ex ico
Ġs gn
pp y
parta mento
Ġ${ }^
V R
ur b
Dav id
Ġa qu
ĠK on
par indent
vi ation
Ġparticip ation
{??}} -
lo u
Ġbroad cast
] }|
)| =\
Ġan o
ĠDer iv
Ġrecipro city
Ġc rack
ĠI so
}; {\
T ang
ĠPoincar Ã©
Bound s
ĠChe mical
Ġla test
t xt
Ġ1 26
ĠP erron
Ġlink age
bor ne
r br
co x
Ġspace d
ne tic
ĠAD MM
Estima tes
w ich
_{ ,
Ġperme ability
j r
Ġpick ed
}) )^
_{\ !\
ĠC i
er land
Ġco chain
tr insic
ĠAdvan ces
ĠI BM
Ġisome trically
us ta
Re lation
Ġlear ns
ĠL STM
Ġd um
Ġ1 33
| }(
le sc
math inner
man i
ven ted
se v
Ġevalu ates
Ġmar ine
box ed
6 25
' \\
im i
ĠK err
Ġestima tions
lec tivity
abs or
li k
}: }
ĠÂ ·
Ġqu in
Ġl ith
18 2
ĠFeder al
}} )^{-
ri l
tis ation
Ġpoor ly
cla ssif
}\! \!\
Ġcon gestion
hi er
Ġadap ting
Cha p
}$ },
Ġm il
ĠB ir
ind ices
) )$-
li ve
ĠA rea
Ġc ro
Ġc ere
Ġlay out
Ġpho sph
Ġinvent ory
}}{ |\
\} )$,
temp or
Ġ\{ {\
Ġser ved
the tical
Y an
on gest
}} })$
A a
Ġb la
ĠD ong
Ġ10 7
F ield
; (
ĠC ara
ĠRob erts
Ġex otic
tt t
subf ig
Ġign oring
ĠDe fining
in clusion
ĠT C
ĠG PS
){ .
}^* $-
break ing
Ġhyper parameter
Ġdivis ibility
k fg
19 68
Ġha bi
max im
parti mento
Ġstret ch
Î »
se paration
ĠC ite
Integ ral
b N
ĠEx periments
f ly
inter p
Ġ\\ \\
ne ider
Ġle cture
pira tory
Ġcolor ings
Ġsepara tor
E lect
mber t
Ġ )\\
hlen beck
.~ (
Ġpublic ly
ĠN OT
Ġinsu fficient
dic tion
ĠP ed
CN OT
p olicy
ma nder
ĠR MSE
Ġun necessary
Gal ois
tab colsep
comp ute
ĠR M
Ġval ence
ĠĠĠĠĠĠĠĠĠĠĠĠĠĠĠĠ ĠĠĠĠĠĠĠĠĠĠĠ
umer al
ĠS pectral
ĠD ri
: |
v ine
ex pl
di ble
Ġsh orthand
Ġte s
18 1
mem ory
Ġev olutions
pub lished
no ta
ĠChar les
Redu ction
23 9
Ġenrich ment
Ġhon est
Ġstation arity
K F
ĠH F
Ġcycl ically
}) )=\
Ġ$[ {\
ĠP or
Ġdiffu sive
B x
inde p
2 96
ut ter
Ġpre paring
ĠL eray
)| >
Ġmet als
sur vey
separa ting
A nswer
Ġdiagonal izable
Ġtermin als
at ric
ograph ically
Ġno tably
! !
$ }}}
pres sure
SS S
)! (
ollow s
Ġvib rational
06 4
v ated
Ġpen et
Ġ10 9
J B
T U
ĠA G
}\,\ ,\,
Proper ty
D GHFH
oll ar
AD WERT
FS DFGDF
SF GW
ERT DGHFH
ERT FSDFGDF
Ġstream ing
FGH DFGDF
FGH DFGH
HN RTY
RTY FGHDFGDF
DFGSDFG RTYFGHDFGDF
ADWERT FGHDFGH
SFGW ERTFSDFGDF
ERTDGHFH DFGSDFGRTYFGHDFGDF
HNRTY ERTDGHFHDFGSDFGRTYFGHDFGDF
ADWERTFGHDFGH FGH
SFGWERTFSDFGDF ADWERTFGHDFGHFGH
HNRTYERTDGHFHDFGSDFGRTYFGHDFGDF SFGWERTFSDFGDFADWERTFGHDFGHFGH
s L
ĠA h
Ġinf lamma
'' -
)}. $
ĠL ife
ĠQ D
ĠL ower
ĠTrans actions
24 9
Ġpro lifer
ak ov
Lo S
Ġglu ed
all ia
( (-
Ġeigens paces
}) ]\
Ġacc ounted
ep rt
Ġ{ {{\
Ġsolu ble
}' _{\
H al
' )(
ĠA us
] )}
ĠW en
u its
ange vin
wide bar
ian o
tr ig
js dfg
A da
Ġ\{ (\
Ġ} )$
] }=
}}( |
Ġ16 0
sig jsd
udf sigjsd
kfg jsdfg
eprt udfsigjsd
eprtudfsigjsd kfgjsdfg
05 6
ĠDeter mine
over la
Ġi j
ĠPo land
Ġside band
Ġcapa c
be ing
ig an
ĠOp tics
D ou
sh uffle
Ġfol ding
s pt
ĠOffic e
Ġsu lf
ne x
19 1
osco pic
tikz fig
ĠMathema tica
Ġso cio
P N
ĠInter net
G ri
ĠCont ra
)} ,\\
Ġpre m
Ġp hilosophy
ht bp
Ġcontext ual
S ample
Ġinte lligence
lower bound
scri bed
ĠDe pending
* [
Ġ$\{ |
@{-- >}[
Ġpub lications
W ell
sta tion
Ġresemb les
\ })=
iel ded
ĠA nosov
al though
ĠĠĠĠĠĠĠĠĠĠĠĠĠĠĠĠ ĠĠĠĠĠĠĠĠĠĠ
t to
25 4
statis tics
R b
Ġharmon ics
% ),
ont ally
co variance
Ġcomplem ented
Ġcol on
Au to
Ġs s
Ġinter nally
ey ond
f ro
A rea
), &
Ġpic tures
Sub ject
Ġ\, (
ĠSNP s
ĠJaco b
ĠHoch schild
ĠPre cisely
Ver tex
Ġra infall
u bar
Ġs ter
ro ots
ĠEx ponential
Ġflo ating
ra tes
02 9
Ġsem iring
P eter
Ġquad ruple
mu s
ll ary
)^{ |\
Ġderiv es
Ġdisc ount
25 3
ĠChan ge
is ach
Con stra
Ġch ords
Ġconta min
C ell
dis per
Ġ| _{\
\% )
F inal
Ġ\ )-
Ġorder ings
ure k
Comp uting
Ġde par
Ġa z
la ne
B run
Ġcontain ment
Ġ\(\ {
Ġpayoff s
ĠZ n
Ġab normal
x s
Ġre set
Ġdiver gent
test ing
)| +
ĠF E
Ġads orption
ĠP earson
ĠAc ta
Ġmonth ly
Ġplan s
. '
ĠE vent
cy cl
Ġmicro bial
ĠLang u
ĠK irch
)* +{
ter ior
a veraged
Ġpullback s
* _
c it
ĠX ia
Ġs ca
Ġon going
Ġste el
Ġexceed ing
Ġst oring
: }=
Ġcharacter ised
ve ment
Ġto y
}) ^{(
Ġcoordin ation
Ġs lip
ff ith
Ġparticip ant
ĠB row
Ġsuper positions
08 4
c entered
Set ting
Co st
Ġunde fined
pop ulation
ro mann
B U
_{\ #
ĠF ab
witz erland
k an
Ġper verse
e lements
trac king
i lation
Ġvio lations
), ~
Ġ(\ |
hy po
Ġ$\{ (\
Ġexcur sion
et t
ĠI g
ithme tic
Ġprote cted
Ġdra matically
cha stically
tif ul
ĠCon vex
Ġex ceptions
}}\ {
P op
f v
tre atment
ĠP l
ĠR I
âĪ Ī
s ymb
Ġcon st
ma to
Ġcorresponding ly
ĠDe la
A i
Ġexclu sive
ĠB in
A e
io van
Ġ )+
Ġe mail
Ġtrans versely
Ġnew s
\' {\
+ )
Q T
c here
Ġs ought
ti yah
ĠP PT
ĠS lo
Ġwh ilst
nd t
Ġperturb ative
}_ +(
ĠLang lands
ards on
ĠF ood
@{^{( }->}[
ĠStan ley
ĠTho mpson
Ġalco hol
Ġd an
ĠM ich
Ġcompens ation
K ato
ĠC ong
Ġobser ves
Po st
Ġnon compact
equation s
ĠC are
ie u
ĠB A
Ġgroup ed
ev ol
Ġmis match
Ġis otop
ĠKal man
âĢ Ŀ
D ic
Ġf al
Ġexp ense
ĠV in
B axter
26 7
Ġconstitu ent
ol ov
Ġv ac
ilp ot
}+ |\
raph ic
Ġline width
Ġ{ }\
Ġinv olutive
h x
Ġ{\ ,
25 8
Ġ[ (\
ze k
yl or
T O
Ġla b
Ġstra nd
g onal
v mode
ĠE specially
],[ ],[
Ġv ital
Meth ods
Ġclo pen
Ġdoc uments
Sever al
\! =\!
Ġelliptic ity
su ma
gr p
spa tial
Ġreformula te
ne th
>> }[
Ġmon ograph
Ġstraightforward ly
ig a
Ġpro jec
Ġspir al
Ġ1 37
Ġiso lation
) !\
Ġacc re
Ġmultiple x
ten ing
K al
z t
}| }{
ĠE D
i X
bil inear
st ret
ĠUp date
Ġf ring
ca mp
> (
Le vel
inter nal
H as
Ġfla gs
ver ity
ĠU pon
inver tible
blow up
la k
ur t
}=\ {(
C handra
ĠAr guing
Ġteach ing
} *\
sec ref
text circled
in stance
hard ness
Ġpro hib
Ġdraw s
Ge ometric
Ġan isotropy
Cent er
Ġscal ability
Au thor
I H
ac s
Ġspi ke
11 37
ĠE igen
{ _
ĠC zech
Ġbid der
ĠO cean
Ġdata bases
ĠTe V
o mes
Ġ~ =~
t te
Ġpro xy
un ay
it bf
Ġe fficiencies
the or
Ġco ded
ula tor
ĠCat alan
ri ques
ĠĠĠĠĠĠĠĠĠĠĠĠĠĠĠĠ ĠĠĠĠĠĠĠĠĠ
Ġin jected
ĠRo bust
Ġperipher al
Ġemer ge
G rad
Ġob structions
ut z
^{ <
Ġun balanced
cry stal
ref erence
ĠIn nov
ol in
Ġ1 34
L Y
as z
finite ly
R och
Av g
Ġextra polation
Ġaccomp lish
u h
Ġ\ _
eigen value
) }}(\
u ang
ĠRe lations
Â µ
Ġd og
Y es
expec tation
u ction
cy tes
co very
Co mbin
Ġa ircraft
$ ,\
Ġdiscontinu ities
Ġm it
ĠGP U
}{ #
Ġ0 6
Ġback wards
}_+ $.
N or
ĠS plit
stra nd
he art
Ġdis agree
Z ygmund
ia bly
T G
Ġbi partition
+\ !\
05 4
})= (\
ĠMo de
Ġrenew able
Ġser vers
os eness
f ourier
Ġ\\ &=
ĠL E
Ġprote ct
Po incar
Ġ1 40
ul in
Q W
ĠL am
Ġar tif
$ })
eq s
)) :
Ġ )-
Ġutil izes
ĠS GD
Ġdenomin ators
Ġb ending
ĠS G
ĠR ank
Ċĉ ĊĊ
Ġper ception
Ġconnected ness
ĠRes tric
Ġrec ru
Ġano malies
' )^{-
R os
im u
)} }$.
A ct
extension s
}{\ |\
stack s
go al
ĠKo daira
Co hen
ĠTa i
then tic
C HSH
Ġtra it
19 65
V i
^+ $-
local ization
le tt
ĠRun ge
DF S
27 7
naps ack
Ġlear ner
Inf C
ĠFin ding
Ġreser ve
Ã¡ n
Ġsu cc
ĠMe ch
f x
ik a
N Z
ys on
}' )\
)}, $$
Q G
ilo red
ĠS tone
w ick
ĠP LoS
Ġany more
sff amily
Ġl um
\ }^\
order s
T ak
op timization
Ġpuri f
ĠQ ue
Ġdid n
}\| _\
CL T
ĊĠĠĠĠĠĠĠĠ ĊĠĠĠĠĠĠĠ
19 64
ĠF M
ĠB L
ĠEx press
]\ }$
Ġlip id
a tivity
Ġg al
logarith mic
Ġnon increasing
D t
Spe aker
ĠR ate
theore tical
Ġinten se
Ġm oll
}| +
Be low
Ġ10 2
linear ly
ad ian
) '(
ing ular
T hanks
k wd
Ġdi et
ĠI M
leave vmode
colog y
ex m
sy mm
ĠRe ynolds
ti que
dots m
)) }$
Ġsur vi
Ġcr is
Tra ce
C hang
Ġspecific ity
uer re
Ins titut
ĠF rac
26 0
Ġpuzz le
Ġpa in
}^+ (\
ĠR iver
mpa ign
3 03
Ġsub problems
Ġbrid ges
Ġ$\ #\
ma cro
k G
Wh ite
Ġsub categories
Ġqu en
ĠLag uerre
ĠGeo phys
Ġc our
medi an
ĠE ric
Ġar ity
F ed
Ġn t
ĠG ru
H ome
la v
S tan
Ġma l
Ġexact ness
Ċĉĉ Ġ
Ġensure d
10 90
ar on
}- --
Ġre vised
ĠB F
)] =\
ategor ies
wr itten
q a
ma les
Ġcorrespon dences
Ġd end
Ġinfe ctions
Ġcapt uring
bf u
Ġmetro logy
en za
ĠF eller
index ed
j iang
Ġb ib
ĠA bs
Ġcorre cting
nd on
~$ {
ĠÏ Ħ
sho p
Ġinsu rance
3 15
n stein
2 95
Ġcor ro
ĠT ypically
la ge
Ġ&:= &
Ġbasi cs
H s
Ġat las
[ |\
Ġbottlen eck
ĠP rac
uts ch
^*} (\
cus ing
Ġqu ant
Mathema tical
00 11
psi ze
)| }\
}= $
ĠM em
Ġfram ing
are lli
27 6
Ġrenew al
Ġdecor ated
ĠA le
h in
central ized
ut ch
ĠE F
ĠM art
Ġpush out
}\, $
Ġjo ins
! )
}) &\
Ġmagn itudes
G l
im oto
z s
Ġdecla re
Ġf eder
Ġcon cavity
ĠN LS
ĊĊ ĠĠĊ
Ġbio mark
}) }=\
C luster
itch in
Stu dy
S ie
Ġhand les
os ome
Bound ary
Ġ1 30
Ġ198 9
ĠE V
Ġv iable
ma tics
ĠB ang
op tical
Ġengine ers
ĠScha uder
ent ing
ĠCommun ication
ĠF eng
}\ }_{\
ĠC ut
J ordan
Ġutil ities
}$& $\
mp ing
{??}} _{\
Set Kw
Ġcirc ulant
re ll
Ġs ession
Ġh um
@ <-
L imit
llig ent
ĠM F
rot ter
Ġpermit ted
Ġpa yments
ĠDiv ision
05 7
3 11
Ġdu als
Ġc it
_{\ {|
under tilde
Ġra ises
ro om
ĠExplicit ly
pair ing
Ob viously
25 2
b ern
con centration
Ġra ise
peu tic
Ġmulti scale
un ital
W igner
f ibrations
ff man
\{ |\
ĠF ull
co th
sh rink
Sch wartz
Sem i
Î ³
is ch
27 2
Ġimm ig
{???????? ?}
rotate box
in st
an aly
Ġsynta ctic
fe asible
ĠM SC
as suming
})$ )
Ġamong st
z ione
Ġliter al
ĠAustral ian
3 06
ue z
Ġfail ures
er ial
Ġin acc
Ve ctor
Ġhund red
T K
Ġin take
ĠN et
ĠPo sitive
Ġcol i
RN As
Ġcalcula tes
ĠRes ult
ĠM osco
ti gu
Ġ1 75
Ġresi li
App rox
ĠBS DE
ow ers
ca pa
d M
Pro duct
ĠF rame
ĠJ eff
Ġperiod ically
olda bs
ĠY uan
h old
cy l
Over all
W ol
or ange
ĠP G
Ġp lease
Ġjus tifies
Ġ1 18
ci um
ter y
mo p
Ġbehavior al
Ġstabil izes
ĠTop ology
Ġb al
Ġad hes
t ter
Ġ1 21
pp e
ular ity
Ġ/ (
pack et
Ġimb alance
]+ [
ĠDec omposition
ĠR P
matic a
Ġmer it
VV V
Ġtra ps
d its
per ture
AL G
MS C
ĠSV D
A k
Ġpri mi
ĠG ame
Ġdiff use
al ternating
Ġc ulti
tic ip
S ize
w ig
Ġb a
sy st
re ath
al o
s afe
)\ !\
Ġbe au
Ġshrink age
Ġbifurc ations
p ullback
ĠC ore
Ġsh uffle
Ġauto correlation
Ġinten sive
Ġsu mmer
^- _{\
ĠO PT
26 8
Ġheter o
Ä ĩ
Ġ| ^\
on io
lo id
conju gacy
Ġ\[ {\
Ġre tract
Ġrou tes
ĠCh icago
28 7
Ġwin ding
Ġk illed
Ġmagn eto
SD HNRTYERTDGHFHDFGSDFGRTYFGHDFGDFSFGWERTFSDFGDFADWERTFGHDFGHFGH
ot ti
si tes
ĠF uk
ĠL os
^* }^
)$ }\
ĠH ospital
}^* _{\
Sta ndard
Ġf as
me yer
3 10
ta ken
Ġpo w
ĠS ho
)) }.
Ġ_{ -
Ġ$\ !
si veness
the y
k c
o so
ĠEstima tes
2 14
}} })\
{?? }}(
ĠG la
ĠD B
ning s
J T
romann umeral
iz u
| $\
}] ^{
}] _{\
H ecke
chere l
Ġbos ons
â ģ
fil tration
3 08
ren cy
Ġis os
ĠPro g
Ġinterpo lating
Dec omp
Ġ1 16
Ġme ter
{???????? ?
k ill
ĠWork ing
W R
Ġine vi
Ġ1 14
Ġsemic ontinuity
}). \\
color able
co efficients
Ġpa rac
iv il
b alance
ĠS AT
x shift
Ġthous ands
m il
Ġthrough put
ĊĠĠĠĠĠĠĠĠĠĠĠĠĠĠĠĠ ĠĠĠĠĠĠĠĠĠĠ
] }^
ĠD I
S male
pl er
Ġhexag on
}[ {
5 40
Ġl ibraries
oty pic
}{ }^
Cla ssification
ĠB ochner
dd d
Ġration ality
Ġla tency
] }_{\
^* ({\
Ġ rid
ĠDr infeld
Ġ= =
ĠIn put
li um
unit length
)}. \
25 9
p H
en te
ilb er
Ġintrac table
5 000
mark ov
Ġmetabol ism
Ġuseful ness
insi cally
)\ |^{
Des pite
Ġpre images
Ġhoriz ontally
ĠL A
,\ |
ĠL au
R d
ors es
ex change
Ġ_{ (
}} :=
2 98
ide mi
Ġ($ {\
ĠS ource
ĠB D
ess ment
Ġdec ides
da s
ĠBer keley
Ġfruit ful
100 00
z b
Ġ\ }.$$
i man
7 00
D OI
W atson
ĠR AM
)^{ (\
polar ized
b un
Ġ }{(
ĠHa w
who se
Ġquadra tures
ĠMicro bi
bra id
Ġcent roid
ha d
j d
ĠF W
Ġgrow n
Ġcru de
^* +\
33 0
Ġun imodal
ĠRec ur
( "
Ġepide mi
Ġreg ener
ĠRe presentation
Ġsplitting s
D IF
Ġirre ver
pack age
ĠAcade mic
allia vin
Ġdis junction
K ac
comp e
ĠRes Net
Ġhexag onal
) })}
qu ot
colour ing
)] }
po set
ula tes
Ġconsum ers
on en
Ġsto chastically
olu mbia
Ġ1 19
Ġ\' {
Ġ( =
Y e
f lag
o matic
Ġcon sul
tr uctive
05 2
H ardy
v ie
Ġconver s
Ġintuition istic
j w
m K
Ġexpres sive
28 3
ĠSa mpling
rip ke
Z h
Ġ1 45
app end
ch on
Ġn it
Ġcommit ment
V E
ca usal
{\ !
)( (
ĠN umer
s tima
ĠM aking
Ġpack ages
ĠVari ous
Ġb illiard
}}( (
Equ iv
adia batic
ĠP BS
reg man
ĠAc cess
ĠP ur
A cknowledgements
n ick
Ro bust
^{ '}
B Q
Ġwill ing
ĠÂ §
h v
}} ]$
vi i
Ġcompens ate
$ }^
ĠI sa
33 6
factor ization
ok ker
multiplic ative
Ġn ative
w c
m R
Ġcon finement
ĠJ er
Ġ1 36
k at
$ _\
Ġ??? }-
Ġsto pped
Ġwhe el
techn ical
p sf
po les
Ġma nual
Ġex its
Q N
ĠT hom
)_{ {\
} !
Ġimp a
Ġposterior i
v line
ĠL D
Ġmultiplic ations
th ur
tr al
Ġfactor ing
Non linear
}} '$
Ġub iqu
ĠF C
ĠR R
ĠBound ary
Ġra rely
ple y
R od
_+ }\
ball s
ob jects
ro oted
Ġp lugging
$ ^*$
shif ted
xi ties
font size
Ã ¸
Ġsubstitu ted
: }}
ref ine
Ġtend ency
2 99
U K
ensor ing
Ġ${ }_
\} }$.
ĠDo main
Ġnon smooth
ĠElect ronic
ĠRe lation
istic s
}} }}$
\| .
c ru
Ġpre gn
03 9
ĠR W
Ġnegle ct
Ġiter ating
Ca mp
m cl
Ġmiti gation
ĠFore st
IN T
Te X
ĠS EM
E rr
Ġh at
ĠI wasawa
res sively
23 07
tri p
wa ra
Ġmar tingales
Ġequic ontinuous
)) <
mon ds
Ġnavig ation
io de
Ġz ig
w ill
-\ |
d N
^+ }$
Ġdecomp osing
a R
Ġhelp ed
_+ ,\
ex periments
f ri
Anal og
Imp ro
Hy p
en u
28 9
condition ed
per mutation
mon th
long leftrightarrow
19 66
prec ision
Or th
l um
Ġfe males
hard t
= :
z f
se gment
Ġma les
ĠX Y
ĠL em
you ng
Is om
Ġstabil ize
)& :=
) {{\
Ġ& ~
ĠD FT
Ġin fin
Ġp uts
ĠK ernel
Ġsub word
Ġtransvers ally
Ġsumma ble
ĠGra duate
ĠO N
}}_ +
}} .\]
Ġp ec
B ER
]$ }
ĠRe port
)) |\
ĠO T
05 8
)] _
' }+
Ġ )}{
Ġdum my
Ġw ires
ce v
ĠG overn
Ġquestion na
ĠM ont
un ct
}}{ }
Ġ\, :\,
'' )\
E igen
ot one
ĠH ahn
ĠG NN
angle s
@{ }[
$ ^{***}$\
}^{ |\
Ġasser t
Ġpart ners
ĠEq n
$, }\\
it ory
we b
Ġinv oking
g ger
sk et
\\ &&
fil tered
P AR
A z
\; .
06 5
{ }_{\
ĠM J
ĠL orenz
Ġsuper algebras
30 9
j in
$ },\
Ġto kens
el la
cm csc
mathp al
ĠC Z
Ġg iant
Ġso dium
Sto chastic
Ġpr ism
ĠTa o
ok ed
ĠParame ter
ra ce
S VM
prote in
ac l
Ġincorpor ates
ĠA TL
Ġsupp lement
inter polation
Ġdiv id
ĠD ire
ĠAndre w
Tru e
Ġformal ize
domin ated
oc linic
S up
K an
ĠH R
}| ,
Ġmanip ulations
Ġradi ative
m entioned
ic ol
ll s
l le
Ġ{ }^*
Î ¸
pp ler
Ġsatisf iability
und e
Ġin formal
vec tive
}] }\
28 6
au d
~ .
: }\
B ran
Ġv ibration
b ld
ĠOr th
V D
ti te
\| ,
âĢ ¢
try agin
Ġco ercive
Ġdivisor ial
rup tion
Ġvio lating
2 97
fe i
aa aa
s par
ĠC AS
Ġimp ulse
ch uk
Ġcounter clockwise
Ġ@ >
Ġdisturb ances
iod ic
.... ..
S Z
ĠO k
\, |
Ġw ides
ve k
qu ery
Ġorth o
ĠComplex ity
Ġs wa
_* )$
tru th
Ġabund ant
n us
Ġn erve
Ġh ous
ser s
ĠJ A
Ġwal ker
py thon
triangle lefteq
fil ters
overla pping
)} :=\
Ġta ilored
Ġinfra red
Valu e
Ġm L
Ġdec line
j aco
che z
)\\ [
## ###
\| =\
Ġdef iciency
condition ally
, <
ĠH Ã¶
ĠL DP
le mental
ĠB eta
c ers
Ġfunction ality
)/ (\
28 4
Ġregar ds
bounded ness
iso lated
Ġalloc ations
Ġagric ultural
27 8
Ġ+ (-
k le
hu ang
}| -
DF OR
Down arrow
Ġaccommo date
ĠSol id
A h
Ġdisorder s
Ġre normalized
ĠC ov
Ġacqu ire
N ash
c lic
)| +|
}}+ {\
Ġ{ }^{\
)}) ^{
pr l
D on
Ġa head
Ġw t
la ch
ĠBen jamin
S cho
Ġ ties
fig ref
Ġidentif ications
| }$.
Ġexplo its
[ [\
Algebra ic
}) },\
Ġcomp lications
Ġse verity
Ġdisc ard
ĠP harma
el le
Ġpara bola
lus tered
ĠRepe ating
)= |\
ag i
propa gation
r z
ĠKru ll
ns en
)/ {\
\}\ )
)- $
Ġcost ly
Ġcompr ised
un its
ĠMa p
Ġs alt
ag g
Ġdis charge
Ġtrans action
: &
Ġstri ps
Ġâī ¥
bo dies
ĠD NN
Ġhypered ges
ian i
04 3
P CA
ĠFor tunately
Ġcat aly
Ġind ication
Se ts
Ġecolog ical
ore an
Ġdecou pled
Ġthree folds
ĠJ C
Ġpro mp
Ġstr ongest
ĠFlo quet
ĠPa per
ĠD om
ĠH C
ag li
Re view
ome d
ĠC rossRef
wr iting
Ġ }}_{
)] \\
Ġredund ancy
ou x
unc tive
G old
}$ }$
{( }\
Ġincomp arable
Ġp hi
ĠP hi
em er
mathpal ette
sum s
~ :
poly tope
Ġneighbourho ods
ĠG C
Ġper ceived
Ġc ache
ref lection
Re lative
Ġtruth ful
'\ )
ĠS qu
Ġcosm ological
EN DFOR
Ġsome one
Ġpy ramid
rac ies
princip le
ĠTru e
Ġ* *\
lear n
be fore
Ġse asonal
}[ (\
U l
Ġchamber s
ĠCon struct
ĠE U
s equential
wor thy
Subs tituting
Ġe cc
})\ }$
Ġpost ulate
ĠP H
ĠIn tel
v phi
Ġelectron ics
Ġg l
pend it
ĠS witzerland
cor ol
W illiams
)|\ \
po isson
ĠPre vious
Ã £
Ġconta mination
ĠM LP
26 6
Ġrecommend ations
ĠFu j
ĠA ir
mb ro
step counter
ĠS and
Ġrelax ations
N u
05 3
s j
ide als
in ski
Ġme ters
Ġsin us
in ser
ĠĠĠĠĠĠĠĠĠĠĠĠĠĠĠĠ ĠĠĠĠĠĠĠĠĠĠĠĠ
Ġs tick
pre tty
h orn
ta ylor
}, (\
âĢ ħ
get t
M ix
Ġun ivalent
Ġdel ve
'' +
Ġcontro llers
il t
g H
ts ch
ĠR isk
J R
che mistry
}_{ [\
sch ke
S pectral
ob serv
Ġtrace d
) }}^
ens on
Con st
Approxima tion
prising ly
Ġtrave lling
sign al
lan i
Ġfore casts
ĠProcess es
}), (\
}\, ,\
dv tx
\,\ ,\,
Ġin sec
}} ;\
Ġin con
ĠT w
ci on
High er
Ġtrans lating
Ġpur su
}) &
leq q
Ġ$( {
Ġsome where
Ġconfound ing
Ġreson ators
m D
Ġoverla ps
Ġview ing
| )^{-
Ġin accessible
Ġcontra variant
Ġhydro dynamic
c J
Ġcall ing
ĠM HD
ĠM ary
Comp act
E ll
| }.
ĠG E
t end
Ġ rights
IN E
Ġearth quake
ĠD imension
19 63
Ġdri ves
ĠOut put
che m
ĊĠĠĠĠĠĠĠĠĠĠĠĠĠĠĠĠĠĠĠĠĠĠĠĠĠĠĠĠĠĠĠĠ ĠĠĠĠĠĠĠĠĠĠĠĠĠĠĠĠĠĠĠĠĠĠĠĠĠĠĠĠĠĠĠĠ
Ġanswer ing
Ġ1 32
ĠL L
uch sian
if old
}), (
ĠC AT
Ġphysi ological
br k
Ġ$ <\
Ġde duction
ĠHy dro
|_{ [
ĠOrgan ization
_{ [-
Ġra ising
F ootnote
smooth ing
}^{- }
Ġillustra ting
next char
_+ ^{
Ġ$< $
un ed
25 1
CO N
}= &\
H ur
ĠN ielsen
es p
si o
34 4
ori entation
Ġvot er
Ar g
Ġt ending
Ġre phra
Ġinterpre ting
ĠLa x
i E
or is
Ġin exact
lift ing
Ġrepro duced
spect ra
ulo se
n A
na b
& |
u o
}}\ ),
ĠBo ston
dis cussion
P t
ha mma
}^{ [\
a ver
ĠLe wis
)}+\ |
if nextchar
ĠBer ry
Ġ* }\
su mma
Ġretrie ve
imp licit
Ġpi lot
O l
ĠI F
Car tier
ĠSymp osium
J iang
Ġtun able
is ers
ĠRob in
deriv atives
Ġ< =
sp line
ĠÎ µ
fra med
Y ama
diff e
re verse
Ġre vival
stu died
99 8
Ġgroup ing
Ï ĥ
ĠA E
34 7
ĠS yl
Ġconf lu
Comp aring
Ġle s
recur sive
}= (-
&\ !
End If
Ġfri ends
Ġcont ours
Ġv apor
Ġintr insically
Inter national
. {
ĠEth io
dd r
ĠĊĉĉ Ċĉ
ĠUniver se
26 9
Ġtrac ks
ĠJ ay
i B
$- {\
ca pacity
}) }{(
Ġsub jective
S imp
Ġmo ist
am y
ĠAs ymptotic
ĠGe V
mit t
ĠD ual
Ġso cle
Ġsetup s
il enberg
cite year
im s
ĠU pper
ĠO P
\, =\,
sign ed
Pub lished
2 94
ĠTra ining
Ġcomp art
ĠDav is
Ġ ted
Ġcomp ress
Ġcent rality
35 7
Tag s
}' }\
Ġbuy ers
ĠBri tish
Ġsound ness
ers hip
Ġtechn ological
| )$.
Ġemerg ed
âĢ İ
}\ ,\,\
co ef
Ġprogram me
{ ``
Ġs ky
ĠRo y
Ġcollap sing
si zes
33 5
S hen
ĠCombin ed
u y
D w
si mula
Ġgad gets
ĠBib code
ĠS olar
{ --
h j
ĠCon stant
35 5
Ġen large
Ġlogarith ms
ÃŃ a
Ġdete cts
under accent
) *\
Ġ198 7
Ġra dar
cccc ccc
Ġhypo thetical
Other wise
Ġwhere in
ak h
Ġj u
{}{ }{
Ġre plication
ĠZ FC
\ ;\;\
k it
Ġwhere by
Ġout lier
Ġconstant ly
34 8
ĠM ou
ĠDis tance
Ġslo ts
\% .
ĠBru hat
ĠB ull
Sch ur
to v
' }_{\
ĠG O
at al
y ellow
Ġwell s
t ta
)}\ )
el er
ces sion
Ġ$$ \{
its hape
Ġfall ing
beha ved
point wise
Ġparticipa te
)) <\
Ġsp ite
ĊĠĠĠĠĠĠĠĠĠĠĠĠĠĠĠĠ ĠĠĠĠĠĠĠĠĠĠĠĠĠĠĠ
ĠO l
Ġpron ounced
04 2
Ġuniver sity
do c
di al
ĠCo oper
loop s
) '$
Ġp df
mb s
ĠN H
cal O
m T
ĠBio informatics
' }|
pp o
ĠRic cati
ĠPas sing
ĠB ay
Ġhom ogenous
Ġquanti tatively
ent er
Ġintertw ining
ĠU sually
ĠMet ric
id ney
po sitivity
Ġfro zen
}' =\
ta xis
are r
m ings
Ġclo sing
Pre liminary
'' }\
Pro d
h ss
)] (
Ġ0 4
M AP
mb a
Ġal tered
' ^{-
un icode
Ġup take
ST R
w x
W itt
Ġstrength en
Ġ198 8
ĠG N
r ity
Ġprov able
ada ys
Ġcounter factual
Ġ$( [
27 3
Ġcar ds
48 6
ĠSur face
Ġfundament ally
8 75
ĠN M
el son
hy pothesis
24 2
pr ints
Î Ķ
prov ided
math larger
Ġprecondition er
ĠC ru
E ng
big circ
ĠH ome
st op
Ġinf ectious
Ġ8 00
)} [\
C all
]$ :
Ġwin ner
ĠChern off
D NA
mb ing
" {
Ġclu b
ĠN aka
Ġra ce
28 1
row color
b vec
K V
ĠZ ero
Ġvacc ine
c lear
Or gan
Ġemer ges
fin d
Ġsp urious
formula s
Ġacc ident
ob ner
u gh
mu lants
Ġh ub
app lication
ĠATL AS
Ġv ote
ĠComp u
b ia
ĠEn tanglement
Ġintr igu
Ġcomp osites
Ġpres heaf
44 4
bb er
z is
ĠG ran
Ġimperfe ctions
it man
Ġde bt
mes tic
ec m
us hed
ĠDete ction
], $$
33 1
per mu
}= |
34 6
or ac
Ġde ple
ĠMathema tik
Ġmem ories
Ġantic hain
Ġenc od
pand ing
Ġcer tainty
03 1
En tanglement
ĠH ung
Ġacces sibility
Parame ter
m odes
)_{ [
+ -
H int
Ġquantif ies
dyna mical
ut y
stead y
Ġ !}
ĠS ar
W C
E PR
f ive
ex pres
frame box
Ġmorph ology
S s
{( {\
sor ted
Ġsaving s
Ġwa it
Ġc rop
3 13
R osen
ĠRedu ction
ran es
}$. )
ĠS ymbol
ab b
ĠMet rop
ĠChris tian
g z
Ġbeau tiful
ser ver
ĠH D
hilosoph ical
Ġz o
re ac
Ġstress es
ĠTex as
tun ing
Ġpseudo convex
Ġste re
vis or
- (-
s sup
ĠA ng
Ġla x
Ġbi harmonic
$\\ \
}_+ }
ĠA z
ok es
i ke
ĠL asso
Ġoper ads
|}{ }
corre ction
Ġser ial
Ġstabil izing
ĠRob inson
be am
Ġoper ated
ĠTechn ologies
Eff ect
ĠAll en
K Z
dete ction
resol ved
Ġresidu ally
N OT
Ġo pacity
; -
Ġdemand ing
K l
{ ^{\
Sel f
ce eded
Ġt ors
}^{- }\
te lli
B all
u tion
Ġfor ma
Ġindust ries
D U
cri bed
{ }^{\
ĠB ian
Ġpec uli
Ġsho cks
)} =(
Ġam or
29 3
spha te
Ġfin itary
olev o
th r
Ġtetra hedra
}| (
ar iance
Ġsub interval
ĠCom mon
ĠSome times
&+ &
Ġy ielded
Ġsub intervals
ĠRe LU
me asures
Ġz er
Ġconcord ance
* },
ĠT A
Ġ& >
Ġinitial ize
ĠLa bel
P redic
re h
\}. \
**** ****
Z F
}) +(
Ġtrade off
m h
34 3
inde pendence
Lear ning
co q
W E
ou d
ĠÎ¼ m
Ġex ha
Ġpor ts
R ao
Ġund es
Ġde duces
ĠMR I
T au
Ġpart ner
)| |\
ĠJa va
ĠK as
B ayesian
ĠB ott
ĠAus lander
arc sin
ĠĠĠĠĠĠĠĠĠĠĠĠĠĠĠĠĠĠĠĠĠĠĠĠĠĠĠĠĠĠĠĠĠĠĠĠĠĠĠĠĠĠĠĠĠĠĠĠĠĠĠĠĠĠĠĠĠĠĠĠĠĠĠĠĠĠĠĠĠĠĠĠĠĠĠĠĠĠĠĠĠĠĠĠĠĠĠĠĠĠĠĠĠĠĠĠĠĠĠĠĠĠĠĠĠĠĠĠĠĠĠĠĠĠĠĠĠĠĠĠĠĠĠĠĠĠĠĠ ĠĠĠĠĠĠĠĠĠĠĠĠĠĠĠĠĠĠĠĠĠĠĠĠĠĠĠĠĠĠĠĠĠĠĠĠĠĠĠĠĠĠĠĠĠĠĠĠĠĠĠĠĠĠĠĠĠĠĠĠĠĠĠĠĠĠĠĠĠĠĠĠĠĠĠĠĠĠĠĠĠĠĠĠĠĠĠĠĠĠĠĠĠĠĠĠĠĠĠĠĠĠĠĠĠĠĠĠĠĠĠĠĠĠĠĠĠĠĠĠĠĠĠĠĠĠĠĠ
T Q
}(\ |
rou ble
Ġn ur
ĠS ze
Ġadvantage ous
Ġted ious
un o
Ġdeter ior
}; \\
PS P
te le
& *
ĠCol labor
j v
im g
abs olute
Ġtree width
O per
Ġqu er
Ġphra se
me z
\{\ |
Ġsl ide
ĠPac ific
45 5
_{+ ,
Ġ .}
Ġ\| (\
ĠSte fan
ĠMosco w
Ġdim er
Ġundergo es
DE R
Ġpres cription
po v
a sion
Deter min
33 8
p atch
Con stant
27 4
isach ar
ĠComp rehensive
ĠE ssential
no ck
Ġdescri pt
ag ing
:= [
)! }{(
Ġeu clidean
ĠA cknowledgements
ĠĊ ĠĠĠĠĠĠĠĠĠĠĠĠĠĠĠ
Mo ore
M ult
ĠF S
$\ %
ĠV ery
ĠĊĊĊ ĊĊ
L as
Ġl c
ĠWhere as
Ġarri ving
Ġw ra
ĠBe ing
ĠSel mer
Ġc lustered
Ġre tained
Ġsemi direct
Ġ~ |~
m w
Ġwidth s
ĠE dge
C ategory
$ },\\
Ġaccompan ied
Ġrefrac tive
con cat
Ġc ot
48 5
le ctor
Ġtes sel
ĠPar ticularly
W Z
Ġmo tives
w ind
= +\
Ġp ad
all is
Ex plicit
pres cript
........ ........
$$ (
ĠFix ed
& ~
Ġpo oling
z one
lay ers
ho sh
Su bsection
trans formation
Con cluding
S ys
ĠJ P
ĠÏ ģ
Ġdra g
ĠC SP
posit ory
ĠStu dent
y t
is ot
@{- >>}[
po sterior
Ġgra nd
ĠC ount
Ġepis temic
}}$ :
Ġpush forward
complex es
loy ment
de mo
Ġ0 00
ĠQu asi
C os
ak u
}} )\\
Ġcomm ensu
Des ign
Ġdri vers
dri ft
i tations
ar ched
un ic
Ġun satisf
Ġeven ly
tio xid
q v
27 9
Ġgu ided
F isher
i id
05 9
ĠTop ological
un stable
3 19
P Z
ti um
ĠWhite head
ut orial
ga uge
lic ity
Ġpha ntom
D irect
ĠC LT
e us
Ġ$( (\
Ġmanu ally
[\ ,
Ġsha ped
Ġquantif ying
Ġdro pping
co in
Ġmeth ylation
Ġau thentic
S ketch
),\ ,\
_- )
Ġf ly
Ġsor ts
Ġb r
dow s
. +
A Z
+\ ,\
Ġ&& -\
Ġsket ched
Ġ198 4
Ġhyper fine
Comp utational
Ġanalytic ity
A re
S table
Ġr ice
06 8
T Y
)^{ [
Ġattach ment
Ġstrength ening
do es
Ġflat ness
ĠStre et
ĠP F
Ġprom ise
s X
ta king
ĠFlu id
h re
Ġ eqn
ves ter
Ġimp ort
make at
comp atibility
Ġsubmit ted
Ġcon ce
ta x
Ġ&& &&&&
\ ))
Ġion ization
ĠN u
Ġdepolar izing
U hlenbeck
& \,
M ur
] <\
Ġre ada
Ġ1 24
off man
t B
xi a
38 5
ĠAg ency
Ġre pair
e eqn
Ġkine matic
Ġqu trit
Ġwor lds
la i
)$ '
ĠK KT
ĠD O
Cont inuous
H odge
Ġpul s
Ġt iny
Ġbur st
in p
ĠS DEs
Ġ ridge
06 7
Dec omposition
ĠWhit taker
Ġex changes
Ġ'' '
ĠT ab
Ġretur ning
Ġillustra tive
ĠFran cis
$ ,\\
s sed
Ġprepara tions
D g
}} }+\
Bes ides
ĠC untz
Consider ing
ĠM N
per son
Ġorgan isms
it ous
ĠJo han
Ġn ilpot
ĠK eller
row s
Ġ: \,
Ġ? }}\
Ġ$ -(
x w
R ule
ĠGe org
Ġclo uds
Ġacceler ate
Ġpermu ting
ĠI o
Ġdepar ture
^{( {\
ĠDen sity
' }-
Ġrecommend ation
Ġlo sing
26 3
Ġen closed
^* }}
{ }^\
Ġp ore
flow s
Ġdeath s
tr unc
ĠPo ints
^* |
sen sitivity
Ġex pendit
P in
li o
Ġtun e
M H
M is
se k
Ġliter als
Ġiso late
ĠPe ople
Ġbill ion
n N
Ġmerg ed
ib ly
}}- {\
ĠK at
an es
Ġover fitting
cy linder
}_+ ,
35 6
ĠC PT
T Z
Ġemploy ment
conne ct
ĠCha p
ĠAfric an
ĠD al
inz burg
c raft
d Y
ĠL ay
ĠCor ollaries
Ġfas test
pretty ref
Ġ198 6
ialgebra ic
ĠR em
Sh ort
end xy
}, [
] )=\
07 8
Ġd iode
Ġirradi ation
L ab
que ous
ĠD ing
por ting
ir ds
ĠR O
Ġinterpre table
ĊĉĊĉ ĊĉĊ
Ġbid ders
ĠÂ ©
Ġhund reds
og ram
Ġres tar
Ġmagne tization
number s
Ġseem ingly
ĠJ oint
K ernel
ĠĠĠ ĊĠ
\% }
Ġnoise less
x L
is tered
du led
&& \\
Ġempha sized
pro ps
ĠIn st
C SP
\| }
Ġsu fficiency
ĠSoft ware
E ar
Ġa mp
Ġin tric
M AT
ĠSe lection
Ġcon sumed
ĠV en
ft wo
ĠG CN
)} |^
97 5
Ġ$[ -\
Ġunambigu ous
Ġcon ics
48 0
Ġcooper ation
Ġwarp ed
secon do
ĠLu o
us a
4 14
Ġconver ting
sta nts
Ġfactor isation
Ġhospit ality
son ic
k N
ĠBan k
ĠP in
Th er
ĠC er
ĠF ur
asi bility
Wor ld
08 8
34 0
ĠT H
' }^\
}{ !}{
str ings
via ted
cal A
s ymme
ĠF al
}[ |
ĠS Y
}} ~
ĠÃ ¢
on eda
ĠDifferenti ating
Th ird
Ġco pper
ham iltonian
ĠBell man
LT L
Ġgeneral ise
w v
om ers
Ġend o
ĠDic ke
ĠCo de
mi um
ĠT W
lin eno
Ð »
se val
cl ip
Ġ198 5
Re ceived
deg rees
Ġinj ury
)\ \\
Al pha
respec tive
=\ !\
T re
medi ated
Ġ$ :
)^ -
Ġta g
ĠPro te
ĠCo st
. ]{
Ġ$| $
Ġmanif est
s tics
ĠD W
con tr
Ġra ting
Ġau dio
ĠG reek
Ġcomple xities
Ġdepth s
ĠCa o
Ġspectro meter
ri fu
Ġconveni ently
37 6
Ġconstitu ents
W in
'' ,\
pack ing
No tations
c lean
ĠPro bab
Ġ|\ {
}) )^{
b ara
36 8
sto ch
sto ck
ĠK h
Ġb en
ĠInves ti
ore ma
ta kes
ĠL U
ne ction
A CC
k im
Ã£ o
Ġed itor
3 04
Ġdevelo ps
cy an
Ġwal king
uris ub
Q I
p odal
Ġfeed ing
] ^{(
ĠW estern
ogen esis
Ġc s
Ġexplo sion
' ))\
fore st
ĠM U
}}\ ).
]$ )
Ġint end
G m
or ok
the w
irc le
_- $,
PO VM
IT Y
y r
Ġ196 0
ĠA bd
ĠR ud
Un iqueness
enc oder
Ġ... \
AMP LE
acy clic
velo city
Ġco domain
ij n
ri me
Ġin efficient
co le
P X
Ġimpro per
ĠPer haps
si le
Ġpal ind
math version
}$ }_
ĠS at
fin es
ĠÏ ī
Ġsubs hift
Ġdan ger
Cr it
ex perimental
&& &
Un ary
Ġa po
ĠM atter
tane ously
cknowledge ment
q m
^* .
&\ |\
Ġparalle logram
L ar
o st
ib ull
}}) _{\
ĠT esting
Lie b
Ġprede cessor
ĠK ara
B d
B essel
Ġad verse
ĠStru ctures
Ġcofib ration
}} }({\
\| <\
99 5
ĠUr ban
ĠMell in
a ware
H ub
ĠK ripke
Ġbig gest
Ġvor tices
man s
anti tative
ĠCom m
d Z
Ġprof essor
simp lices
cite s
Ġinver ting
^{*} _{\
N r
hy brid
af ety
for ces
.. .$
{$ '$}
Ġformal ized
statis tical
min ar
ta d
ĊĠĠĠĠĠĠĠĠĠĠĠĠĠĠĠĠ ĠĠĠĠĠĠĠĠĠĠĠĠ
Ġ\! \!\!\!\!
absor bing
ĠK och
le ast
he aves
Ġtigh ter
inter action
}} }}{
Ġampl ified
ĠPla nt
ĠG il
ĠR ow
ĠParame ters
ĠA cknowled
Ġdo ses
},\ {
fib ration
Ġsemin orm
urisub harmonic
ĠS B
^* ),
ĠAl g
e pi
er tion
ĠT N
^- }\
08 5
F actor
tran sla
Ġch ir
Ġrear ranging
Land au
Ġun perturbed
}}( [
Ġe ducational
' \,
ĠSh ort
> _{
Ġ ),\
ĠB IC
sm ile
$&$ [
ĠImportant ly
nd a
ĠT s
hand les
Ġin ert
ĠâĪ Ī
Ġpro jectively
s de
Ġcrypto graphic
Ġden o
} ''$
su rf
Hor odecki
; .
w rap
ĠAust ria
Ġdra stically
Ġecc entric
Ġfib rant
re ach
Ġsymme trical
ĠM ix
^{- }$
lies t
ĠH ou
}$ _
the refore
33 7
ĠNewton ian
os cale
Ġg aus
^{* }$.
polynomial s
ĠCon way
Ġbi omedical
Ġquanti les
wel ve
tors or
Co mplete
ĠP au
paren cy
g ly
ĠP otential
Pol ynomial
| )^{\
ĠW ay
Ġmult inomial
Ġho c
ĠRo ss
D yn
he avy
Ġh olog
)| -
war m
Au g
Ġdiagonal ization
Ġequ ity
nu th
h ull
Ġas sure
g cl
ĠS m
Ġst range
Ġk Hz
Ġsub path
sc u
Ġtime like
Å ¡
Ġ+ \|
Ġintrigu ing
}} ),\
Ġinherent ly
swit ch
ĠR ing
ĠNuc le
Ġreal ised
ĠL angevin
)| }{\
T ensor
ĠT X
rom o
Ġcon d
Ġcrucial ly
arrow vert
)), $$
Ġfol iated
}) ^{-\
Ġrobo ts
Ġphysic ists
Ġin set
bd ry
stra t
âī ¥
config uration
ĠN ico
ĠB os
Ġde coy
b rown
Ġtrans mon
ma sh
] [\
j unctive
Ġcon cise
uri ties
3 16
Ent ropy
Ġly mp
Ġa perture
Ġpseu d
ĠA V
Ġconstra in
Ġal beit
Ġafter wards
ĠOp tim
Ġpun ctures
Ġsynthes ized
Ga m
arch y
Ġspect rally
Ġinf erences
Ġsubro utine
ĠCo mplete
Ġed it
Ġcentral ized
ĠInitial ly
ĠM eyer
comple tion
Ġex changing
sc ious
C how
S l
Ġrecover ing
is able
Ġgra d
ĠP seudo
u set
th ag
ps is
ĠD raw
sc at
ho o
First ly
Ġcomp ose
4 01
mon ad
Ġf l
Ġp u
ris on
iz a
Ġdistribu te
ov l
compu table
ĠĊĠĠĠĠ ĊĠĠĠ
ĠPub lications
Ġ$ &
Ex periments
Ġal g
\} }$,
ĠA NO
ex periment
Ġs ig
as sume
ĠOper ations
Ġsubse m
ER C
comp ac
}^* )$
ĠDar boux
Ġlic ense
S ob
autom orphism
ic he
Ġ* \
ĠE ur
ff ler
Ġself adjoint
^+ )\
{$ (\
Ġground water
Ġstabil iser
Graph s
Mic hael
Ġ0 2
Ġout break
ĠPri or
b asi
^+ =
)}( -
] /\
Ġinten tion
Che ck
P lot
as m
gra nd
p leq
Ġdes ingular
ĠClass q
(- (
ga my
Ġschool s
cm c
) ?
Ġinstitu tions
z nets
Ġ tic
Ġcha pters
)}\ }$
$ )]
ĠBi otechn
E lse
Ġ1 22
Ġcertific ate
Ġsec ant
99 6
04 1
K H
nand ez
m H
ex pected
}' =
Ġele vation
ĠB aker
w y
_- $.
bla tion
ĠA tiyah
ĠM Z
}^{- }(
ph one
Ġpolym ers
ĠT T
Ġdevi ate
Ġmana ged
We ighted
Ġto wers
Ġnormal isation
perturb ation
ti tem
iv as
var iances
Mu kai
= {(
;\ ,\
ru les
r A
ul ic
)^{- (
Ġcontain er
ra dical
de macher
W o
Ġgener ations
C ard
ĠB lo
Ġe thanol
L ength
f usion
irc ase
rame tric
Ġtransduc er
ĠT su
gend re
Ġquasi conformal
Estima tion
ĠB ot
has hi
ms f
Ġ\! +\!
mmari zing
3 22
Ġd A
ĠT B
che ll
i C
ĠEp idemi
10 93
ly sis
local ized
ĠRe la
ĠK au
col lection
ov ascular
Ġf ung
di e
ĠG IT
}] ^{\
\} ;
ĠChe ck
Ġti e
Ġsafe ly
Ġinstrument al
ĠGovern ment
' )]
ĠA bb
Ġcompens ated
Ġprolifer ation
11 00
)}) =\
}& {\
adj usted
} "]
ĠB G
trac ting
Ġpath wise
margin al
IEEE eqnarray
Ġhospit als
ĠT al
ert urb
Ġsubsta nce
Pro c
Ġsupp lied
Ġvisual ized
ĠU N
j us
P l
til ting
ĠInteg ration
\}$ )
Ġsymme trization
Ġ> >
35 4
r sf
la sh
06 6
ĠP hoto
po sal
Ġad vection
Ġ Ã©
ĠSch o
Ġo ct
Ġrepe ater
Ġorigin ating
f ic
Ġfra gmentation
ĠS hu
K utta
Ġteles co
comp uting
flu ence
en oid
ta tivity
ĠP B
Ġforget ting
m X
Ġexemp l
ĠP SL
orov ich
ĠW o
)) ,\\
Ġla c
bur gh
Ġexchange able
tempor ary
Ã¼ r
05 1
% ).
Ġbu ck
re ed
Ġcontinu ing
ĠValu es
R at
ho ts
Ġhe ap
Ġlower ing
ĠH A
Ġan cient
})\ ]
a ps
Ġreservoir s
Ġfli pping
Ġphylog enetic
Ġlif es
ĉĉĉĉ ĉ
ĠInde pendent
ĠE vans
Ġcompe tit
ĠOr nstein
] },\
36 7
E valuation
Ġcon ting
sta ted
man tics
Wil son
lineno math
que z
Ġbeams plit
ĠAt lan
07 6
ik ov
ĠA daptive
Ġexplan atory
Ġphra ses
R ing
h ari
Ġstro ke
Ġsub optimal
{+ }\
B Y
B lack
om i
oreg ressive
Rec ur
stro phic
ĠSec urity
\}\ ]
Ġpolar izations
b ac
Ġ1 38
ĠGa mes
cap su
{? }\
Ġp s
bin omial
ĠS K
Ġ )}{\
^{ }_{
Ġco ins
ĠP ala
Ġenumer ated
Ġs ym
M icro
shif ts
Ġ5 12
ĠQA OA
Ġnice ly
h w
d dagger
,\ |\
Ġprem ise
Ben nett
arith metic
Ġpro bing
Ġ2 40
Ġ}}{ {
over view
Ġpur sue
Ġelectro static
ĠSing h
Ġs ymp
ta ch
Ġinter view
Ġinver tibility
H ill
36 4
07 1
di ame
z ak
Ġstrength ened
ĠP U
F ore
ve p
Ġdesign ated
Ġ$\{ -
ma k
}) &=
co b
ĠM organ
ee man
ĠMat lab
Ġ`` \
Ġen tail
Ġbehaviour s
sq subset
long table
Ġsurvi ve
ĠD FS
Ġblock ed
Ġri ver
q ty
Ġ- {
Ġpre order
Ġsee king
|\!|\!|}|\! |\!|
Ġc d
Ġas ynchronous
Ġinequ ivalent
Ġquatern ions
.$ \\
E CT
]_- {
ĊĠĠĠ ĊĠĠ
)}_{ (
har onov
ĠP ET
)] ^{\
Ġshe ets
ĠPOVM s
Ġencomp as
ĠDe v
b auer
Ġ1 39
Ġe mula
ĠT im
ige on
en hanced
ĠU RL
ĠM umford
ĠM alliavin
Ġ??? }^{\
Ġwides pread
}) )\\
ĠM IT
Ġsy zy
}_{+ }$
}& &\
ĠA ns
be th
NA L
G orenstein
)}. \]
ĠChris to
Ġorbit als
ĠDig ital
dis cipl
ĠRes pon
Pa ir
ĠNo tably
S han
` \
Ġqu dits
Ġti ll
s N
st ri
ĊĠ ĉĉ
Ġra t
ĠJ r
Ġcons isted
}} }+
ĠAr ch
Ġassis tance
ĠS ak
with limits
)} }$,
U r
s ort
n P
Ġmicro scope
A belian
Ġbreak down
Ġequ ilateral
Ġres piratory
operatorname withlimits
}' }$
_* {\
ĠC ro
Ġswa ps
R iesz
In verse
}) :\
Ġrespon d
matro id
$ [
F lu
i mb
Ġco ating
im in
pro ve
in finity
ĠL HC
nes ted
l arged
omin o
Ġtang ency
ien na
s T
om ical
ca bular
Ġra ts
Ġau ctions
Ġconduc tance
A y
Ġd ial
Ġ\, }
dis tin
Ġw age
ĠPlan cherel
con es
cri be
}] +
Ġmulti level
Ġmedi ated
ht b
Com m
Ġsub cases
Ġ15 5
ĠSte ps
ã Ģ
ĠT rac
State ment
duc tivity
inter acting
07 2
Ġcar riers
ato ire
Ġde ck
}[ $\
D ig
a ys
eqn ref
Ġsynchron ous
H ir
bin ding
' }}$
E I
bru ch
Ġat titude
Ġk lt
ĠSe a
A lice
var Psi
Ġis otope
Ġbe d
De g
syn thesis
ĠMate matica
Ġte ams
Ġpul sed
pro file
ĠM g
Ġn ight
ĠSpa tial
^*} {\
ĠPub lishing
ĠM H
Ġl en
b U
Ġres ampling
o ss
Ġde pression
Ġposition ing
A nt
idel berg
Bern oulli
Ġf asc
p us
z hu
nd ash
ĠBet ween
lear row
Ġtrac ial
Ġclo cks
Ġp ants
ĠR OC
limin ation
H ada
Ġo uts
3 25
ĠCha in
Ġloc ate
\% $.
33 2
Ġbu cket
ĠSc enario
ator ies
Ġca ta
S quare
^{** }$
ĠW is
Ġcon tigu
Ġlay ered
Å Ĥ
Ch ern
Ġwork er
ĠC ases
And re
Ġpolaris ation
ĠLangu age
Ġunob served
re ier
ho e
ĠIt al
ometric s
ref lexive
ĠB ab
ĠIn finite
ĠMo on
Ġillumin ation
a dequ
Ġrepeat s
3 24
S how
colon equals
ny i
ab out
08 0
j q
ĠPet ri
ĠB and
i P
minim ize
Ġbubble s
ĠĊ Ċĉ
he lp
ĠF on
Ġun usual
mo id
^{* }_
g v
ĠBus iness
V la
Ġcor ona
}] \\
ĠSem i
zz a
ĠIn v
Ġca mpaign
H older
Ġcal cium
ac hed
_{- }$
ĠEthio pia
Ġs now
Ġd q
Ġtarget ing
> _
ĠG as
ĠB est
Ġminu te
Ja mes
Ġthera peutic
th ro
}_{+ }^{
3 14
Ġlook ed
Ġdeli vered
Ġconden sed
ĠM G
id ation
. $}
ĠRe ad
Ġdis counted
ĠMe V
sim on
onal dson
f ct
os is
Ġblow s
Ġvis iting
AA A
il lance
as semb
S X
sol ve
ĠCom mit
Dis c
Ġs lab
Ġt rouble
ĠBound ed
Ġhypered ge
Ġdescrip tive
Ġnum bered
Ġcontext uality
ĠA part
Ġqu ote
ĠâĢ ľ
Ġ$ _
on layer
pgf onlayer
ĠM ak
_{+ }^{
B J
$: }
Ġreplic ates
! }{(
)}) ^{-
3 05
Ġf ila
um ented
sign aling
ĠPub lished
})= -
L K
ard t
Ġreser ved
G Y
secondo ftwo
var triangle
Ġqu ark
}& {
Min imal
Ġdi etary
Ġpe bble
N etwork
P eng
}} )-
'' }$
}] ,\
hol ders
rg odic
ĠD ol
ĠP ati
Ġmod alities
Sci ence
ĠC ertain
Ġme l
ST IX
c ardin
ĠAl bert
de mand
Ċĉĉĉ ĉĉĉĉĉĉĉĉ
Ġstru ct
k Q
ĠEn riques
ĠOperator s
ĠK ol
ĠHe at
Ġsix th
g ens
ma gne
connec tivity
Ġrela y
Last ly
Sol ving
Met ric
âĤ ¬
ag ner
}} ^+
co vers
PR OP
)\, ,\
year s
Ġhom otop
ha mel
)$ },
)< +\
ĠStar t
E mb
Ġ5 000
Y a
Ġelimin ates
mon ic
atom s
Ġindirect ly
co efficient
101 7
Ġâ Ħ
Ġ texts
)| =|
l iance
Ġw inter
x g
KK T
se x
ĠH of
Ġdiff ering
Ġtor que
S as
}}= (\
ĠM exico
Ġmo tive
ĠA DS
ch romatic
Ġle gi
remark s
functor s
Ġ$ ^*$
Ġamalga mation
n H
ffith s
Ġsu ble
ĠPar ticle
xx xx
Ġby pass
ul is
26 1
ĠContinu ing
dot p
Ġcol lege
No de
b ang
Den sity
tre ated
3 23
J A
Ġ1 48
na be
ĠRod rig
De ep
ra ther
nor me
ĠĊ ĠĠĠĠĠĠĠĠĠĠ
Ġtrig gered
H OL
Ġmet allic
B our
ĠK ine
Ill ustration
D ar
ĠPar allel
I Z
Ġ` $
K ol
p j
D ouble
Ġ ^{-\
ĠANO VA
Ġcomple tions
F ixed
w art
Ġ\, +\,
pla te
mic rob
Ġd k
d int
Ġc ensoring
Whit ney
ale z
j ima
Ġadmin istration
Ġdifferential ly
Al most
Ġemit ter
$ )-
Ġt ro
Ġqu andle
Ġround ed
Ġpend ulum
M ass
Ġcharacter ise
b V
ĠMa h
ĠC K
SE T
~~ ~\
Ġe psilon
ome trically
2 19
ma gn
ĠT utte
qu er
ĠPon tryagin
ma na
Ġp es
Ġrevis it
T itle
ĠC MC
ĠD ouble
reg ret
Al go
ie v
Regular ity
Ġsuff ers
Ġmis sion
Ġdisplace d
) '\
/ $
ĠSwed en
in stead
ĠO rd
circ learrow
ĠProv ince
H ong
cep ted
Ġsem ialgebraic
enc oding
thag orean
Ġnovel ty
j y
Lag rangian
Ġw ent
ĠSe gre
Up date
li ver
upper bound
ĠS ize
ps y
99 7
Ġobserv ability
Ġteles cope
Ġm iles
ĠMas lov
ĠD ay
ĠN L
Ġabst rac
Ġsur plus
ar chimedean
Ġm RNA
ok h
)= +\
R f
typ ical
ra ms
tran sport
Ġal titude
34 9
I to
d T
n nm
,\ {\
Ġver b
Ġrespon dents
ĠPop ulation
}) })
D uring
Ġbroad ly
$$\ |\
Ġhash ing
\ }},
if olds
}_{ |\
ĠK un
) }}_{
sp c
Ġspecial ize
ĠGu ang
. }$
d E
cus pidal
R ange
Ġthere of
iso de
J H
ĠR atio
cc l
es tabl
Ġdistinguish es
ĠSing ular
Ġ= $
ĠS in
nu cle
CO MM
Ġconv olutions
Ġpre dominant
la c
ĠOr igin
90 9
|}{ $\
Ġexc iting
ĠInnov ation
ser tation
s ca
ch art
Ġ??? }({\
es cu
M K
when ever
fig uration
\ :\
! }{\
ĠP lot
Re lations
ĠPro tocol
ĠChe valley
Ġadjust ments
ur in
Ġpo s
Ġmod est
mod uli
)}$ }
] #
07 4
re main
Ġbe aring
Ġmonit ored
usu ally
/ âĢĭ
Ġsmo other
\ }+
ĠMetrop olis
ĠB H
ss sec
ĠRe lative
ĠSta nd
Ġgu essing
} **
Reg arding
Ġarithme tical
Normal Tok
ĠL T
g gle
b beta
Pal ey
ar b
Ġstimula ted
L ions
Ġexpon enti
Over view
98 4
$- --
35 8
or mula
Ġinstal led
sub subsec
ĠH ey
Ġdx dy
C ore
ĠInter pre
Ġ ~$
Ġm n
Ġtechn ically
26 2
sch er
Ġsett led
~ |~
Ġw o
Ġb lind
lar ke
n ature
Ġadop ting
Ġcon duction
hom ogeneity
Ġ198 3
M f
q d
oti de
}) )_{
Ġ& &=
Ġdescend ants
Ġsymme trically
Ġ12 9
ca uch
restric t
M en
Ca mbridge
ĠA N
Ġuna vo
Ġambigu ous
V F
Ġa ges
}} )+
har m
q b
L H
ĠL es
Ġspa tio
op name
Ġche ap
ĠL ucas
ĠSou thern
Ġ1 31
na p
Ġset tle
Ġhim self
ier i
K en
reson ance
Ġs ib
in sky
Ġj ets
ym er
ĠComp act
s D
ĠP lease
K or
ĠJ ia
Ġnor thern
D eta
ĠP olar
Ġdeploy ment
P ra
Ġundec idable
ĠAl most
Ġgra ting
ĠMag netic
{}{ }{}
ĠG D
Ġan notation
ĠS cale
Ġbi ds
K el
ĠN F
Ġaf fin
liv ious
' :=\
Ġk n
ĊĠĠĠĠ ĊĠĠĠĠ
ĠSta ck
Ġco ercivity
Ġmulti graph
Ġf ont
ps mall
Ġsubs heaf
F ano
ĠDo ppler
&$ [
B erg
}^ -\
K ay
ar cs
ex pon
Ġfron tier
e lem
ĠProof s
Ġsub gradient
Ġprac tition
at ti
32 9
}^+ ,
i S
Ġh oney
Ġd ates
ĠS mooth
ĠZ eno
Ġback bone
ĠB E
ĠC U
ĠL td
}}$ ).
ĠDela unay
M eyer
Ġd c
Ġs lack
Cont inu
ĠE h
ĠD f
kin son
' ^{\
sul in
{ },
an c
ĠE L
66 6
Ġ$ ]
}| =\
Un fortunately
pub lisher
O W
\\ -
k on
r T
$ ^{-
}} }^\
Ġconta cts
Ġpar king
ĠRe member
07 7
ĠBer ger
45 7
mer ge
Ġdistingu ishability
s S
Ġa p
j ing
Pro bability
ch ip
ator ics
ard en
ĠMo ser
Ġco compact
wan ted
ĠM PC
F ont
ĠR N
Ġp q
100 1
L ink
ic ks
33 9
bran ching
$ )$
/ ~
ĠImp act
Ġe ta
Ġcat al
( }
mp er
Ġh ing
Ġcoun it
ĠHar ish
ĠP CR
Ġjunction s
znets ov
( .,
Res tric
Ġreal ism
ĠCar leman
n M
ĠIden tity
bM ATH
M ills
de ff
ĠF DR
stu dy
f ang
Ġfulfill ing
ĠJ i
gin s
LS E
F ast
Ġmoist ure
Ġ }}^{
imp ortant
Par tition
Diff erential
J in
ed it
ĠAu thor
G Sp
â Ĩ
atter ns
Ġasser ted
car tesian
cyclo pedia
Ġen clo
67 8
ĠF okker
ita ev
Ġ ].
Ġp itch
od ym
Ġc ultural
Ġnon positive
Ġmemb ranes
- _{
Ġro d
+ },
ĠP es
cal f
ĠK rylov
Ġdiver ge
b W
sur gery
ĠO E
ultane ous
Ġdiffu sions
Max imum
- },
C oun
Ġinter le
Ġration als
ct r
out come
ĠP ack
ĠT ro
] })$
mu el
re pr
Ġsuper nova
ĠVis ual
~ ,
]\ ,\
ER N
' ),\
In stead
light gray
J ohnson
Ġcri tically
Ġrecombin ation
= +
\; ,
fre q
Ġ|\!|\! |\
im er
ĠN J
tag onal
K now
ĠMat ching
Ġantic an
ĠA lf
Ġcar s
cont ent
ĠTechn iques
m z
A mer
qu bits
ist ors
ĠArchi medean
ĠVic tor
ĊĠĠĠĠĠĠĠĠĠĠĠĠĠĠĠĠ ĠĠĠĠĠĠĠĠĠĠĠĠĠ
row ing
heart suit
36 6
Ġa queous
recur sion
v cent
ad m
^- )$
Ġdefinite ly
ĠGen et
Wh ich
Ġp m
z hen
ĠAnd r
ĠNat l
ĠK atz
}^{\ #
Ġconcaten ated
Ġnutri ent
ampl itude
Ċĉ ĠĠĠĠ
EX P
as si
ĠM us
f w
eff ding
Ġdepic t
Ġe gg
ĠD ra
hi ma
Ġposi tives
ĠClin ical
x R
ing u
ĠI to
ĠF OR
Ġ0 8
Ġex changed
Ġtoxic ity
n ar
., ~\
c odes
ĠI FS
Ġpre vention
vcent colon
As sump
ĠS tation
gin es
in ois
under bar
M p
P at
ĠBound s
S f
Ġbise ction
G NN
Ġ{ }^\
Ġar chimedean
oper ation
Ġp et
ĠH oriz
Ġfron ts
}\ ;\;\
cri p
75 0
Ġenhan cing
ĠO S
frame work
Ġdisappear s
ĠG onz
Ġannihi lator
Ġpeculi ar
al ong
satisf ies
b bf
b theta
Ġgraph ic
Ġwish es
Ġme teor
en yi
ĠN guyen
ĠG AN
Ġnon constant
Ġdem ographic
B X
Ġfunctorial ity
)) },
Ġre trac
\ }:
01 00
{{ {{
ĠH ad
orth o
in ite
be a
ri f
Ġ&=& -\
ĠT x
Ġen vy
Max well
me ds
ĠF I
Ġwar ming
b ag
Ġapp end
)}\ }_{
Ġarri ved
Ġgaus sian
ne e
Ġenzy mes
Ġdiagon ally
Ġlo ses
ĠEx plain
Ġsti mulation
ĠC DF
' /\
); \\
Ġrefine ments
$ }$\
Y X
ĠG agli
ach uset
AS E
Ġpe er
D un
end csname
Ġsuper singular
math underaccent
ĠEar ly
Ġsmo king
ro dinger
ĠRa o
R ig
Ġgen otype
37 8
Ġrev ision
Alex ander
m end
^{* })
Ġle x
Ġsol itary
ko lem
ĠV iet
m ot
achuset ts
}} }-
Ġdeterminant al
ter ing
C oll
c ub
Ġexponential s
Ġco fin
var Theta
ĠĠĠĠĠĠĠĠĠĠĠĠĠĠĠĠ ĠĠĠĠĠĠĠĠĠĠĠĠĠĠ
27 1
Ġmu sic
Ġd ys
Ġd ressed
\, ,\,
ut ines
Des cription
ĠEnt ropy
hyper target
] }=\
^{( +
ish es
Ġmotiv ating
as su
conver ges
ĠGen ome
ĠH un
40 9
n X
bet ter
Ġcardi ac
vio let
)} :=
37 7
Ġexpan sive
Ġpush ing
se g
Ġcondens ation
th ref
over lap
ture d
Ġ\( [
|_{ (
d dag
var s
clu b
Ġhom omorphic
Ġanti bio
Comp utation
Ġprog ressions
R ie
35 9
Ġque ues
K C
d cases
D ynamic
}} )_
Ġbu mp
ĠE A
ze bruch
ĠPar tition
qu in
Ġad missibility
Ġsubsem igroup
S cale
Ġ$[ [
Ġvacc ination
i D
Ġ1 77
au gh
up tau
Ġtra versal
ĠVer tex
Ġf iring
Ġb c
Ġre state
}\ )-
ga ta
ĠC Y
no isy
Ġzer oth
ĠJ ian
ĠFound ations
Ġstret ching
Ġas cent
o il
Ġsche ma
Hada mard
Ġi id
10 24
Ġ\| ^{
Ġo s
stret ch
Ġsupplem ented
M ori
t D
SE C
J un
}) }+
Ex ternal
ĠS ymmetric
ĠĠĠĠĠĠĠĠĠĠĠĠĠĠĠĠ ĠĠĠĠĠĠĠĠĠĠĠĠĠ
less dot
Ġ| [
[\ {
op oulos
Ġun ordered
ĠPub Med
J ust
ĠF O
omen cla
is che
b ath
t S
nt le
}) }+\
ĠE fficient
Ġ\, {
at ten
}}+\ |
ĠUl tra
s pread
ĠA li
Ġmo squ
Ġph one
' ))$
n L
ĠC ategory
00 22
or ous
Ġle gs
Ġdo mestic
Ġdetermin istically
fac ial
} ''(
We ight
sub groups
Ġre ds
cabular y
on ents
Ġpend ant
Ġcar cin
G erman
Î µ
ĠStar k
ĠUniversi dade
Ġwitnes sed
p ti
Ġre ducibility
for s
ere n
bb Z
Ġhemis phere
ĠH L
}| +|
ine z
Ġsub structure
spec ies
Ġeth ical
Put ting
ke w
08 3
Sh or
ster dam
e ur
il inger
rou wer
Ġthor oughly
Ġreveal ing
Ġde centralized
)( .
_* ,\
06 9
Mo ser
meth ods
a mma
pher ically
nd ez
om mu
ĠLou is
Ġass isted
an tic
}) }^{\
jector y
stru ctural
Ġm ountain
ĠG ray
Ġlo aded
0 96
}^* ,\
)$ &$
Ġprov ision
t binom
ĠV C
Ġsc ar
Car lo
orac le
ĠAn nals
Ġorigin s
metric s
Ġsou thern
teg ies
B loch
Ġhandle body
P seudo
cal L
Ġ- |
Ġfa ults
Ġsche duled
ĠL ions
^* }$.
)) }^
Ġaxi omatic
Ġan tioxid
ĠL iang
Ġreceiver s
Ġle ts
ductor y
Axiom C
b ayesian
Ġre cast
Ġ&= -
Ġecos ystem
IM O
ĠPredic tion
ĠM UB
Ġ198 2
Ġre act
neut ral
Ġu ps
Ġver ifier
exp lo
Ad ditionally
94 4
ĠA ct
Ġro tor
Ġnonclassical ity
Ġany one
}} }_\
v z
ĠE IT
Ġpic ks
ĠCar leson
{| }
0 99
ĠLo ss
N ak
Ġsta ff
og lu
ĠM andel
ĠUn less
G ross
Ġre parame
ĠUn iqueness
? "
W en
Ġbenchmark ing
ĠĠĠĠ ĠĊ
CC C
Ġboost ing
o cal
Pr incip
Ġsch olar
Ġ tilde
ĠK obayashi
MR I
MC MC
s ent
po de
U Y
Ġvir al
ĠWhe ther
Ġele ction
pha n
ĠK ur
ĠFe b
ĠC t
L t
ir ty
fill ing
Ġdeploy ed
Ġen de
regular ized
\, |\,\
K dV
clu de
footnote mark
ĠMat rices
ino sity
j z
Ġp sy
Ġe V
omencla ture
ĠP attern
Mor se
F EM
zero s
Ġacces sed
Ġpurcha se
.\ @
Ġpa ndem
& (\
ĠS equence
Ġbi of
Ġcapaci tance
Ġpair ings
tru ecm
Ġcoun ters
D J
Ġaf finity
ĠMu kai
ĠâĪ ¼
ce u
Ġdra ft
Ġir respective
Ġaim ing
Ġnon standard
Ġreal isation
V B
lo ying
)} }\\
3 02
ick i
Ġshadow ing
Ġfabric ated
Ġnat urality
Ġc atch
... )
aff il
Ġb if
IO NS
ĠE N
ac tivity
IC E
H of
cre ase
commu tator
3 17
| [
Ġb urn
ĠY ao
}[ $
F ock
ĠIns pired
di pole
Ġ&& -
gen frac
Ġmodular ity
))\ ,\
da ted
ger ies
98 7
Ġspecim ens
Ġ$ {(
Unary InfC
' ]\
tran sf
ĠCli mate
E p
ĠT en
Ġstimul i
Z X
Ġ1 78
Ġhol onomic
end ers
ĠD ur
la in
Out line
rightarrow tail
han i
C x
^{* }}
Ġaz imu
> -\
Ġde form
Ġc lic
ĠWe iss
ĠA pr
ant orovich
/ |\
Remark s
ĠMed ia
TH E
V or
Lemma s
ĠLa mb
d G
Ġtrans parency
C p
Ġ} [
08 7
K lein
ĠA bra
ĠW right
}/ (\
ĠPier re
t mop
ĠAr ithmetic
Ġwavegu ides
ve ps
ĠE W
FI G
Ġparallel ism
ang ular
multi pl
Ġg host
}_ *\
H g
Ġb ru
x in
Ġw aters
ĠTai wan
Lo ss
Pa ul
do p
Ġcent rifu
Sing ular
Ġumb il
08 6
Ġ{\ ,\
Ġear liest
D X
ĠNo ise
om it
Le v
ĠElse vier
U D
Measure ment
Ġc ult
Ġcommit tee
}= [\
Or b
Ġtranslation al
ĠPar seval
Ġstimul us
h it
Ġ$\ ;
Ġv otes
Ind e
Ġsharp ness
Ġanno tated
Ġhappen ed
Ġs old
Ġsu spect
ĠPri me
L ou
re move
ĠJapan ese
resi dual
ĠS ier
Le ib
ĠGagli ardo
^* },
ha ve
ad v
gra duate
55 5
discipl inary
cor respondence
ĠInte lligence
is en
ĠĊĠĠ ĊĠ
M g
Ġun restricted
z ion
Ġ tit
ĠBla schke
ĠMicrobi ol
P ick
Ġworth while
Ġpull ing
Ġ: }
Ġ)\ )
Q Coh
Ġsucceed s
psmall matrix
ot onicity
Ġfore ign
R ate
na ble
Î ´
Ġcohere nces
ron s
S NR
ĠV ienna
Ġdeep ly
Ġ\, $\,
ven tional
o ccur
z p
qu otation
Ġhy dra
^{ '}(
Ġro of
^- _\
Ġomit ting
ĠT L
igh ter
Ġnormal izer
^- ,\
$\ ,.
hu i
ut t
Ġ\{ |
constra ints
ĠT ha
ar ian
rac h
MA X
a priori
ĠProceed ing
Ġinter changing
Ġoff icial
chen ko
Ġalle vi
fig ures
Note s
Si mpl
Ġa er
co arse
Ġcont in
un gs
on ese
pro oft
, }\\
reg ulated
Ġtum ors
Ġhard ly
Ġs ens
Ġsee ing
cdot p
x n
S ze
vir tual
C OR
Ġreal m
ĠR ational
prop or
A le
cauch y
F n
Ġremark ably
Ġha ir
olog ic
ĠDe lta
ĠCar not
ĠB lue
g ner
dia grams
compe titive
Ġe mo
Y uan
IC S
co hom
ill ips
in ating
Ġsub string
ordin ate
sa w
am ing
Ġmo tional
ĠS ame
}} }}}
Ġpul led
ĠB all
ĠA sian
es se
la d
ref eq
Ġ\! \!\
Ġpl urisubharmonic
ĠAl ber
06 2
ĠZ bl
)^{ *}
Th esis
neg l
ĠEng land
Ġmosqu ito
ĠSer vice
ĠM ixed
}^+ }
}{| |
ff e
Ġopen ed
Markovian ity
w iki
Ġs yna
ch ord
}| >
lec ule
Ġpropa gates
ĠE lement
Per f
ĠE ll
sc attering
tab ase
Ð º
Ġpres sures
BV P
ĠEv idently
ĠDou glas
Ġb rown
5 01
g un
In equality
Ġconcept ually
A Y
^+ -
Ġfa ke
T om
eigen values
Ġanalog s
ell ar
Ġ2 07
e j
Ġo sc
ĠV II
ĠR as
H iggs
ban k
ĠG NNs
}(\ {\
ĠSu mmary
be c
\| $,
' {\
ĠL I
mon a
Z FC
s R
V ir
Ġb d
Ġreg istration
ĠK dV
ĠV ander
Ġsol vent
di er
Ġado ption
Ġw hom
in ductive
_{( -\
^{+ }}
inter mediate
Ġregis tered
ĠKho vanov
Character ization
Ġweak ened
ĠN D
m entary
up theta
\, |\
it in
}^+ _{
ĠGal ton
Ġconsul t
Ġste psize
\ $
ĠElect ro
A J
acc uracy
lst inline
Ġprofession al
B io
Do main
ul f
ĠMechan ical
G CN
ĠP W
ĠSas akian
ĠWork shop
A ctually
Ġtreat s
G romov
Ġ$(\ {
Ġag ed
[- ,
Ġdis trict
^* /
math normal
On line
29 1
ĠH H
19 61
corre cted
Ġp ushed
orok hod
ĠF la
Dis tribution
rig idity
Ã¼ ller
subse ts
_+ -
ĠArtin ian
ĠFellow ship
Ġbreak through
Ġlong itude
Ġnon vanishing
Ġanti podal
Po sitive
( '
In te
M it
f q
Ġcircum vent
Ï Ħ
ĠN ear
ĠNo ether
Z eh
' }+\
Ġinteg rity
}] )$
Ġi mi
ĠL ic
Ġtw enty
ĠA K
ĠSupp ort
fa ithful
ĠS tage
Ġ2 10
'$ ;
m N
var triangleleft
ĠJ L
Ġmeasu rability
hl mann
Ġdescend ant
p sc
s tive
00 05
ach er
^* )^{-
let al
S g
Second ly
Ġmod ality
Ġ\ })
^{* }$,
ĠHÃ¶ lder
P ark
ha sh
Ġimpossi bility
Ġprevent ing
ad ded
33 33
Ġ$ ).
ar bitrary
Dav is
Ġsee ks
ue ls
)| &\
Le ffler
vers arial
Ġt ract
}) &=\
es tation
}$- $\
Ġquadra tically
ta c
Ġexpec ts
Ġ rac
Ġhisto grams
Ġb imodules
R us
ro e
ore lli
yl ene
34 1
}}\, .
ĠTran sfer
) }}^{
06 0
Ġindetermin ate
Ġwitnes sing
Ġ(\ (\
Ġ[ $
45 8
Ġb ide
Ġsatellite s
Ġconnec tives
19 62
f ron
^{- |\
cal D
cal H
Ġgen omes
ĠJoseph son
Ġr s
_* ^{
ĠMic hel
j g
mach ine
S x
37 4
m P
Ġf ic
Ġcour ses
ust o
{?? }}{{\
}} }}{\
Ġref lex
Ġinflu ential
K at
full ref
Ġdes tabil
Bern stein
sides et
Ġw reath
97 6
ma c
co gn
ĠMc C
suma bly
f ted
Ġann ular
ed i
e fficiency
off oli
n F
ĠR ig
| .\
Ġco fibrations
Ġequ ator
ĠUniver sal
&& +
Ġplane ts
Qu an
Ġhaz ards
ha gen
- }(
ĠR ub
ĠY a
ĠIn equalities
ĠLo oking
Ġpo ses
group oid
G Z
ĠB rief
ĠK ir
})\ }
45 4
th i
ck en
Ma ximal
Ġsche dules
] |\
s P
ou ri
Ġdia meters
wan i
ia k
ĠSan ta
Ġattack er
de formation
pow ers
ĠConstra ints
si ca
ij en
Ġa ffor
Ġun wanted
re me
Ġfat ty
Ġclassif ications
] =\{
ð Ŀ
ĠQ U
{\ {\
emp irical
Ġda ma
)}) (
is sa
Ġphen otype
ĠSche me
Ġ$( |
ĠC le
ĠG K
Ġcub ical
ĠP faff
36 1
: \{
Multi ple
ma gic
Ġprefer able
Ġdup lic
Ġ100 00
I tem
distin ct
Ex ponential
Ġun ic
Ġmil k
4 05
}. ]
01 23
de pend
Ġver s
Ġquestionna ire
S ymmetric
]{ {\
Ġimmu no
rm d
3 96
multi plication
] ]$.
t ension
Ġun conditionally
Ġferm ion
ĠD isease
Ġregula tor
Ġremin is
da tive
Ġ{ }^{
(( -\
Ġp si
ĠB N
normal ization
ĠG KP
subse ct
3 000
T m
ther apy
ou rable
' \|_{
X S
ĠM ik
[...]
